#version: 0.2
Ġ t
Ġ a
Ġt h
i n
o u
r e
Ġth e
Ġ s
Ġ w
Ġ o
Ġt o
Ġ y
Ġ i
Ġy ou
n d
in g
Ġ b
a t
e r
Ġ c
Ġ h
Ġ g
Ġ p
Ġ f
Ġa nd
Ġ d
l l
Ġ l
Ġ m
a n
i t
Ġo f
Ġg o
Ġi t
e s
e n
o n
o r
Ġ I
Ġth at
Ġ in
o w
u s
l e
Ġi s
i s
a r
v e
e t
o m
Ġ n
Ġh a
k e
Ġo n
i c
Ġb e
Ġyou r
o t
Ġgo ing
Ġw h
' s
Ġw e
e d
a y
Ġ e
Ġs t
a ll
a c
a s
g h
u t
Ġ T
Ġ re
' re
a l
Ġd o
ou t
e re
Ġth is
an t
Ġ S
Ġ A
Ġ r
v er
Ġc an
ĠT h
i gh
Ġ j
Ġha ve
it h
Ġa re
us t
i d
igh t
Ġ u
Ġf or
Ġw ith
s e
i r
a ke
l d
all y
Ġw ant
c h
i on
l y
o o
Ġj ust
ĠS o
Ġl i
Ġs h
Ġa n
Ġ k
a d
Ġo r
us e
en t
s t
e c
om e
Ġs o
i m
r o
Ġu p
e e
Ġg et
a m
Ġm o
Ġa s
i ll
ĠA nd
ac k
ou r
it t
Ġli ke
Ġ out
t h
Ġa b
Ġ W
' t
a in
u re
o d
Ġ Y
u r
' m
Ġn e
Ġh e
ou ld
ar t
Ġl itt
Ġi f
ver y
Ġn ot
i l
Ġwh at
Ġlitt le
in d
Ġthe y
ĠY ou
Ġa l
r a
e p
Ġthe re
Ġh ere
Ġon e
Ġc h
Ġf r
c t
Ġl e
Ġm ake
c e
Ġab out
Ġa ll
Ġthe n
Ġa t
Ġ N
r ou
id e
ar d
t er
i p
oo k
i f
Ġd on
Ġc o
Ġb ack
Ġm y
Ġs ome
Ġp l
ow n
o p
ĠTh e
g e
Ġw ill
ic e
Ġb ut
Ġth ing
Ġk n
a use
Ġc om
Ġh ow
Ġ O
Ġwh en
Ġre ally
Ġs p
Ġt r
Ġw ay
er s
Ġ use
Ġ B
u l
Ġr ight
Ġin t
Ġd own
a b
Ġe x
Ġp ro
k ing
Ġc l
or t
Ġ very
ĠN ow
Ġbe c
i ve
Ġ our
Ġthe m
n t
Ġp ut
a p
ĠI t
q u
Ġt e
' ll
Ġfr om
ic k
m p
u n
Ġw or
Ġmo re
h er
s o
Ġl ook
Ġbec ause
at e
Ġp o
es s
Ġt ake
Ġs ee
in e
Ġt w
Ġm e
Ġne ed
Ġ us
ĠW e
Ġf l
Ġan y
Ġint o
p p
Ġt im
s s
es t
Ġc on
Ġ H
am e
Ġs ure
Ġha nd
u ally
t ing
Ġp re
ĠTh is
Ġb it
' ve
ac e
Ġgo od
i g
Ġof f
Ġo ver
Ġs e
at ion
o se
Ġl ot
Ġkn ow
Ġk ind
th er
Ġst art
Ġ ke
Ġd e
Ġw ould
ec t
rou nd
a nd
o re
if f
Ġb r
Ġ M
is t
Ġa ct
h ing
Ġal so
ic h
ĠW h
Ġtw o
as t
u m
g ain
Ġd iff
o c
re e
om et
Ġo ther
Ġke ep
re at
Ġtim e
i re
Ġn ow
ĠI f
f t
l f
v en
Ġt al
Ġdiff ere
Ġgo t
Ġwh ere
Ġd r
a k
Ġb as
Ġthe se
w ay
ac t
m ent
Ġwh ich
at er
Ġb l
on g
o l
Ġ C
it e
Ġn ice
ir st
u ch
u ll
Ġs ide
as s
Ġp e
ee l
Ġha s
Ġ v
Ġ F
Ġb all
ac h
Ġp art
Ġa d
Ġact ually
Ġs omet
Ġi mp
Ġa round
Ġdiffere nt
a ge
Ġa gain
Ġha ir
o ot
p le
Ġc ome
Ġp r
Ġh er
Ġthing s
Ġ L
rou gh
e m
Ġ D
od y
Ġsh ould
Ġwor k
Ġ G
h e
on e
Ġth rough
n e
x t
Ġ en
Ġe very
Ġs l
" "
ur n
Ġf irst
Ġl et
f f
Ġb u
op le
Ġm uch
a re
p er
Ġf e
a g
w ard
Ġpe ople
b er
Ġsh ow
i z
Ġb y
Ġm ay
in k
l or
ĠB ut
i e
is h
in t
oo d
ab le
Ġth ree
Ġthe ir
y p
Ġs m
u e
Ġs k
ĠTh at
nd er
Ġto p
Ġs c
Ġs u
us h
b le
l es
Ġb o
Ġtr y
Ġ P
Ġw as
i es
Ġdo es
t y
Ġc ut
Ġ qu
Ġw ater
Ġco lor
Ġt yp
Ġimp ort
it ion
Ġsomet hing
Ġtal k
o ld
r ow
v ing
l p
v es
Ġst r
a il
e l
at ch
Ġr o
Ġhe lp
Ġimport ant
Ġb ot
ou gh
Ġg l
Ġth ose
a king
ĠI n
Ġa r
en s
Ġe ven
g et
ot her
Ġp i
Ġdo ing
Ġc all
k ay
Ġst ep
Ġ J
Ġus ing
Ġcon t
Ġto o
Ġle g
o s
Ġs ay
Ġc le
Ġne xt
Ġf ind
ra p
Ġ R
ad y
th ing
Ġt urn
Ġs ame
Ġwe ll
Ġad d
Ġb ody
ou s
Ġb et
ĠTh ere
e nd
an ce
r y
s ide
way s
Ġm an
oc k
b e
Ġs a
it y
Ġm ight
Ġa c
Ġe as
Ġ E
i le
Ġre m
Ġpl ay
he ad
Ġpi ec
o g
Ġc ould
as e
f ore
Ġl ong
Ġs w
Ġwh o
Ġmo st
ou nd
Ġo p
Ġu nder
Ġle ft
Ġsh e
Ġbas ic
Ġmo ve
Ġ 1
Ġc ar
Ġs et
Ġg ive
Ġal ways
ĠWh at
Ġg u
i x
Ġth an
Ġp ull
Ġa m
se lf
i al
Ġg reat
m s
an s
Ġp er
o ve
Ġa head
Ġl ight
ar k
Ġl ine
Ġe nd
Ġhe ad
Ġa pp
ec k
Ġpl ace
Ġf eel
Ġbe fore
on t
ad e
a v
u b
Ġb ig
Ġe y
Ġth ink
Ġh old
n ce
Ġpo int
Ġg r
Ġst ra
ul ar
ĠH i
u p
a le
ĠThe y
ak es
Ġcom p
ion s
e en
Ġc ou
Ġsk in
t ty
u d
Ġf oot
ers on
Ġf our
Ġan other
ar s
Ġs im
Ġp ain
Ġbr ing
Ġh igh
Ġn o
Ġcle an
or m
ve l
Ġfr ont
ĠWh en
d u
n ing
ĠA l
Ġpre tty
Ġon ce
Ġbot t
Ġstra ight
i ld
Ġp erson
Ġtyp e
Ġst re
i b
Ġc or
c ess
it ch
Ġhand s
a x
Ġr un
Ġsm all
ow er
d ay
d er
Ġd ay
Ġc re
a ir
o nd
Ġd ra
Ġh is
is e
Ġpre ss
iz e
c k
Ġfor ward
Ġdon e
Ġw r
ip s
get her
Ġop en
Ġb re
Ġcall ed
e ver
n er
ap er
Ġh ard
Ġpiec e
Ġto gether
Ġab le
f ter
o st
Ġs ec
ĠO kay
Ġpo s
i ly
at ter
an g
Ġdoes n
i er
i ous
at ed
ke d
Ġget ting
Ġde f
Ġte ll
Ġmay be
im es
ĠO ne
e ll
Ġon ly
or s
u mp
Ġm in
Ġst ill
ro p
a ve
Ġ K
ĠA s
Ġbe en
Ġb est
ab ly
Ġex t
m on
Ġ ed
at h
Ġfe et
Ġh im
Ġp h
ĠTh en
Ġdra w
Ġd is
em ber
r ic
Ġ ""
Ġin side
. .
Ġe ach
oo l
Ġha lf
ro ss
Ġs er
Ġman y
Ġha pp
ĠS t
Ġp aper
Ġbott om
Ġpos ition
Ġo il
Ġn ame
Ġre p
Ġdo g
ig n
Ġto day
Ġro ll
b ably
Ġare a
an ge
am p
Ġus ed
f ul
o b
t ain
as h
Ġbu y
Ġth row
Ġf in
Ġa way
Ġc ard
Ġtim es
Ġd id
ap e
Ġf ace
re d
Ġpro bably
d le
ic al
oo p
h ale
Ġre ady
Ġpro du
Ġdr y
an k
ar n
ou ch
at ing
Ġc ent
Ġst and
ee p
Ġcl ip
Ġc our
Ġre al
l ic
Ġha d
Ġst ick
Ġ 2
Ġc r
Ġre c
Ġh it
Ġre s
Ġcom es
t e
Ġ "
Ġf ive
ĠA n
Ġany thing
Ġgl ass
i ent
Â Ģ
Ã ¢
Ġgo es
Ġyour self
Ġbr ush
Ġtal king
ÂĢ Â
d e
Ġ ve
Ġf un
ĠL et
Ġf ing
Ġm aking
Ġu n
Ġcom ing
ÂĢÂ Ļ
Ġs qu
Ġs it
Ġpl ant
Ġpain t
Ġa fter
Ġt ouch
Ġbet ter
Ġ U
is s
Ġe l
Ġpr act
ou nt
Ġc are
Ġsh ot
Ġeas y
u ff
es e
Ġo b
Ġin st
ul t
Ġn um
Ġwh ite
Ġli ft
Ġlook ing
Ġen ough
ot h
Ġwe re
Ġex p
Ġwor king
Ġey e
Ġd ec
Ġevery thing
Ġpro per
re ss
Ġp ush
ct ion
op e
Ġbasic ally
Ġsec ond
w een
Ġm ade
Ġbet ween
Ġd es
ic ally
Ġwh ile
Ġre l
Ġne w
Ġat t
ward s
Ġfl at
un ch
b ody
o ll
w n
Ġs y
Ġbe ing
Ġst ore
in es
Ġi m
ir d
Ġco ver
Ġus ually
ĠF or
Ġrem ember
f ort
Ġs ur
ar m
Ġin ch
Ġlook s
Ġmin ut
ect ion
Ġfe w
t ch
Ġst ay
Ġcon s
al s
Ġy e
ing s
Ġcour se
o or
Ġm id
Ġbas e
Ġcou ple
i ves
r ight
v ious
ow s
g th
re ady
Ġs ize
Ġp ass
Ġd ire
Ġal ready
Ġt en
ĠJ ust
Ġgu y
Ġcent er
i ke
Ġf ull
Ġe ar
as on
ĠO nce
Ġsomet imes
l ing
Ġm akes
Ġj ump
ith er
re en
Ġp ic
Ġit s
Ġro om
Ġprodu ct
i v
i ble
Ġf ish
Ġd ep
Ġkn e
ment s
Ġtry ing
Ġwho le
Ġstre tch
Ġs n
ir t
oo se
Ġpract ice
Ġle arn
Ġbot h
Ġleg s
- -
Ġo kay
Ġl ast
Ġe le
i a
Ġc ur
Ġh ome
Ġs ix
Ġi de
Ġh or
Ġm us
en ce
Ġbe h
itt ing
w h
Ġk ick
i ally
v ent
Ġ 3
Ġf ar
Ġsp e
ar y
Ġre g
g er
Ġs ort
Ġto ol
Ġc er
Ġqu ick
Ġp ick
Ġcom ple
Ġmid dle
m ost
Ġl ar
an c
Ġe ither
ra b
Ġcl ose
g le
at ur
Ġc up
Ġg round
Ġwhat ever
Ġcom fort
Ġsp ec
ation s
Ġnum ber
Ġin f
Ġli p
Ġp ot
Ġn eck
Ġor der
Ġbo ard
Ġper f
t on
Ġin d
Ġbe l
Ġwe ar
Ġwe ight
Ġme as
g g
Ġw ind
Ġo pp
Ġd et
ĠA gain
Ġu nt
st r
Ġway s
. "
i qu
re s
Ġb ag
er c
Ġm ix
Ġte a
c le
i ed
at s
Ġc ase
Ġsu pp
Ġl ay
ĠS ome
Ġme ans
Ġshould er
Ġar ms
Ġapp ly
Ġkne es
f e
Ġ z
Ġt ight
Ġc reat
Ġd rop
Ġbe g
Ġpart ic
Ġstr ing
a ut
og rap
o y
r on
ou se
Ġg ame
Ġm as
or d
Ġtyp es
re ad
Ġw ood
Ġwh y
Ġpro ble
t o
Ġl ow
Ġwh eel
Ġre st
Ġch est
Ġunt il
Ġw ire
at es
at ure
Ġc atch
et y
am ple
Ġme an
ĠM y
vious ly
Ġbeg in
u al
at her
Ġre ason
ĠTh ese
if t
Ġin c
Ġin ter
Ġdef in
Ġa ir
ĠM ake
ne ath
t en
Ġw ax
Ġo wn
Ġb ook
Ġc ause
Ġm il
Ġm ark
Ġha ving
Ġpro cess
Ġfl oor
ĠC h
Ġunder neath
h y
Ġ es
Ġb reat
Ġl oc
en c
Ġmo ving
Ġsl ow
Ġminut es
o le
at ive
Ġc ir
Ġcomfort able
m er
u ck
Ġf il
Ġr a
ch n
Ġout side
Ġshould ers
Ġac c
Ġbre ak
Ġpartic ular
Ġm ot
Ġr id
t ure
Ġo ld
Ġn atur
Ġst y
Ġch ild
ĠH e
ff ect
Ġcont ro
Ġsim ple
Ġdep end
Ġ V
Ġp in
Ġcom b
Ġex erc
Ġbl ack
Ġcolor s
Ġed ge
p ing
p ly
Ġw al
Ġst op
Ġse g
um b
Ġbo x
Ġrem ove
Ġpiec es
Ġhor se
Ġbeh ind
j ect
Ġt ra
Ġf ood
Ġf ound
or y
Ġget s
Ġfin ish
Ġmeas ure
u g
Ġg row
Ġp ur
Ġle vel
Ġco ll
Ġes p
Ġth ough
Ġl ower
Ġm ed
id es
Ġtr ain
Ġex ample
Ġte chn
Ġpo ss
Ġpr ot
Ġpress ure
Ġph ot
Ġcer tain
ent ion
ast ic
Ġv ar
ĠG ood
Ġar m
c les
Ġs and
Ġw atch
ĠA ll
Ġsp r
Ġbu ild
ĠAl right
Ġth in
Ġp op
om m
ĠWe ll
Ġcre ate
t s
Ġw all
Ġf ine
Ġsome one
ite ly
Ġsa id
Ġdis c
u nd
Ġt able
Ġt aking
Ġto wards
Ġb le
Ġh ot
Ġd i
et h
Ġe ight
Ġal most
Ġw arm
Ġf ire
it s
en er
Ġsp in
Ġsp ace
n ess
er m
Ġg rab
Ġbe aut
Ġst uff
Ġch e
one y
ĠAn other
wh ere
Ġm ain
en gth
Ġ ent
Ġh ouse
Ġg reen
Ġd ark
Ġfor m
Ġch eck
Ġput ting
av or
Ġdefin itely
z e
id er
ec ially
Ġdes ign
Ġmil k
h ic
i an
re n
Ġf ill
Ġl ove
Ġn orm
ec ause
Ġbl ock
Ġsw itch
Ġey es
Ġsur f
Ġreg ular
Ġseg ment
a h
Ġw a
nd s
Ġp ad
Ġf ree
Ġd ist
Ġl ength
Ġon to
Ġre d
Ġwith out
Ġle ave
Ġi ron
Ġb ird
en se
Ġpo st
Ġl oop
Ġn ail
ere st
Ġne ver
ĠB ecause
Ġint erest
Ġac ross
ĠAl so
Ġide a
Ġcomple te
' d
Ġt ip
Ġs ch
Ġr ub
Ġan gle
Ġal ong
Ġlong er
w el
Ġt ail
Ġc ook
Ġh ook
Ġl ines
Ġre f
Ġch oose
Ġam ount
Ġsim ply
Ġcontro l
b s
Ġth ick
Ġw on
Ġb ra
Ġh ip
ĠT od
st em
Ġbut ton
Ġcom m
Ġex act
Ġfl ow
ĠF irst
r i
in ess
Ġg ives
Ġf all
Ġdo or
ĠS he
Ġj ob
ent s
Ġch ange
Ġkn ee
ĠO r
Ġex per
Ġsy stem
Ġphot ograp
t ion
Ġt reat
Ġs uch
Ġf oll
Ġl ess
Ġhe av
Ġex hale
Ġsl ight
Ġeas ier
Ġ 4
Ġc at
Ġj ack
Ġsh ort
Ġse ven
Ġde al
Ġfing er
Ġfing ers
Ġob viously
Ġnatur al
Ġtechn iqu
Ġh ole
Ġg ar
Ġm ass
Ġst e
Ġall ow
ĠB e
Ġwork s
Ġs al
Ġb ar
Ġh our
ver s
il ity
Ġle a
Ġhapp ens
Ġrec omm
Ġexerc ise
Ġrecomm end
d d
g es
r act
Ġt est
Ġa v
et her
ac ter
Ġnot ice
ĠN e
Ġte mp
Ġtw ist
ĠH ere
Ġkeep ing
Ġpr int
c er
Ġw et
Ġf ab
Ġf old
id s
Ġhe at
Ġwor d
ĠD o
e f
ac ing
Ġr ound
Ġsh oot
Ġtr ans
Ġcl os
ĠH ow
Ġperf ect
Ġesp ecially
g r
o on
Ġt ire
Ġc ross
Ġf oc
Ġl o
ur ing
Ġch ar
Ġpl an
ens ion
g ar
Ġs un
Ġs ection
Ġf ast
Ġm oney
en ing
Ġe ffect
Ġst ro
Ġsh ape
if ul
Ġext ra
Ġye ars
Ġpic ture
Ġsty le
ĠTod ay
b ing
v ice
Ġt ape
Ġb us
Ġc ool
Ġm on
Ġit self
Ġin s
ĠT o
Ġqu ite
Ġrun ning
k s
Ġb al
Ġp atter
Ġco nd
Ġsp ot
Ġtr ick
er g
Ġm atch
ere d
Ġr oot
if ic
Ġco at
Ġde g
Ġbl ue
oot h
ag es
Ġstr ong
Ġcle ar
Ġve hic
Ġfoc us
Ġpatter n
b o
Ġc ap
Ġh ips
le ase
Ġdo ll
ent ly
Ġcut ting
Ġcont in
Ġrel ax
Ġspe ed
Ġvar i
Ġfab ric
k es
l ess
Ġs ing
Ġh eel
Ġp ow
ĠS omet
Ġr ope
Ġj e
Ġli fe
Ġso ft
ter s
Ġke y
Ġhelp s
Ġfoll ow
ou ble
re w
Ġb ad
Ġe ver
Ġpro f
Ġcl oth
ate ly
Ġstart ed
Ġdire ct
Ġt akes
Ġs le
Ġp ower
Ġf it
Ġf act
Ġd eep
Ġm ind
Ġon es
ac es
ent y
Ġas k
Ġpl astic
Ġcom mon
Ġbec ome
.. .
Ġopp os
i ence
Ġa p
Ġp air
Ġwh ether
Ġle ast
if e
Ġstart ing
Ġwas h
Ġlar ge
Ġbeaut iful
Ġsurf ace
u es
Ġb at
Ġg ener
Ġf ore
ir r
Ġso l
Ġsome body
Ġcl ass
ĠD on
Ġsm ooth
Ġslight ly
0 0
c es
re ct
le x
ust om
Ġde mon
Ġdr ill
Ġar t
Ġel b
Ġcare ful
i um
m e
Ġ 5
Ġw in
Ġn ight
ess ion
Ġneed s
Ġcor rect
Ġwr ist
Ġel se
Ġvehic le
o e
out h
rou p
Ġcl ay
Ġcon f
Ġdr ink
Ġagain st
Ġcard s
Ġdire ction
Ġposs ible
Ġdemon str
Ġth umb
Ġc ast
Ġf am
Ġf ur
Ġl ater
Ġre ad
ĠN ot
Ġtr ack
ie ld
Ġim age
Ġguy s
und red
Ġbus iness
b all
i ving
Ġs ides
Ġc ustom
Ġh oop
Ġg ard
Ġof ten
Ġgl ue
Ġcor ner
Ġsmall er
Ġmass age
Ġcond ition
e ad
n g
Ġh undred
Ġp unch
Ġm atter
Ġhe al
Ġbo at
Ġmus cles
Ġbreat h
j oy
l ish
Ġto oth
Ġb urn
Ġc am
Ġp ort
Ġcl ub
Ġdiffere nce
Ġsu gar
ck et
Ġexact ly
c ent
Ġ 8
Ġc a
Ġp ay
or k
Ġin v
ve d
Ġbe nd
Ġst ud
ĠO n
Ġcl im
Ġhapp en
Ġve get
Ġdepend ing
Ġwal k
Ġsing le
ĠSomet imes
a z
Ġw ide
it ing
us s
ic s
ic es
ec ess
ĠO K
Ġsp ine
Ġpre p
ĠF r
Ġsl ide
Ġmove ment
ient s
Ġcons ider
Ġslow ly
Ġprot ect
Ġcomplete ly
Ġpow der
i o
Ġs ign
Ġs itting
Ġg roup
Ġp our
Ġf re
Ġm irr
ĠW ith
ast e
ull y
Ġen joy
"" "
ff ee
Ġproper ly
Ġinf orm
Ġnorm al
l ine
t ed
in ce
Ġs ound
Ġb en
Ġm ater
on es
Ġfor th
Ġpo se
ĠG o
Ġsu b
Ġproble m
Ġmater ial
er a
Ġd ouble
Ġn ecess
im m
Ġhe art
Ġfr ame
Ġstart s
Ġsc r
Ġsa f
Ġcomp ut
Ġcou nt
Ġpain ting
vel op
Ġproduct s
Ġheav y
Ġtemp er
Ġp itch
ar p
Ġcon n
Ġde velop
Ġbl ank
Ġpart s
Ġen erg
Ġed ges
Ġdid n
Ġsqu ee
Ġexp l
Ġap art
c c
an y
Ġbe ll
Ġr ock
Ġan t
Ġnot hing
Ġle ad
Ġtr ip
Ġte ach
Ġte eth
Ġimp ro
Ġqu est
Ġble nd
Ġtechniqu e
k et
Ġto es
Ġc al
Ġp ar
Ġe qu
as ter
ut e
Ġco ffee
Ġte am
Ġbel t
Ġsch ool
Ġinform ation
f ully
o es
Ġb atter
Ġgo lf
Ġin hale
le ct
ir l
ro om
Ġkn ot
and s
Ġbr own
Ġad v
ie w
Ġsw ing
Ġplant s
Ġmot ion
Ġenerg y
Ġf o
us hing
am es
Ġfr ie
ip e
ĠB r
qu ire
Ġte nd
Ġtw enty
ie ve
ens ive
Ġgr ind
Ġinch es
Ġproble ms
Ġste am
a w
c om
Ġ '
Ġw o
Ġto wel
Ġf ig
Ġm ar
Ġwe e
ver al
Ġare as
Ġkn ife
Ġpre s
Ġse veral
Ġkind s
Ġv ide
Ġday s
Ġser ies
Ġbal ance
Ġprof ession
Ġmirr or
m b
o h
p l
p r
Ġ 7
re es
Ġb ul
Ġb ike
Ġh ang
Ġp at
Ġre t
Ġbl ade
Ġen g
ĠR em
Ġtra vel
Ġtrain ing
Ġheal th
Ġsaf ety
Ġtemper ature
e ar
o om
y s
Ġ ess
Ġth read
in s
Ġi ce
Ġb ow
Ġn ose
Ġre quire
Ġj u
st and
Ġmo d
ĠY our
ter n
ol og
xt ure
Ġeas ily
Ġsqu are
Ġele ct
Ġgard en
Ġblank et
d r
j ust
in al
at or
Ġc ra
Ġm outh
Ġre lease
ur t
ab les
ap s
ĠM ost
Ġbas ket
Ġplay ing
Ġwr ong
Ġloc al
Ġdisc uss
Ġfig ure
p ed
w are
Ġp an
it ies
ar ily
ic king
Ġe at
Ġst one
Ġst itch
ĠT ake
Ġr ing
ad es
Ġch air
oc ol
Ġv is
Ġac cess
ĠSt ep
Ġatt ach
Ġchar acter
Ġfur ther
Ġcustom er
Ġcam era
c l
n a
p ect
w ise
Ġs ince
Ġw ine
Ġto e
er y
le d
Ġst rap
Ġr out
Ġj o
id ing
Ġpre vent
Ġv al
Ġsc ore
Ġcont act
Ġatt ention
Ġtool s
Ġlip s
Ġcir cle
Ġent ire
Ġhour s
Ġcontin ue
Ġdemonstr ate
ĠRem ember
i ver
u c
Ġ (
Ġth ird
Ġw rap
Ġh itting
Ġg ently
it ed
on s
om en
ir ty
Ġwant ed
oo s
Ġup per
Ġmo ist
Ġch ick
Ġbut ter
Ġbl ood
Ġsk ill
Ġcre am
Ġlar ger
Ġdet ail
Ġlea ves
Ġoppos ite
Ġp ack
Ġis s
Ġre ach
ant s
Ġsh arp
Ġk ids
ep t
Ġch ain
Ġch ang
ĠO k
Ġse at
Ġlot s
Ġad just
Ġevery body
Ġsl ip
iz ed
Ġsc iss
Ġperson al
ĠK eep
Ġinst ead
Ġspec ial
Ġsupp ort
Ġspr ay
Ġgar lic
bo ard
c ed
e y
f er
i or
o ss
y l
Ġa g
ou n
ou nce
Ġd am
Ġm at
Ġm ag
ar ch
ĠS h
Ġr ice
Ġas s
Ġco re
Ġcl ock
Ġwor ry
Ġfl ip
Ġfl avor
Ġshow ing
Ġcar ry
ĠU n
res h
Ġcomput er
. """
a u
Ġto r
Ġf avor
Ġf ield
Ġl ock
Ġm ic
Ġn ut
Ġr ot
Ġsh op
Ġch ocol
if y
Ġwor ld
Ġneed le
Ġact ual
Ġpart y
Ġsm o
Ġstr ip
Ġpull ing
Ġdraw ing
Ġsit u
Ġpur p
Ġmed ium
Ġprofession al
n gth
u le
Ġt er
Ġh ol
Ġp en
Ġl in
Ġl and
Ġl oose
Ġbe d
Ġwith in
Ġab s
Ġfl ash
Ġhand le
Ġdiff ic
Ġsc rew
Ġqu art
Ġstep s
Ġcont ain
og a
Ġpoint s
Ġstre ngth
Ġsn ow
Ġinterest ing
Ġinv ol
Ġchick en
Ġh ope
Ġf at
Ġf lex
Ġd uring
Ġl ist
le t
Ġor ange
im p
ep ar
Ġco ld
so l
ĠM ay
Ġturn ing
Ġplay ers
Ġsw e
Ġhold ing
Ġhigh er
Ġclean ing
Ġcor n
Ġinst all
Ġthin king
Ġsle ep
Ġbell y
c ar
g an
l ight
u ct
Ġt ank
Ġa ud
in ation
Ġto m
Ġp al
Ġd ress
Ġm ach
Ġsh r
Ġhe ar
ation al
ĠC l
ĠE very
Ġhard er
Ġstand ing
Ġquick ly
Ġspec ific
Ġcoll ar
Ġwa ist
ĠNe xt
Ġben ef
Ġa ut
Ġs epar
Ġf resh
Ġm om
it ive
Ġis n
Ġe gg
Ġst ain
as es
ĠA fter
Ġco st
Ġany where
Ġse w
Ġdr ive
ĠR ight
Ġ1 0
Ġset ting
Ġgr ip
Ġdec or
Ġye ar
Ġfound ation
Ġav o
Ġelb ow
Ġwo nder
e x
m an
t im
t op
Ġ ing
Ġt erm
Ġy ard
Ġb ab
Ġp ushing
Ġf ly
Ġf air
Ġm et
et s
Ġbe ad
se l
Ġtal ked
Ġsa ve
Ġfil m
Ġchild ren
Ġfam ily
Ġclim bing
Ġchocol ate
Ġhol es
a j
b ack
c on
n y
u ce
Ġt ips
Ġb ro
Ġgo ne
Ġe vent
oo ked
Ġsh ap
Ġor ig
il ar
Ġch o
Ġall ows
ĠB as
Ġex c
Ġpro ject
un k
Ġfl u
Ġse lf
Ġunder stand
Ġgu it
Ġsec ure
Ġext end
Ġbegin ning
mer ic
Ġflow ers
Ġlo ad
i od
l ier
Ġthe rap
Ġb unch
Ġl id
Ġm ention
Ġgo ld
or n
Ġin k
ĠA meric
Ġr od
Ġwant s
Ġli qu
Ġan k
Ġor gan
Ġmo ld
Ġne ar
il ing
Ġch op
Ġdr ib
ĠR e
Ġplay er
Ġbig ger
Ġsim ilar
Ġroll ing
ĠU s
Ġpost ure
Ġess ent
re ase
Ġto ile
Ġy ell
Ġh y
Ġd ish
Ġd eck
Ġe m
Ġab ove
ĠH ell
Ġse lect
Ġde ad
Ġball s
Ġpr in
ĠG et
ĠE x
Ġfeel s
Ġcou n
Ġser ve
Ġcir c
ren ch
Ġdist ance
Ġcomm un
gr am
Ġmod el
ĠMay be
Ġavo id
ĠHell o
a ur
o ves
Ġ 6
Ġ vers
Ġs il
at ic
Ġf ir
Ġf aster
Ġl og
Ġst eel
Ġst ance
Ġne g
Ġmake up
Ġpl aces
Ġpro gram
ore d
Ġevery one
Ġsm ell
Ġsay s
ang le
Ġbuy ing
enc il
imm ing
Ġexpl ain
Ġfo am
Ġbab y
b y
m ed
o ver
s h
in a
Ġw omen
Ġto t
Ġb one
Ġm eth
Ġr ib
Ġpro v
Ġwould n
Ġpart ner
Ġsa fe
Ġwr ite
Ġres ult
ĠAn y
Ġdec ide
iv id
enc y
Ġfil ter
Ġphotograp hy
Ġdeg ree
Ġnecess arily
Ġbatter y
Ġju ice
Ġelect ric
Ġfavor ite
Ġdiffic ult
Ġing red
ĠBas ically
Ġmeth od
l ace
r ib
Ġt ension
Ġh at
Ġf ash
Ġm ess
Ġm ount
ĠA r
Ġr ather
Ġso on
il t
Ġmy self
Ġpl ate
Ġtr im
Ġfl ower
pp ing
Ġse en
um e
Ġopen ing
Ġ2 0
Ġminut e
Ġear lier
Ġinter n
Ġfinish ed
Ġdoll ars
Ġpurp ose
Ġyell ow
p h
Ġt iss
in y
Ġw ent
Ġo cc
Ġb and
at o
Ġp encil
Ġd irt
is es
Ġst ate
Ġre ce
ĠS ee
ĠA t
ch an
Ġsh oes
Ġan im
Ġso il
ro du
Ġsp end
ab ility
Ġse ll
Ġkeep s
ak en
Ġsa w
Ġapp ro
Ġdef ense
Ġob ject
Ġsecond s
Ġwind ow
Ġmas k
Ġexper ience
Ġpitch er
Ġwee k
Ġsciss ors
car a
Ġpal m
Ġmach ine
aj or
Ġflu id
Ġguit ar
Ġcoun ter
n ot
v is
v ir
Ġt ie
Ġy oga
Ġd ial
Ġl ose
Ġm ist
it es
Ġst ory
ut ion
if ied
Ġpro p
Ġwor th
Ġme et
ol i
ĠL ike
Ġbu b
Ġqu al
Ġop tion
Ġlight er
Ġend s
Ġser vice
Ġstand ard
Ġres p
Ġstore s
Ġcons ist
Ġwear ing
Ġbook s
Ġdepend s
Ġword s
Ġmon th
Ġprep are
Ġequ ip
Ġfrie nds
Ġbow l
sel ves
b r
n is
s w
w ork
Ġ -
Ġ 9
Ġb ent
Ġb ath
Ġg iving
Ġp ast
Ġf acing
Ġm ajor
an a
on ent
on ment
le y
ot s
Ġsh ad
Ġan g
Ġme chan
ect ions
Ġdr ain
ak er
Ġen vir
Ġbu cket
Ġtyp ically
Ġ1 5
Ġgu ide
Ġthrow ing
Ġind ivid
Ġlay er
Ġmas cara
Ġspr ing
Ġsal t
Ġdeg rees
Ġskill s
Ġsitu ation
Ġmention ed
Ġenvir onment
f ting
h ip
l er
v iew
y cle
Ġt ree
Ġth irty
at t
Ġc ame
Ġd ust
Ġd ent
le as
Ġwe bs
ĠS p
Ġk ite
Ġle an
Ġsp read
Ġcl ient
pp ed
ĠC an
Ġlet ters
iz es
Ġapp lic
anc ed
Ġra w
Ġrub ber
Ġav ail
Ġeffect ive
Ġstro ke
Ġvari ety
Ġvide o
Ġrout e
Ġjo int
Ġsepar ate
Ġmom ent
a id
g ing
h and
l t
Ġt ent
re am
Ġc e
Ġh op
Ġg ift
Ġg irl
Ġm ust
on y
is ting
is hing
Ġr ange
ĠTh ose
Ġli ve
Ġout f
Ġsome where
Ġbr ight
Ġbr ake
ag on
Ġsu c
Ġlight ing
Ġfeel ing
Ġmus ic
Ġrid ing
Ġthough t
Ġposs ib
Ġje ans
Ġgener al
Ġveget ables
Ġtoile t
med i
Ġavail able
b les
p or
s on
Ġt ap
Ġt un
Ġt aken
Ġto ss
Ġb ol
Ġp ink
Ġd a
Ġd ip
Ġl ap
Ġm en
Ġm iss
Ġit em
ĠI s
ar ning
ac hing
Ġr ain
Ġr ough
Ġhe ight
ul ation
ig er
ĠWh ich
Ġnice ly
iz z
Ġsk irt
Ġsay ing
Ġbott le
Ġph one
Ġatt ack
Ġide as
Ġcup s
Ġtra il
wel ry
Ġca us
Ġconn ect
Ġbul b
Ġret urn
Ġdam age
Ġwonder ful
Ġfair ly
Ġfash ion
Ġequip ment
e an
g est
Ġb ur
om p
Ġbe er
ĠS w
id th
oo f
Ġsh amp
Ġso c
im ent
il i
Ġle mon
Ġpl i
Ġsp ark
un g
Ġhand y
Ġv ol
Ġpr im
Ġthrough out
Ġsu gg
os ed
Ġturn s
ĠE ven
Ġten nis
Ġcreat ing
Ġmark et
Ġbuild ing
Ġmain tain
Ġfre t
Ġsquee ze
Ġhealth y
Ġmic row
Ġsmo ke
Ġquart er
ĠUs ually
Ġsugg est
S o
d it
Ġ est
re me
Ġthe r
Ġto ward
Ġi d
Ġp eel
Ġf ight
Ġf ix
an e
it er
ic ed
as ting
al k
Ġr ace
Ġare n
Ġle arning
Ġco l
Ġback wards
ĠO ur
ĠO ther
Ġtr act
ul ate
Ġex cess
Ġbec om
ĠWh ere
Ġbas ed
Ġbl ow
Ġsl ice
"" ,
"" ."
Ġfe ed
iz ing
Ġadd ing
Ġgu ard
Ġcre dit
Ġhapp y
Ġrec ord
Ġcomb ination
Ġnorm ally
ĠNe w
Ġrelax ed
Ġje welry
Ġcloth es
Ġquest ions
Ġter ms
Ġfir m
g round
i est
u it
y m
Ġt uck
in se
Ġs our
Ġs ens
Ġc ow
Ġc ro
Ġp age
Ġp ound
Ġf if
ar r
Ġn in
Ġha m
ĠA re
Ġr inse
id a
Ġup on
ack et
od k
Ġco con
Ġte xture
Ġcon cer
Ġse am
oc king
Ġsu it
ail s
ĠE ng
Ġmove ments
Ġgu ess
Ġper iod
Ġcomp et
ud ge
Ġinst r
Ġpic king
Ġperf orm
Ġdet erm
Ġwheel s
Ġwal king
Ġval ue
Ġneg ative
Ġqual ity
Ġmicrow ave
Ġcocon ut
h aps
Ġt ar
Ġa ware
Ġw idth
Ġh ing
Ġh um
Ġp ub
Ġd ro
Ġd ance
Ġd ang
or por
Ġin ner
Ġe mp
Ġe ars
Ġcan not
Ġk ill
st ick
Ġso d
ee ch
Ġlike ly
th ers
ure s
Ġle ather
Ġsp l
Ġsp eech
Ġv it
Ġshow er
el s
Ġwr iting
Ġrep e
Ġrep air
Ġmus cle
anc es
Ġpur ch
Ġwatch ing
Ġche ese
Ġclos ed
Ġheel s
Ġgener ally
ĠFr om
Ġtrip od
Ġquest ion
Ġaut om
Ġank le
Ġshamp oo
b ers
Ġ $
Ġ ut
Ġt u
Ġt rap
Ġt aste
Ġa f
Ġw ave
Ġto n
Ġb id
Ġh urt
Ġg ra
Ġf ro
Ġm ult
Ġgo al
or th
Ġwe dd
Ġst age
gh t
Ġre se
Ġr ul
ust r
Ġfor ty
Ġli fting
Ġsh irt
Ġal tern
Ġch em
Ġch ance
Ġkn own
ĠO h
Ġte as
Ġfl our
Ġknow s
Ġv odk
Ġfe ature
Ġgl oss
Ġapp rop
Ġcomp any
Ġstre ss
Ġbre aking
Ġext reme
Ġph ys
Ġstick s
Ġcr ack
Ġinst ance
Ġear ly
Ġinc l
Ġinc orpor
Ġtreat ment
Ġclos er
ĠHow ever
Ġpres ent
Ġsuc cess
Ġid ent
Ġsod a
Ġapprop ri
e nder
i ber
k in
p oon
s y
z ing
Ġth ous
Ġs or
Ġs ink
Ġs ections
Ġo thers
Ġb ir
er ing
Ġh u
Ġp et
Ġd ig
or ce
ĠI Ã¢
is m
ve red
et er
et ic
Ġwe ed
Ġe ff
all en
ĠT im
Ġre du
Ġch allen
Ġco vered
Ġtr ue
Ġse arch
Ġde l
ĠL ift
Ġbu ilt
Ġsu per
ĠP ut
Ġsw eep
Ġcar p
ud e
Ġhigh light
Ġcor d
Ġpress ing
Ġshot s
Ġrel ations
Ġele ments
Ġspe aking
anc ing
Ġopp onent
Ġz one
Ġcreat es
Ġcreat ed
Ġwa it
Ġsch ed
Ġexper t
Ġtechniqu es
Ġtrans fer
Ġperfect ly
Ġsol id
Ġelb ows
Ġwin ter
Ġport ion
sol ute
Ġswe et
tim e
Ġliqu id
Ġdrib ble
Ġwebs ite
Ġtract or
Ġconcer n
Ġbir th
Ġt all
Ġt ough
Ġa ge
re l
Ġs izes
Ġw ipe
Ġyou Ã¢
Ġb or
er t
er v
Ġc ake
Ġp ath
Ġm ap
Ġm ax
ar ing
ot e
ĠT r
Ġr at
ĠTh ank
id ed
Ġu r
Ġfor get
Ġan sw
ee per
itt ed
ct or
Ġpl us
ĠO f
Ġsp ort
Ġte le
Ġus es
Ġfl o
Ġse al
Ġact ion
ire d
ĠL ook
ĠD r
Ġbo om
Ġro ad
ĠJ oh
Ġcont r
Ġshe et
Ġ1 8
Ġper haps
Ġbring ing
Ġext ension
Ġim medi
Ġbel ow
Ġinterest ed
Ġcook ing
ĠBe fore
Ġdirect ly
oos ing
Ġiss ues
Ġabs or
Ġcontain er
Ġshr imp
Ġbead s
Ġorig inal
Ġhy dr
Ġtiss ue
Ġshad ow
Ġpli ers
Ġvodk a
Ġappropri ate
Ġsor ry
A N
c ause
d y
g en
k y
t ions
Ġo ven
Ġy et
Ġb oot
Ġc ell
Ġg ro
Ġp ages
Ġf ift
Ġd eeper
or c
et te
Ġn on
Ġn ap
ke y
ĠT ry
Ġr op
Ġfor ce
Ġmo ves
Ġch ec
Ġch ord
Ġcl ips
Ġsee ing
Ġfl ush
Ġkind a
ak s
ĠF lor
ĠL e
ne l
ition al
Ġrem o
Ġgr ass
Ġdra g
Ġun less
Ġsqu at
Ġnum bers
Ġcover age
Ġbel ieve
Ġweight s
Ġmix ing
Ġra is
Ġacc ount
ĠV ery
Ġplan e
Ġspot s
Ġveget able
Ġscr atch
Ġbenef its
ĠAmeric an
Ġingred ients
Ġocc ur
ĠEng lish
Ġchem ical
sy ch
Ġimmedi ately
ĠFlor ida
c o
c ome
f act
i ven
i xture
l ies
r ier
u pp
v as
w e
w ner
Ġt iny
Ġa ff
Ġa ffect
Ġw and
Ġo per
Ġo ily
Ġi ll
Ġc ab
Ġh ur
Ġp ep
Ġf ake
Ġd im
Ġd ate
or ies
Ġin j
Ġn et
Ġst ock
Ġst amp
Ġr ule
ver se
Ġsh ake
Ġab solute
ur se
ep end
Ġsp oon
ort un
Ġme m
Ġcon st
Ġbas is
Ġlet ting
ag ing
Ġstr ings
Ġstr ike
Ġtoo k
Ġadd ed
Ġac id
Ġper cent
Ġlight ly
Ġclean er
ĠAl ways
Ġres ist
ress ion
Ġlearn ed
Ġcur l
Ġmix ed
Ġsupp ly
hy dr
Ġbreat he
Ġfood s
Ġpop ular
Ġdi am
Ġthick er
Ġtrick s
Ġmoist ure
Ġmet al
Ġshap es
Ġtot ally
Ġapplic ation
Ġpossib ly
Ġlap top
Ġtar get
Ġwedd ing
Ġfift een
b on
d om
f oli
i xt
p y
r al
r ist
s p
Ġ ver
Ġt read
Ġth r
Ġth igh
Ġb aking
er ous
Ġg ent
Ġd in
Ġl ate
Ġl iter
Ġm ill
Ġm ixture
or ter
om s
ic ing
Ġbe at
Ġbe ef
ĠA ct
ust in
Ġu nd
Ġli m
ec ting
Ġas ide
Ġas pect
od e
Ġal right
ce al
ĠN o
Ġpl ug
Ġtr i
Ġtr ad
ĠB y
Ġint rodu
ab il
Ġcl ick
Ġthem selves
Ġfl av
Ġcon c
Ġcon ceal
Ġdr iving
Ġv iew
Ġpr ice
Ġen c
Ġlet ter
are nt
Ġshow ed
Ġsa uce
Ġeas iest
Ġ1 9
Ġcour t
Ġbase ball
Ġpic ked
Ġsn ake
res so
Ġapply ing
Ġmas ter
Ġmean ing
Ġesp resso
Ġvar ious
Ġspin ning
Ġlength en
Ġstro kes
Ġcorrect ly
Ġattach ed
oun ces
Ġcommun ic
Ġresult s
Ġnin ety
Ġansw er
Ġgent le
c i
f ly
o x
u is
u fact
y le
Ġ Z
Ġ et
Ġ ounce
in ate
Ġs um
Ġs ixt
Ġo wner
Ġb ac
Ġc amp
Ġf its
Ġl amp
Ġm or
an ch
Ġon ion
ot hing
Ġr ad
Ġr ip
Ġnot e
ra id
Ġch oosing
if ically
Ġhow ever
Ġpo cket
Ġme at
Ġany way
Ġact iv
ĠG r
are d
ĠP l
ĠIn hale
Ġcont ract
Ġac ne
Ġset s
Ġlight s
Ġgr ay
Ġbre ast
Ġtell ing
ĠSt ates
Ġtouch ing
ĠU p
Ġdes ig
Ġstay s
Ġra ise
Ġmot orc
Ġnatur ally
Ġcertain ly
Ġbird s
Ġshoot ing
Ġdoll ar
Ġsle e
Ġclass ic
Ġart ist
Ġeng ine
Ġinvol ved
Ġhope fully
Ġcorn ers
Ġda ily
Ġitem s
ili ar
Ġvit am
Ġaf raid
a ul
d ing
g ed
k en
p ers
w ood
y ing
Ġt rop
ou p
Ġw ig
Ġto ne
Ġb ones
Ġc able
Ġg ym
Ġp ed
Ġp ill
Ġp ine
Ġp sych
Ġm ud
Ġit Ã¢
en ed
ac ed
ĠA ustin
ch et
Ġk ay
Ġk itch
Ġout d
Ġlitt er
Ġch ee
ce ll
ip le
Ġcl ients
ate g
Ġtw el
Ġpre fer
Ġse nd
Ġbr ace
Ġother wise
Ġad ult
ff e
Ġbu d
ag ed
Ġsk i
Ġsk y
Ġtop ic
Ġsc reen
Ġcut e
Ġcut s
Ġsw im
Ġop tions
ĠK n
Ġsy n
Ġim ages
Ġele ven
Ġopp ortun
Ġbag s
Ġz oom
Ġwood en
Ġreason s
Ġbreat hing
Ġexerc ises
Ġcoll ect
Ġmed ical
Ġdeal er
Ġdirect ions
Ġconf id
Ġimpro v
ĠUn ited
Ġaud ition
Ġegg s
Ġessent ially
Ġprin ting
Ġoutf it
Ġhu ge
Ġsched ule
Ġconceal er
Ġmor ning
Ġtwel ve
f orm
k er
m et
Ġ ounces
Ġt rou
Ġt urt
Ġa ch
Ġw ing
Ġw ra
Ġo h
Ġto wn
Ġc ooked
Ġg e
Ġg ain
Ġg ames
Ġg ear
Ġp ants
Ġf an
Ġd ancing
Ġl oos
or ing
is k
om ach
Ġst uck
Ġst icking
Ġst omach
as ana
Ġr ide
Ġcan oe
Ġsh oe
itt er
ĠY ork
Ġback ground
Ġex foli
Ġcl amp
ap an
Ġte nds
Ġpo in
Ġcon cent
ĠH ave
Ġbl ades
Ġsl iding
ĠP aul
ĠJ oe
ĠJ apan
os ing
rap e
Ġman ufact
Ġsw imming
Ġbre w
Ġbre ad
Ġ"" "
Ġdog s
Ġim ag
Ġcover ing
Ġcur ly
Ġcur ling
Ġ3 0
Ġcer t
Ġspec ifically
Ġlip stick
Ġz ip
Ġgrow s
Ġgrow ing
Ġblock s
Ġbra nd
Ġcomm and
Ġfall ing
Ġphotograp her
Ġlea f
Ġstud ents
Ġnecess ary
Ġant ib
Ġimpro ve
Ġfrie nd
Ġpat ient
Ġiss ue
Ġlin er
Ġprov ide
Ġanim al
Ġbub bles
Ġmonth s
Ġindivid ual
Ġsoc cer
Ġfif ty
Ġpub lic
Ġextreme ly
Ġbac on
Ġkitch en
Ġbud get
a ze
b ee
b row
i ec
m ore
r am
z er
Ġt re
Ġt ack
Ġs ad
Ġw ider
Ġto y
Ġy es
Ġb acter
Ġb ounce
er o
Ġc and
Ġc age
Ġc rab
Ġf em
Ġf ile
Ġl at
Ġin it
le ction
om an
al f
al ing
ĠS ec
ĠA b
ver age
Ġj ab
Ġmo der
Ġab dom
ĠB l
Ġsee ms
Ġtw ice
Ġneed ed
Ġfl ag
Ġse ed
omet er
Ġdr ip
Ġv est
Ġwork out
Ġbo il
ĠP ro
Ġstr uct
Ġam az
Ġbig gest
Ġey el
Ġgr ad
Ġcomp l
Ġbre ed
Ġexp ensive
Ġeye brow
Ġrel ative
Ġye ah
Ġind ic
Ġind oor
Ġmeas uring
Ġwind ows
Ġdet ect
iqu e
Ġrest aur
Ġcir cles
Ġmeasure ment
Ġpad dle
Ġheav ier
Ġpicture s
Ġpattern s
Ġcontin u
Ġoppos ed
Ġsound s
Ġsub ject
Ġmaterial s
Ġscr ub
Ġadv anced
Ġbul bs
Ġeng age
Ġtravel ing
Ġcra w
Ġnut r
Ġaud ience
Ġessent ial
Ġce iling
Ġbecom es
Ġrepe at
Ġut il
Ġredu ce
cell ent
O N
b viously
e ah
f ere
g l
l ow
l ied
n am
t le
t oms
v al
z y
in ing
in als
Ġc ot
Ġc ity
Ġp atch
Ġf ac
Ġf ence
Ġl ens
Ġm ine
on ge
Ġin de
is bee
ar row
Ġn arrow
Ġbe ak
Ġst ir
Ġst em
Ġst ability
ĠT w
ĠT ex
ĠS c
Ġr hy
Ġli me
Ġsh ut
Ġsh orter
im um
th ough
ĠY es
ur y
ĠO bviously
ul ated
Ġte les
Ġany more
Ġse ason
Ġde lic
Ġde vice
Ġbr id
ĠM any
Ġdr am
ĠC ity
Ġv o
Ġlet s
Ġqu een
Ġgl ove
Ġgl oves
Ġstep ping
ĠR us
Ġpull ed
Ġper man
Ġcomp an
ib ility
Ġdef ender
Ġtell s
Ġed uc
Ġoil s
Ġrep lace
Ġfin al
Ġjump ing
wh at
Ġcomple ted
Ġlay ing
Ġdrop s
Ġinter view
Ġacc ur
Ġold er
Ġcontro ll
Ġprot ection
Ġdi et
Ġbeaut y
Ġdark er
Ġpad s
Ġloop s
Ġnail s
Ġdeal ing
Ġbar rel
Ġtire s
Ġfam iliar
Ġrock s
ĠBr ing
Ġchang ing
Ġtom ato
Ġappro ach
Ġther m
Ġcol ored
Ġcro chet
Ġdeterm ine
Ġhing e
Ġrese arch
Ġteas poon
Ġrelations hip
Ġur ine
ĠJoh n
Ġgro cer
Ġabsolute ly
Ġopportun ity
Ġtrou ble
Ġach ieve
Ġconcent r
Ġmanufact ure
Ġbacter ia
ĠTex as
Ġrhy th
Ġteles c
A R
A nd
c oh
g o
i kes
u ction
v ices
y ou
Ġ er
Ġt iger
Ġa id
re g
re nt
Ġs ense
Ġo k
Ġto ng
Ġi r
Ġc ats
Ġp ump
Ġp uff
Ġf iber
Ġl as
Ġl ad
Ġn ine
ac ked
Ġre ct
Ġr are
Ġj our
st er
Ġout er
ĠW atch
Ġhe ard
Ġfr uit
Ġsp ades
Ġsp onge
Ġthem e
Ġpo res
Ġcon str
Ġoff ice
Ġse ated
Ġde m
ist ic
um es
ĠF rench
ĠD av
Ġshould n
ĠG ive
Ġen s
Ġbu ck
iz er
ie f
Ġwas hing
Ġar ch
os is
Ġcle ans
Ġfind ing
Ġshe ll
Ġgr oo
Ġbott les
Ġstraight en
Ġperson ally
ĠSt art
Ġrep res
ob by
Ġfin er
Ġcr own
Ġexp ect
oll ey
Ġstay ing
Ġpass ing
Ġstretch ing
Ġsn ap
Ġhor iz
Ġsupp osed
Ġche ap
Ġent er
Ġdesign ed
Ġthick ness
Ġsal mon
Ġins p
Ġvari ation
Ġclub s
ĠFr isbee
Ġcount ry
Ġsquee zing
yl v
Ġmag ic
Ġevent ually
Ġmist ake
Ġang ry
Ġcaus es
Ġthous and
Ġchec king
Ġpep per
Ġgrocer y
coh ol
. ,
L L
c ing
c ol
g n
i vers
l ide
l and
o ors
p iec
s c
w ater
Ġ --
Ġt ur
Ġt ub
Ġa verage
Ġth irt
in f
Ġo x
Ġyou ng
Ġb ic
Ġc ue
Ġc ases
Ġh arn
Ġf itted
Ġd ur
Ġd ice
Ġd amp
Ġd ating
ll ie
Ġn orth
Ġon line
Ġbe ach
ay er
as ing
Ġre ar
Ġr ocking
Ġj aw
oo gle
Ġsh ark
Ġk id
Ġk icking
Ġas se
our age
th etic
ĠY eah
ur al
Ġne at
Ġne ut
ep tion
Ġch in
Ġch alk
ĠN ice
Ġdon Ã¢
Ġkn ob
Ġsp are
Ġpro g
ap ple
Ġsee m
Ġhand ed
ĠC ome
rough t
Ġevery where
Ġbu g
ĠP ull
Ġpi v
os ure
Ġturn ed
Ġhold s
Ġrun s
Ġhard ware
Ġser ious
Ġprodu ce
Ġstand s
Ġfun ction
Ġpaint ed
Ġcare fully
Ġten se
Ġcur ve
Ġcur rent
anc y
Ġinf ection
Ġpot ato
Ġcatch ing
Ġinc rease
Ġmark s
ĠCh rist
Ġloc ation
Ġloc ked
Ġdi agon
Ġ4 5
Ġallow ed
Ġadv ant
Ġhang ing
Ġrequire ments
olog y
Ġchang ed
Ġmag n
Ġcho ice
Ġtherap ist
Ġgold en
Ġsil ver
Ġmount ain
Ġrece ive
Ġ9 0
Ġdent ist
Ġjoint s
Ġdro pping
Ġdang erous
Ġspl it
Ġincorpor ate
Ġcarp et
Ġbirth day
Ġsport s
Ġ18 0
Ġnap kin
Ġrais ed
Ġflav ors
Ġbrace let
ffe ine
ĠSec ond
Ġcompan ies
Ġrhyth m
Ġens ure
Ġhoriz ont
Ġthirt een
Ġharn ess
, ""
a e
a ith
b it
b al
b ling
f ive
l come
o ff
t ical
Ġt an
Ġt ick
in ed
in ally
in ary
Ġs ick
Ġw aste
Ġb rought
at oes
Ġh ill
Ġh ist
Ġh ous
Ġp ool
Ġp lease
Ġf le
Ġd irty
Ġl ic
Ġl ab
Ġl av
Ġl aw
Ġn ames
Ġha ven
ic le
ic ient
Ġbe ans
Ġwe b
Ġst ation
Ġst eep
Ġre nt
Ġdo ctor
ĠS al
ĠA dd
Ġr ow
Ġr ate
Ġcan vas
Ġj udge
se ll
Ġsh ed
Ġsh ift
Ġso ap
Ġso ak
am ing
od ies
Ġal cohol
Ġle ash
Ġpl ain
Ġpl enty
Ġpl aced
ĠO p
Ġwhen ever
Ġsp ir
Ġtr ade
ĠB ar
ul se
Ġput s
ap p
Ġte aching
Ġwor ked
ate ver
ĠH old
ĠWh atever
Ġgot ten
Ġdr ug
ĠC ar
ĠC om
ĠC al
Ġpe nd
ĠF aith
ĠL iz
Ġbu mp
Ġshow s
Ġsc al
Ġsu dd
ĠP re
Ġstr ips
ough t
Ġar om
ens ity
os en
Ġadd ition
Ġman age
Ġop in
Ġshe lf
Ġbasic s
Ġ1 00
Ġapp lied
up s
Ġcomp ost
Ġcre ase
Ġdis pl
Ġrep s
Ġrep ort
Ġcent ered
Ġfun ny
uff le
ress ive
Ġquick er
Ġsupp lies
Ġmark er
Ġrid ge
ĠHe y
Ġgrow th
Ġbra kes
Ġste ady
Ġtrans ition
Ġfre qu
Ġlead er
Ġcra ft
Ġmoist ur
Ġass ist
Ġrot ate
Ġlist en
Ġstain ed
Ġextend ed
sh irt
Ġmoment um
Ġpound s
Ġpurch ase
Ġtu be
Ġcontr ast
Ġboot s
Ġconst ant
ĠAct ually
Ġpine apple
Ġcot ton
Ġinde x
Ġvo ice
Ġperman ent
Ġneut ral
Ġpiv ot
Ġhorizont al
Ġsudd en
2 0
E R
I N
e gr
f ric
h a
l o
l u
m ill
m ble
n na
r ick
t or
Ġt rees
Ġt au
Ġa per
Ġw ild
Ġo l
Ġo llie
Ġb ind
Ġb are
at ically
at ives
Ġg as
Ġg rease
Ġg iven
Ġp ipe
Ġf ut
Ġd y
Ġm art
an ut
Ġgo nna
is ter
Ġwe d
Ġwe ak
all el
ac y
Ġre leas
Ġre verse
ĠS e
ĠS an
ĠS ylv
ĠA fric
Ġr iver
Ġr acket
Ġli ving
Ġsh a
Ġan ch
Ġso ld
Ġso ck
itt en
Ġnot ch
Ġal ign
Ġch am
Ġch amp
if orn
op s
Ġsp ill
Ġex ting
Ġex cellent
Ġpro ced
Ġcl othing
Ġte ar
Ġpo lish
Ġany one
Ġde hydr
um ent
um ber
Ġdr ied
Ġpe anut
Ġad vice
ĠG u
Ġevery day
ish ed
Ġsc ale
ĠP ract
ies el
Ġcolor ing
Ġhelp ing
Ġgl aze
os es
ry lic
Ġac rylic
Ġstra w
Ġcomp lic
Ġstre et
.. ..
Ġcard board
Ġreal ize
Ġdec ided
Ġsy mp
Ġcover s
Ġspe ak
Ġpot ent
Ġtight en
ten ance
Ġmil es
Ġpin s
Ġpin ch
Ġdist rib
Ġjack et
Ġbar rier
Ġfore hand
Ġconf us
ĠNot ice
Ġcondition s
az y
Ġpar allel
Ġrequire s
Ġclock s
ĠEvery thing
ĠEx hale
Ġcirc ular
Ġcommun ity
Ġlog o
Ġanim als
br ush
Ġbath room
Ġbol ts
Ġsens itive
Ġham mer
Ġmult iple
Ġremo ving
Ġaff ord
Ġdin ner
Ġturt le
Ġamaz ing
ĠRus sell
Ġtelesc ope
Ġtong ue
Ġlav a
ĠCal iforn
Ġaper ture
Ġfut ure
ĠSylv ia
ĠCaliforn ia
) .
T h
Y ou
a ile
b ra
c ape
i ate
m ing
n ed
n ces
o ber
s et
t a
t u
u nt
x im
y cles
z or
Ġ ,
Ġt act
Ġa im
in er
ou d
Ġw ool
Ġw rench
Ġw agon
at form
Ġh ors
Ġp aid
Ġp upp
Ġp arent
Ġf ant
Ġf est
Ġf ail
Ġd ough
ic er
Ġwh ip
Ġst im
Ġst able
Ġst ove
Ġst abil
ac her
as ion
ĠA m
ĠA pp
Ġr u
Ġli kes
ent er
im eter
ro ll
am ent
Ġmo de
ill a
th e
Ġnot iced
Ġch ose
Ġco py
Ġpl atform
Ġtr imming
ul p
Ġint egr
qu e
Ġte ap
so ci
Ġfl ame
Ġany time
Ġcon ven
Ġpre vious
ĠWh y
Ġwhere ver
Ġdr iver
ĠD an
ne y
ag ne
iz ation
ink le
Ġbo nd
ĠP r
ĠP at
ĠP ress
Ġwas n
Ġhelp ful
ens ions
ĠJ ack
ĠE ach
Ġgr ain
Ġpos es
Ġph ase
Ġhapp ening
ĠSt e
Ġroll er
Ġstick y
Ġcr ank
Ġun it
Ġpract icing
Ġlift ed
Ġsur v
Ġfull y
Ġbeh av
Ġkick s
Ġz ero
Ġinc re
Ġra zor
Ġbreak s
Ġphot o
Ġche er
Ġfill ing
Ġpad d
Ġtail s
Ġref er
Ġref ere
Ġref lect
Ġbra id
Ġfall s
Ġexper iment
Ġsystem s
Ġfinger t
Ġgar age
Ġfold ed
Ġround ed
Ġchar ge
Ġroot s
Ġcondition ing
Ġpunch es
Ġport al
Ġgroup s
Ġsteam ing
Ġdetail s
imp les
Ġinstall ing
Ġyard s
Ġfly ing
Ġbro ken
Ġtherap y
Ġvers us
vis ion
Ġbub ble
Ġang les
Ġtun e
Ġfight ing
Ġfeature s
Ġident ify
we ight
Ġtri angle
Ġtrad itional
Ġsum mer
Ġchee k
Ġconfid ent
Ġloos en
Ġcert ified
Ġsad dle
Ġstruct ure
Ġrect angle
piec e
Ġopin ion
Ġtau ght
a i
a ff
c an
c ut
c ue
h ips
i et
o int
r it
r om
r ome
r omp
w all
Ġt ab
Ġt ile
Ġa w
Ġa th
Ġs ession
Ġw ar
er ry
Ġc ult
Ġg el
Ġp ee
Ġp ie
Ġp ark
Ġf ol
Ġf ishing
Ġd est
ll a
ll er
Ġm ood
Ġm other
it ical
Ġgo ss
Ġis ol
ic t
Ġwe Ã¢
Ġst ar
as k
Ġre act
Ġre el
ĠS im
Ġj er
Ġu mb
Ġfor ms
Ġsh own
Ġsh ine
Ġsh ade
Ġan al
Ġk il
ro gen
Ġup side
Ġmo v
ain ing
Ġal one
ĠN urse
Ġpl acing
Ġuse ful
ĠB ack
ĠB oom
ul a
ul um
ab et
un ately
Ġoff ense
Ġover all
Ġover head
Ġse a
ĠM ich
Ġv olley
Ġball oon
Ġad ap
ĠD e
ĠG ener
Ġen cl
ag er
ue l
Ġsc oop
Ġsc ream
Ġsc ulp
ĠP e
Ġcut ters
Ġeven ing
ĠJ an
ĠR oll
Ġadd ress
be ll
Ġop ens
ars h
Ġwr itten
Ġdef ensive
ob son
ash es
Ġdry er
Ġtouch es
Ġob vious
Ġele v
Ġcreat ure
ĠCh ina
enc es
Ġacc ent
Ġsty les
Ġbox es
Ġremove d
Ġmed ic
Ġprot e
Ġble ed
Ġche w
Ġmain tenance
Ġfill ed
Ġflow ing
Ġ4 0
Ġgar ment
Ġeffect s
Ġstro ller
00 0
Ġread ing
Ġca ffeine
Ġben ch
pr ing
Ġcra zy
Ġaccess ories
Ġbutter fly
Ġchang es
Ġtor so
Ġshop ping
Ġbed room
Ġscrew s
Ġinvol ves
Ġflex ibility
Ġbenef it
Ġcho ices
Ġexc ept
ĠAmeric a
Ġtot al
Ġingred ient
Ġintern et
Ġdial og
Ġmechan ic
Ġbol t
Ġfro st
Ġrul es
Ġphys ical
Ġincl ude
Ġhighlight s
Ġabsor b
Ġmem ory
Ġresist ance
Ġdiam ond
Ġtread mill
Ġliter ally
Ġenc ourage
Ġcommunic ation
uis her
Ġdesig ner
Ġmotorc ycle
Ġpill ow
Ġsyn thetic
Ġpoin ting
Ġmoder n
Ġmanufacture r
Ġjour n
Ġconstr uction
Ġhist ory
Ġscal p
Ġol ive
Ġexting uisher
romp tu
Ġath let
? """
H E
O S
S ON
b ook
e ge
h s
h ere
h aling
i as
p ar
p ort
r ac
r ied
s ion
t ive
t uce
u ght
w or
z ard
Ġ X
Ġa gg
Ġth or
in ch
Ġs oup
Ġw arr
Ġy oy
Ġb ands
Ġb unk
Ġc akes
Ġh on
Ġh oney
Ġg re
Ġg un
Ġg ather
Ġp est
Ġp ulse
Ġp imples
Ġf al
Ġf ra
Ġf itting
Ġd en
Ġd iv
Ġl a
Ġl ung
Ġm ul
Ġm ale
Ġm ug
en e
ar se
et t
Ġe v
Ġst ap
Ġst iff
ĠT yp
al es
ĠS qu
Ġr ack
se y
ent ine
ur ity
Ġnot es
il s
il ities
Ġthere fore
Ġco ach
Ġco ord
Ġco arse
ĠThe ir
ĠO ver
Ġint ensity
Ġcl own
Ġcl ap
ort ion
Ġte acher
Ġpo l
Ġpo le
ĠH ome
ĠH ip
ĠH alf
Ġpre fere
Ġbit e
Ġknow ing
Ġde w
ĠM C
ĠM ass
oc ross
ĠC L
ĠC ap
ĠC ol
Ġimp romptu
Ġpr iv
Ġpr ior
ĠG ina
ĠG oogle
Ġsc ar
Ġsc rap
Ġbo iling
Ġwas her
Ġqu iet
Ġtyp ical
ĠIn st
ĠJ O
ĠJ e
ĠR ob
Ġadd s
Ġsa le
ĠE u
Ġcar s
Ġcar bon
Ġgu est
Ġhigh est
Ġfin ally
Ġdry ing
Ġcr unch
Ġve nd
Ġun com
Ġsqu ash
Ġsit s
Ġdec is
oll y
fort unately
Ġsur pr
Ġear th
iv ity
Ġboard s
ograp her
Ġbegin s
Ġdefin ition
Ġparticular ly
Ġmot ions
Ġseg ments
Ġpur ple
Ġwall s
Ġdesign s
Ġdist ract
Ġbutton s
ri be
Ġless on
Ġdeal ers
Ġlea ving
Ġrecommend ed
Ġplan ning
Ġsun sc
Ġmon it
Ġmon olog
Ġtrick y
Ġstrong er
Ġclear ly
Ġfocus ed
Ġcommon ly
Ġfore arm
Ġ5 0
Ġca ught
Ġstud io
Ġprotect ed
Ġant i
Ġcal f
Ġequ al
Ġknot s
Ġwee ks
Ġbasket ball
Ġstrap s
Ġchain s
Ġcarry ing
au gh
Ġnut s
Ġtom atoes
Ġsew ing
Ġevent s
Ġshap ed
Ġank les
Ġappro xim
Ġresp ons
Ġconsist ent
Ġprepare d
Ġlean ing
Ġtrail er
Ġest ab
Ġinstr uct
Ġrul er
Ġincl ud
Ġsuccess ful
Ġeff icient
Ġchallen ge
Ġbor der
Ġtele vision
Ġrop es
Ġcab in
Ġthigh s
ox ide
Ġsixt een
Ġtrop hy
Ġfem ale
Ġnutr ients
gl ass
Ġdelic ious
Ġaccur ate
Ġdem o
Ġadvant age
Ġarom a
Ġdispl ay
Ġassist ant
Ġconstant ly
Ġcham ber
Ġchamp agne
Ġhors es
Ġfest iv
Ġgoss ip
Ġkil n
Ġvolley ball
ĠGener ally
Ġwarr ant
Ġyoy o
Ġfal se
Ġsunsc reen
V D
b oy
c r
g a
i at
l ike
m un
p it
r ing
s es
t een
u ed
u ate
y gen
Ġt ill
re te
Ġs us
Ġw ish
Ġw ings
Ġto ld
Ġb ake
Ġb ull
Ġb odies
Ġc ush
Ġc ateg
Ġh i
Ġh arsh
Ġg ap
Ġp ace
Ġp ig
Ġp aste
Ġf urn
Ġf ancy
Ġf uel
Ġd ream
Ġl ub
Ġl osing
Ġm ush
it ure
en na
le te
et ch
ic ep
ed y
all on
all ow
as ed
Ġre tain
ĠS m
ĠS ame
ĠA M
Ġr ings
Ġr oof
im e
Ġas par
Ġab ility
ur ance
Ġhe ld
art ment
Ġch ip
Ġch osen
if ting
Ġco ck
Ġco ated
Ġsome what
Ġpl ank
Ġtr ied
Ġtr icep
Ġcl oves
Ġour selves
un ge
Ġwor se
Ġtw isting
Ġme lt
Ġany body
Ġpre viously
Ġse x
Ġse vent
Ġbr ain
Ġbr anch
ĠM art
ĠM el
ĠWh ile
um ents
ree ze
Ġdr um
Ġbl ot
ĠC le
Ġpe ach
Ġv an
Ġv int
Ġhair s
Ġpr om
em y
ĠD ouble
ĠD epend
ĠD VD
Ġsl ower
Ġlet tuce
Ġfe ll
Ġfe lt
ag us
ie l
Ġtop s
Ġsc oring
Ġbo ats
ĠP er
ĠP et
ĠP ose
Ġimport ance
Ġstr ikes
ĠIn tern
Ġeven ly
ĠR ober
ry st
ĠE sp
og n
Ġunder w
Ġthan k
Ġhigh ly
air s
Ġsec urity
Ġdef end
Ġmin or
ĠAs k
Ġdis app
Ġposition s
amp les
Ġhit s
Ġbrush es
ĠU t
Ġel im
Ġproper ty
ĠFor ward
Ġdep th
Ġstretch es
most at
iqu ette
Ġlay ers
Ġcreat ive
Ġcoll ege
Ġjob s
Ġtire d
Ġlo ss
Ġins ulation
Ġbal anced
Ġvari ations
Ġfollow ing
Ġsol ution
Ġdrill s
Ġwrist s
Ġdemonstr ation
Ġthumb s
Ġpay ing
Ġcomput ers
Ġconn ection
Ġtrip le
Ġblend ed
Ġfo il
Ġgrind er
Ġmar ked
Ġvide ographer
Ġtemperature s
Ġpan el
Ġvis ion
Ġvis ual
Ġsupport ing
Ġag o
Ġmic ro
Ġstrip es
Ġter r
Ġlin ed
Ġswe at
Ġdecor ate
Ġdecor ation
Ġbro ad
iod iesel
ĠAr t
ph one
Ġmist akes
Ġprop ortion
Ġconsist ency
Ġdent al
Ġmiss ing
Ġconnect ed
Ġquarter back
Ġther mostat
Ġsour ce
Ġsour ces
Ġcompet ition
Ġautom atically
Ġweed s
Ġeff ort
Ġchallen ging
Ġdel iver
Ġconcern ed
Ġflo at
Ġhydr ating
Ġcell s
Ġdim ension
Ġver tical
Ġet iquette
Ġvitam in
Ġpsych olog
Ġge ograp
Ġabdom inal
Ġrelative ly
Ġrestaur ant
Ġfac ial
Ġcontroll ed
Ġer r
Ġlad ies
Ġtur key
Ġox ygen
Ġdiagon al
ĠOp en
ĠAfric an
Ġsha ft
Ġbehav ior
Ġfingert ips
Ġumb re
Ġdialog ue
Ġthor ough
ĠInst ead
Ġfurn iture
Ġlub ric
Ġaspar agus
Ġvint age
ĠEsp ecially
C D
E S
a ving
b one
c eption
d ed
g y
h old
i am
l oy
m y
m as
n ers
p t
p ack
r ation
z en
Ġ Q
Ġt ables
in j
Ġw ake
Ġto x
ing er
Ġb es
Ġb ound
Ġb ought
Ġb iodiesel
Ġc art
Ġc asting
Ġh enna
Ġf ist
Ġd ie
Ġd rew
Ġl ed
Ġl atch
Ġl ying
Ġl azy
Ġm aker
Ġgo als
on n
ĠI nd
ĠI mp
Ġthat Ã¢
Ġin vent
is p
Ġn urse
ic y
Ġbe ar
Ġwe ather
ay s
Ġe ating
Ġst ur
ac le
ĠT V
ĠT ra
Ġre aching
ĠS et
ĠS und
ĠS ince
ĠS ean
Ġr im
Ġr isk
ĠSo l
Ġsh uffle
Ġk it
Ġk itt
ĠW ill
ur ch
Ġhe m
il ates
Ġal though
ct ions
Ġco ats
ĠO ff
Ġtr ust
Ġtr ig
ĠB ell
ĠB obby
Ġex isting
ĠIt al
Ġpo les
Ġme l
Ġfl ight
Ġtim ing
ĠH and
ĠH ope
ĠH obson
Ġoff er
Ġover l
Ġknow led
Ġde lete
Ġbr acket
ĠM ull
ĠWh ether
ire ct
Ġbas s
Ġbl oom
ĠF ind
ach e
Ġpr on
ĠD id
ĠD ra
ĠG ips
Ġfe ar
Ġsm ash
Ġsk ip
Ġsk ate
Ġqu ad
Ġar c
Ġman ual
Ġplay ed
Ġpoint ed
ale d
ars ley
Ġhard ness
Ġpos itive
Ġext ensions
ĠSt ud
Ġrep l
Ġrep t
Ġcr itical
Ġrec ogn
Ġres id
Ġres pect
Ġel astic
Ġob st
Ġdec ent
Ġnew s
Ġsur round
Ġsn ug
Ġele ment
Ġspe aker
Ġsort s
Ġind epend
gg ed
str ing
Ġacc ept
Ġlevel s
Ġcoll ection
Ġfree ze
ri age
Ġallow ing
Ġtest ing
acter ial
Ġins ert
Ġcap tain
ĠSomet hing
Ġconf lic
lish ed
Ġstud y
Ġprotect s
Ġsub tle
Ġdevelop ed
Ġcal c
Ġpar r
irl s
Ġadv ance
Ġrout ine
Ġag ree
oun ced
Ġmag az
ify ing
Ġland ing
Ġhear ing
Ġaut h
Ġterm inal
Ġmold s
Ġdrib bling
Ġem ail
Ġvers ion
Ġprogram s
Ġrib bon
Ġtiss ues
Ġspark ling
Ġvol can
ĠOther wise
Ġbecom ing
Ġdro pped
Ġmax imum
Ġchemical s
Ġdiam eter
Ġconc rete
Ġactiv ities
Ġslee ve
Ġvitam ins
Ġoutd oor
Ġwra pped
Ġimag ine
Ġantib acterial
Ġcompl iment
Ġutil izing
Ġbrid ge
Ġdram atic
Ġtherm ometer
Ġlas so
Ġdur able
Ġasse mble
ĠChrist mas
Ġfle a
Ġstation ary
Ġfrequ ently
Ġwed ge
Ġcomplic ated
Ġsymp toms
Ġpotent ial
ĠSim ply
abet es
Ġagg ressive
ĠJe ff
Ġmonolog ue
Ġcush ion
ĠDepend ing
ĠRober t
ĠUt ah
Ġknowled ge
ĠMull er
ĠGips on
B ut
R E
a ves
b ie
b ound
c age
c ribe
d ers
e bra
f ood
f low
h as
h ouse
i ot
l ers
l ines
n o
n ia
p end
p ensive
r iger
v an
v ide
w ord
y es
Ġ 0
Ġt it
Ġt aper
Ġt umb
re t
Ġs ite
Ġs ample
Ġs ized
Ġw ound
Ġto en
Ġb i
Ġb oo
er i
er ve
Ġc ryst
Ġh ats
Ġg rap
Ġp ause
Ġp ap
Ġp izz
Ġf und
Ġd umb
Ġl ust
Ġl uck
Ġl ooked
Ġl unge
Ġm ild
an na
le ments
ar ant
Ġn av
Ġn ature
Ġon ions
ic ro
ic ian
Ġbe e
Ġwh isk
Ġst ates
Ġst aff
as m
ut ions
ĠT e
Ġre ward
Ġdo ors
ĠS er
ĠS ch
ĠS outh
Ġr ust
igh b
ust ry
id ered
Ġwant ing
Ġsh ore
Ġsh el
Ġsh red
Ġsh iny
Ġso fter
Ġas ked
ĠY oga
Ġne ighb
Ġhe y
il ies
ind er
Ġch arm
Ġch ances
Ġch urch
Ġle ver
Ġall erg
ĠN orth
Ġbut t
Ġkn ives
ĠO ut
Ġtr uck
ĠB el
ul ations
Ġint im
Ġdown ward
Ġex am
Ġcl ump
ĠIt s
so ft
Ġme mb
Ġfl ick
Ġfl ies
pp er
Ġcon vers
ĠH olly
Ġpre c
Ġke pt
Ġbr on
ĠM ad
Ġact ive
ak ie
Ġbl ad
Ġpe l
Ġv in
Ġv ic
ĠF l
ĠF ive
ĠF ire
Ġher bal
ĠL a
ĠL ast
ĠL aur
ĠD iff
ĠD rop
ĠG reen
Ġsl ack
Ġbu ff
Ġbo y
ĠP AR
Ġgl itter
Ġpi le
ĠR es
Ġeas e
ĠE n
Ġset up
Ġper oxide
Ġline back
Ġend ing
Ġapp et
Ġapp ear
Ġgr out
Ġcou ch
Ġfour th
Ġfour teen
ĠWhen ever
Ġstre am
Ġcre w
Ġmin er
Ġmin im
ĠK ind
Ġdis p
ĠSt ar
Ġroll s
Ġfin ishing
Ġres in
Ġres cue
Ġafter wards
iss a
Ġcare er
ress ions
Ġpush ed
oll ow
Ġsy mb
Ġim mun
Ġcons um
Ġcons erv
Ġpass es
Ġpass ed
Ġkne w
Ġinf l
Ġneck lace
Ġind ustry
Ġpartic ip
Ġwire s
Ġmeasure d
Ġeight y
Ġhouse hold
Ġfree zer
Ġrub bing
Ġexper i
Ġsal ad
Ġprint s
ĠDo es
Ġmatch es
Ġje an
Ġprof ile
Ġdeep ly
Ġwash ed
Ġclass es
Ġclass room
Ġdrink s
Ġhappen ed
Ġprep aring
Ġapart ment
Ġbatter ies
Ġvide os
Ġrequire d
cl ock
Ġsciss or
Ġclock wise
Ġtor ch
Ġrot ation
Ġstrength en
Ġflex ible
Ġdecor ative
Ġterm inals
Ġsecure ly
Ġorgan ic
Ġnear by
ĠRe ally
Ġhy d
Ġselect ing
Ġprin c
Ġcirc ulation
Ġrib cage
ĠAr ts
Ġocc asion
Ġspend ing
Ġmechan ics
ĠCan ad
Ġcaus ed
Ġinstr ument
Ġemp loy
Ġtele phone
Ġrop ing
Ġstamp s
Ġthr own
Ġaspect s
Ġintrodu ce
Ġkay ak
Ġadult s
met ric
Ġeyel iner
Ġeyebrow s
Ġdetect or
ĠDav id
Ġhous es
ĠCar ol
Ġbind ing
Ġproced ure
Ġconfus ed
Ġparent s
Ġteap ot
Ġsurv ive
ĠBoom er
Ġsculp ture
ĠPe ople
Ġathlet ic
SON S
Ġprefere nce
ĠJO E
ĠEu rop
Ġapproxim ately
Ġcateg ory
ĠMel issa
ĠIntern et
Ġelim inate
Ġumbre lla
Ġkitt y
ĠBell y
Ġskate board
Ġvolcan o
vide o
Ġmemb ers
ĠHolly wood
ĠLaur a
ĠPAR SONS
Ġsymb ol
Ġconserv ative
4 0
R I
T he
W h
a ult
b ed
b age
d em
e ight
h ill
l im
l ock
m in
m are
n s
r up
t ies
u ary
v ity
z z
Ġ ven
Ġ vel
Ġt in
Ġt our
Ġt ied
Ġa x
Ġa qu
in o
in king
in ated
ou l
re tch
Ġs en
Ġw ife
Ġw oman
Ġo dd
Ġyou th
nd ar
Ġb a
Ġb ars
Ġb orn
Ġc as
Ġc oo
Ġc ale
Ġc ode
Ġh ose
Ġh ood
Ġg age
Ġp ure
Ġp ist
Ġp ong
Ġp ale
Ġd ull
Ġd ue
Ġd ise
Ġl ink
Ġl ady
Ġl ump
Ġl ob
Ġl unch
Ġl ands
Ġl aid
Ġm ur
Ġm ail
Ġm ature
it ives
on se
Ġin ex
us es
us ion
ar ms
ar ian
om nia
ic ial
ic ular
ic tion
Ġyour s
Ġwh it
Ġe p
Ġst ones
Ġst unt
ut y
ut ed
ut ch
ĠT eri
Ġre nder
Ġre view
Ġre bound
out her
ere nt
ant ic
ĠA d
Ġr um
Ġr ag
Ġr ise
Ġr acing
ĠTh ink
ĠTh ings
Ġj ud
ch il
Ġli ves
Ġsh ip
Ġsh are
Ġsh aking
Ġsh ield
Ġas king
ill ed
our ces
Ġout line
ĠW or
Ġfr izz
ĠN ever
ĠN umber
ĠN inj
ter ior
Ġback side
op ard
Ġwill ing
Ġkn ock
ĠO CD
Ġtr imm
ĠB ot
ĠB ill
ul ty
Ġme al
Ġme ant
ĠWe lcome
Ġfl aming
ame le
Ġse qu
Ġse wn
Ġse ats
Ġbr ief
ĠM ar
ĠM ore
ĠM icro
Ġact s
Ġbl ows
ĠC o
ĠC omp
Ġpe g
Ġpe ar
Ġv ary
ĠF e
Ġimp act
Ġimp oss
Ġimp ression
ĠD ep
ĠD own
ĠD ean
Ġen f
Ġsl ices
ber ry
ink les
yp t
Ġsk etch
Ġsc all
ĠP ush
Ġstr ain
Ġstr ange
Ġstr ateg
Ġro ast
Ġar ts
ens es
os aur
ĠR ich
ĠE ither
Ġplay s
Ġsw amp
Ġwho ever
Ġmost ly
Ġ1 2
Ġgu arant
Ġper ception
Ġper pend
Ġend ed
Ġplace ment
Ġhold er
Ġcomp ass
Ġfoot ball
ĠAl most
Ġhands pring
ell e
Ġmin i
Ġmin us
ĠAs h
Ġdraw n
Ġdis ks
Ġser p
Ġser ving
Ġser ves
Ġrep et
Ġdry wall
Ġreal istic
Ġ2 5
ĠAn n
Ġun ique
ĠU se
Ġexp and
Ġflat ten
fort able
Ġcons idered
Ġhome work
Ġpot ty
Ġind oors
erc ial
Ġmas king
ord ing
Ġrest ing
Ġinc ome
Ġair pl
Ġmark ers
Ġloc king
Ġmot ocross
Ġtrain er
Ġble nder
Ġgrab bing
Ġwa iting
Ġcook ie
Ġref riger
ĠTod d
Ġtreat ing
ĠBe aut
Ġprint ed
Ġshoot er
Ġbus y
Ġcool ing
Ġrelax ing
Ġpower ful
Ġfore head
Ġsol utions
Ġcustom ers
Ġbreath s
Ġsign s
cc oli
Ġmar riage
Ġ7 20
Ġthread s
tern al
Ġelect ron
Ġmouth piece
Ġvis it
Ġentire ly
Ġpack age
Ġag ent
Ġlock s
Ġsitu ations
Ġpurp oses
Ġlin ing
Ġinstall ed
Ġcost ume
ĠRe al
ĠUs ing
Ġem ot
Ġmount ing
Ġintern al
Ġintern ational
Ġstate ment
Ġobject s
Ġresp ond
Ġresp onse
Ġvol t
Ġprim er
Ġprim arily
Ġcow boy
Ġfif th
Ġseam s
Ġhing es
Ġgra nd
Ġaltern ative
Ġthous ands
orce ment
Ġill ustr
Ġinj ury
Ġmill imeter
abil ities
Ġsixt y
Ġbreast s
Ġdesig ning
ĠKn ow
Ġcand le
Ġseed s
ĠPro bably
Ġcontinu ing
ĠTw o
Ġrare ly
Ġgroo ve
Ġgroo ves
Ġrepres ent
Ġrepres ents
Ġprog ress
ĠCom ing
Ġpend ulum
Ġdy nam
Ġreleas ing
Ġanch or
Ġdehydr ated
ĠJack ie
Ġtails lide
ĠMich elle
Ġencl osure
Ġjourn als
Ġbunk er
Ġhon est
Ġmul ch
ĠMC G
Ġpriv ate
Ġmonit or
Ġwarrant y
cr ip
Ġstur dy
ĠSund ae
ĠSol ution
Ġtrig ger
ĠItal ian
Ġpron ounced
ĠStud io
Ġrept ile
Ġconflic t
Ġauth or
Ġtoen ails
Ġfund ament
Ġshred ded
ĠDiff erent
dem o
Ġcale ndar
Ġinex pensive
outher n
chil ad
ĠNinj a
ĠMicro soft
Ġimposs ible
Ġperpend icular
Ġairpl ane
. ""
? "
E N
E HE
S T
Y es
b re
c row
f our
f ire
g ee
g ypt
i us
l ain
m i
m ail
n on
p ies
r is
s ing
v als
w in
Ġt ast
Ġt ug
Ġth reat
in i
in ese
re st
Ġs atur
Ġw ip
Ġw ines
Ġo d
at ory
er ly
Ġc act
Ġc ass
Ġc el
Ġc uff
Ġc yl
Ġh yp
Ġh orm
Ġg ave
Ġg allon
Ġp ers
Ġp ony
Ġp orce
Ġp arsley
Ġf aces
Ġf leas
Ġf akie
Ġd ing
Ġd ot
Ġd ed
Ġd ump
ll y
Ġl oud
Ġm ats
it rogen
es h
es ome
on ents
or age
or ous
us b
us er
le ment
le ts
is ing
ar ge
Ġn ood
Ġn unch
Ġbe an
Ġbe vel
Ġwe ap
Ġe mer
Ġe mb
Ġst orage
ac qu
ac ock
ĠT urn
ĠS u
ĠA L
Ġr ich
Ġr ating
Ġr ows
ver t
Ġj og
id ay
Ġu h
Ġli zard
Ġsh in
Ġk ing
Ġk ings
Ġk its
ent al
ro c
ro y
Ġup gr
ee m
ee ze
am ic
am ily
Ġas soci
ĠW alk
ĠW oman
ur ies
Ġhe ating
Ġch ap
Ġle opard
ĠN ational
ook ah
if orm
if reeze
Ġco pper
Ġback ing
Ġback pack
ge on
ge ous
Ġtr ace
ĠB ase
ĠB oth
ĠB aile
Ġex terior
Ġex ternal
Ġcl as
Ġte nder
Ġpo ker
Ġfl ute
est yle
Ġcon e
ĠH er
ĠH ale
ĠH air
ĠH ookah
ame l
Ġpre t
Ġse aled
ĠM aking
ĠM iam
um in
Ġdiffere nces
Ġgot ta
Ġdr ies
Ġdr inking
ak y
Ġbas h
Ġbl ah
ĠC enter
Ġside ways
Ġv ent
Ġv ase
Ġv ib
ĠF amily
Ġdifferent ly
Ġpr one
Ġher bs
ĠL ES
ĠD es
ĠD ance
ĠG ib
ĠG erm
ĠG irls
Ġen emy
Ġen chilad
Ġsl ing
Ġfe ather
Ġsk ull
Ġsc roll
Ġsu ck
Ġbo ss
Ġbo nds
ĠP lace
Ġar r
ĠJ ump
Ġcont e
Ġcont ent
ĠR ep
ĠR el
ĠE aster
ĠE gypt
Ġcould n
Ġcar rier
Ġpull s
Ġlight en
Ġapp le
Ġcomp rom
Ġbring s
Ġno body
Ġclean ed
Ġpress es
Ġwr inkles
Ġbre ve
ell ing
Ġmin imum
ĠK le
Ġhim self
Ġdis inf
Ġbottom s
Ġbuy er
Ġthrow s
Ġprodu ction
Ġcr isp
Ġrec re
Ġres ume
Ġglass es
Ġfun g
Ġun f
Ġun fortunately
Ġun iform
Ġtouch ed
Ġdec oup
Ġrel ated
Ġnew sp
Ġcons ult
Ġfull er
Ġpick s
Ġclose ly
Ġinf ant
Ġind irect
str ings
Ġmix er
Ġz ebra
Ġinc red
ĠCh inese
Ġacc um
Ġacc ording
Ġsty l
ĠHe ad
Ġwal ks
Ġmed ia
Ġtrain ers
Ġthin ner
Ġwarm ing
Ġspin s
Ġstuff ed
Ġmain ly
Ġent r
Ġsurf aces
Ġiron s
Ġcook ies
Ġcontrol s
Ġcomm ercial
Ġphotograp hing
Ġphotograp hic
Ġtreat s
Ġclos ing
Ġclos est
Ġins pect
Ġins omnia
ific ation
Ġstrong ly
Ġfocus ing
bo x
Ġsmooth ly
Ġdrill ing
ĠNot hing
Ġgard ening
Ġtooth brush
Ġburn ing
Ġbend ing
imm y
Ġconn ecting
Ġdevelop er
Ġsquee gee
Ġant ifreeze
Ġcal m
Ġpar king
Ġmar king
pl ant
Ġdiscuss ed
Ġjo in
Ġval ve
Ġcream y
Ġsharp ening
Ġdam aged
Ġass ess
Ġtor que
Ġdiffic ulty
Ġcontain ers
Ġstrength ening
Ġshr ug
ĠEvery body
Ġsew er
Ġbro ccoli
Ġorig inally
Ġcho ke
Ġexc use
Ġexc iting
Ġchop ped
Ġvers at
Ġsmell s
Ġexplain ed
Ġprov ides
ĠAny thing
Ġelectric al
Ġmess age
ĠSw itch
Ġspark s
Ġvol ume
Ġmaintain ing
Ġfeed ing
Ġrecord s
Ġhum an
Ġhum id
Ġemp ty
Ġemp has
Ġdig it
Ġrelations hips
Ġconcern s
upp ly
Ġmem ber
Ġdin osaur
Ġund ers
Ġconc ept
Ġslee ves
Ġwig gle
Ġoutd oors
Ġwra pping
Ġexfoli ate
ĠAb out
Ġabdom inals
Ġrestaur ants
Ġcraw l
Ġcraw ling
Ġutil ize
Ġeduc ation
Ġir rit
Ġbuck le
Ġcleans ing
col or
Ġbug s
Ġtick s
Ġlic ense
Ġrent ing
Ġspir it
ĠPre tty
lo ad
ĠPract ition
Ġpupp y
Ġfant astic
Ġru in
Ġconven ient
ĠDan iel
Ġpadd ling
Ġaw esome
Ġfol ks
Ġjer sey
Ġanal y
Ġmov ie
Ġadap tive
Ġprote in
Ġlung s
ĠTyp ically
ĠSqu eeze
ĠCap tain
Ġvend ors
Ġuncom fortable
Ġdecis ion
Ġinstruct or
Ġcabin et
Ġbull et
Ġcock pit
Ġsevent y
ĠMart ial
Ġvan illa
Ġgeograp hy
Ġtables poon
Ġresid ue
Ġpizz a
ĠSch ool
Ġneighb or
Ġintim id
Wh at
ĠBot toms
Ġenf orcement
Ġserp entine
Ġrefriger ator
Ġdynam ic
ĠMCG EHE
crip tion
ĠSolution z
Ġcact us
Ġcel ery
Ġporce lain
Ġnunch uck
Ġupgr ade
ĠBaile y
ĠMiam i
ĠGib son
Ġdisinf ect
Ġdecoup age
ĠMCGEHE E
A T
D A
O C
T o
a ire
a el
b ur
c ular
c ept
c orn
e u
f ield
g ency
h am
i k
l tim
m ar
m ails
n ut
n oon
o is
p ressions
r ate
r ud
t ail
u age
u able
u als
w art
x ed
y ond
Ã Ĥ
Ġt ut
Ġt ag
Ġt uc
Ġt ask
Ġa mp
Ġs ake
Ġs ail
Ġw at
Ġy ank
Ġy arn
nd rome
ing le
Ġb ang
er as
er ole
Ġc ure
Ġc il
Ġc rop
Ġh ide
Ġh ost
Ġh usb
Ġg um
Ġg eck
Ġg au
Ġg els
Ġg rape
Ġp y
Ġp leas
Ġf arm
Ġd at
Ġd ab
Ġl ack
Ġl ost
Ġl ang
Ġl ats
Ġl ashes
Ġm er
Ġm is
Ġm ort
Ġm ath
Ġm ouse
Ġm aps
an nel
it ude
it ivity
on a
or row
or ary
ĠI g
le ep
is her
et ies
Ġn erv
Ġn icer
Ġha bit
ke w
ic o
ic les
Ġwe lcome
ay ing
Ġe aves
Ġst irr
ac ity
ut ter
ĠT om
Ġre he
Ġdo c
ant ro
ĠA c
ĠA pr
Ġr atch
Ġr att
ĠTh ai
Ġj ar
Ġfor g
ld erly
ion al
Ġsh im
Ġsh ock
Ġsh ifting
Ġan n
ad o
ad ays
Ġor ient
st ream
im ents
ro l
Ġup wards
am m
Ġmo s
th ree
th ony
ĠW ind
ain t
Ġal t
Ġch amele
Ġfr ustr
Ġfr iction
ce an
ĠN atur
ip t
ip er
if ier
Ġback sw
ĠO ld
ĠO ft
Ġsp a
Ġsp o
Ġtr ay
Ġtr ash
ul es
Ġint ake
Ġint ense
Ġex it
Ġcl ues
ĠIt Ã¢
Ġte xt
Ġwor n
Ġpo or
Ġneed les
Ġfl atter
Ġcon cl
Ġhand ling
Ġpre gn
Ġoff set
Ġse mi
Ġde v
and a
Ġbr ow
ĠM r
ĠM an
ĠM ot
um my
Ġkeep er
Ġbl ond
ĠC ause
ĠC roc
Ġhas n
Ġv ine
ĠF u
ĠF our
ĠF lex
ĠF inally
Ġpart ing
Ġpr ices
ĠL ow
ĠD a
ĠD ating
ĠG reg
Ġsl op
ag n
ish es
Ġsc are
Ġsc rape
Ġsc ene
Ġsu ff
ĠP ilates
Ġgl ow
Ġar g
Ġcont our
Ġcle w
rap s
ĠR uss
Ġadd itional
Ġadd itives
Ġbet ting
Ġman ip
Ġman eu
ile d
Ġrem aining
Ġunder co
Ġshe ets
Ġmove d
Ġ1 1
Ġcar r
Ġcar bo
Ġper m
Ġhead s
Ġcomp onents
Ġfoot age
Ġfoot work
Ġsim pl
Ġno ise
ĠAl though
ĠK ick
ĠK ung
Ġdraw er
Ġdraw ings
Ġhalf way
Ġser vices
ĠSt ay
ĠSt ill
Ġrep rodu
Ġroll ed
tain ment
Ġcard io
Ġcent ury
Ġcr an
Ġcr ust
Ġcr iss
Ġrec ipe
ĠAn thony
Ġfun nel
Ġplant ing
Ġplant ed
Ġpaint s
Ġafter noon
Ġexp osure
Ġdec rease
Ġdes ire
Ġdes ired
Ġsy ndrome
Ġjump s
Ġsn out
Ġsn ack
Ġele g
wh ile
Ġreg ulations
Ġcomple x
Ġcomfort ably
Ġspec ies
Ġind ustr
Ġz op
Ġtight er
ĠMy rick
Ġinter ior
Ġinter vals
Ġra ft
Ġbox ing
Ġmeasure ments
Ġtrain ed
Ġspr ings
Ġtable top
Ġdi ving
Ġdi abetes
Ġeight een
Ġche at
Ġent ry
Ġform al
Ġwa ves
Ġdist in
Ġbra nds
ri or
Ġphotograp h
Ġmass aging
ĠDo ctor
Ġround s
Ġtrans lu
Ġcool ant
Ġvehic les
Ġvari eties
Ġfabric s
Ġfore st
Ġcondition er
Ġtooth p
Ġcam eras
Ġfre estyle
Ġmirr ors
ĠGo ing
Ġblend ing
Ġcal ves
Ġteam s
Ġgrind ing
Ġwo k
pr ay
Ġhang er
Ġvis ible
Ġval uable
omen ade
Ġspecial ty
Ġmat te
Ġass ign
Ġsmo king
Ġabs cess
Ġfat ig
Ġsleep ing
Ġtom orrow
ĠCl ose
Ġstain less
Ġcost umes
Ġunderstand ing
Ġload ed
Ġliqu or
Ġtoile ts
ĠEx pressions
Ġfir ing
Ġsafe ly
Ġmethod s
Ġguide line
Ġindivid ually
Ġindivid uals
Ġwebs ites
Ġgirl s
Ġsoc ial
Ġprim ary
Ġest eem
Ġsens itivity
Ġham strings
Ġcompet e
Ġcompet itive
Ġkill ed
Ġrepe ats
Ġpurch asing
Ġautom atic
Ġfro zen
Ġmult i
Ġphys ician
ĠThank s
ĠJoh anna
Ġhydr ated
Ġoccur s
Ġinj uries
Ġmill ion
Ġlim it
Ġlim ited
Ġview er
Ġcamp fire
Ġrad io
Ġchee ks
ĠKn ee
Ġconfid ence
Ġbrew ing
Ġimag inary
Ġinit iate
ĠBl ack
Ġflag s
Ġgrad uate
Ġconcentr ate
Ġlas er
Ġinsp ired
Ġshark s
ĠBar bie
Ġpend ant
Ġmart ial
Ġmart ini
Ġsock s
Ġstim ulate
ĠPr omenade
ĠSte wart
Ġrefere nce
Ġdest roy
Ġsea food
Ġscream ing
Ġbleed ing
Ġfra gr
ĠMass age
Ġscar f
Ġguest s
Ġfestiv als
ĠCle ar
Ġfell ow
Ġunderw ear
Ġpsycholog ist
Ġerr or
ĠHope fully
Ġoverl ap
ĠDra w
Ġindepend ent
Ġmagaz ines
Ġtit le
Ġdumb bell
asm osis
Ġpel vis
Ġvin yl
Ġvic tim
Ġminim ize
Ġimmun e
Ġexperi enc
Ġprinc ip
ĠCanad ian
ĠEurop e
Ġrepet ition
ĠBeaut iful
Ġsatur ated
Ġcass erole
Ġded ic
ĠHead stand
Ġversat ile
Ġunders ide
Ġcil antro
Ġlang uage
Ġnerv ous
ĠApr il
Ġratch et
Ġbacksw ing
Ġunderco at
Ġcarbo hydr
Ġtranslu cent
1 1
5 0
A U
C Y
E D
H ow
I f
R A
b l
b orn
c ro
d en
d ere
d own
e ed
e ars
h in
h ood
h ical
i ans
k n
l i
l ose
l ass
l antic
l asmosis
m a
m end
n ic
n ail
n osis
r um
r ie
r ase
r ings
u zz
v est
y c
y er
y ard
y cl
Ġt ed
Ġt aut
Ġt arp
Ġa ce
Ġth ro
in ations
ou nder
Ġthe ory
Ġs an
Ġs ight
Ġs ill
Ġs ne
Ġw est
Ġw ise
Ġw att
Ġo cean
Ġto ys
Ġy ol
Ġi con
ing e
Ġb an
Ġb ust
Ġb art
Ġb un
Ġc av
Ġc ycle
Ġc raps
Ġh oc
Ġh ire
Ġh int
Ġh arm
Ġh ollow
Ġg aps
Ġp ly
Ġp up
Ġf ib
Ġf ool
Ġf ives
Ġd ad
Ġd ors
Ġd uck
Ġd uty
Ġm ast
Ġm uff
it as
Ġgo r
es us
or g
Ġin ver
Ġin se
le c
le br
is on
is co
ar io
et een
Ġn il
Ġn ip
Ġn ative
Ġn ational
Ġha y
Ġha lo
ic ked
ic ycle
Ġbe yond
ot ch
ot ive
Ġwe igh
Ġe val
Ġst er
Ġst ack
Ġst ars
Ġst acked
Ġst airs
all ey
as ive
as hing
ut h
ĠT ri
ĠT rib
Ġre ly
Ġre ap
Ġre sol
al ty
ĠS low
ĠA h
ĠA lex
Ġr ug
Ġr acqu
Ġcan al
ĠTh ree
Ġj unk
id ent
Ġu ltim
Ġfor ced
se ur
ir ing
ch ange
ly mp
Ġli e
Ġsh out
Ġsh allow
Ġsh immy
ad ing
st op
Ġso re
Ġso othing
ro sion
Ġup ward
Ġmo on
Ġmo lec
itt le
Ġout ward
Ġab str
ure d
ure n
Ġal umin
Ġch ron
Ġch unk
Ġch erry
Ġch annel
Ġle ak
ce ed
ĠN ick
ĠN itrogen
Ġback s
Ġback ward
op lasmosis
ĠO reg
Ġsp ider
ĠB u
ĠB en
ĠB ul
ĠB ud
ul ous
ul ating
Ġint est
Ġint ention
ab ol
Ġex ec
Ġex amples
Ġpro s
Ġcl ove
Ġbec ame
ick s
un i
Ġwor ms
Ġpo ly
Ġus er
Ġfl op
Ġtim er
ĠH aving
Ġover p
Ġover come
Ġover flow
Ġde br
ĠM c
ĠM or
ĠM ix
ĠM ove
ĠM ark
ĠM att
Ġact ions
Ġnow adays
Ġdr ives
Ġbas es
act ion
Ġbl ush
ol a
ĠC D
ĠC he
Ġv ac
Ġimp lement
Ġpr oof
Ġher o
ĠL in
ĠL ake
ĠL are
ĠL ittle
ĠD et
ĠG ot
ĠG od
ĠG rab
Ġen h
Ġen l
Ġsl ot
Ġsl ab
Ġsl ap
Ġsl ides
Ġbu dd
ag ue
Ġsm art
Ġsu its
Ġbo a
Ġwater ing
ition ally
row s
el cro
Ġro b
Ġgl ued
Ġcall ing
ĠJ esus
Ġleg al
os ition
rap h
ĠR um
ĠR OS
end ed
Ġman ually
Ġsa ved
Ġrem ote
Ġsw ab
Ġsw irl
Ġshe ars
Ġ1 3
Ġset tle
Ġend urance
Ġhead sh
Ġgr id
Ġgr ill
Ġgr ade
Ġstra nd
Ġcomp act
Ġcomp ared
erson al
Ġhigh way
Ġclean se
Ġstraight ening
ib ly
Ġcor al
Ġcor rosion
ĠK en
ĠK ar
ĠK ell
ĠK yle
ĠAs soci
Ġext ract
Ġed ible
Ġdraw back
Ġdis abilities
Ġser ved
Ġfin s
Ġfin anc
Ġprodu cer
Ġcent ers
Ġreal tor
Ġ2 8
Ġfun ctions
Ġun icycle
Ġob l
Ġexp ress
Ġexp osed
Ġexp osing
Ġproper ties
Ġdes cribe
Ġatt ract
Ġsy m
Ġpass word
Ġlast ly
Ġreg ard
Ġreg ist
Ġcer amic
Ġcomple ting
Ġmiddle weight
Ġinf user
Ġpot ting
Ġperf ume
gg ing
Ġlay out
Ġz ap
Ġz ones
Ġloc ated
Ġfil t
Ġfil es
Ġacc omp
ĠV elcro
Ġcomb ine
Ġstop s
Ġpur s
Ġcoll ars
Ġthough ts
Ġtechn ical
Ġtechn ically
Ġbuild up
Ġpop s
Ġpop corn
und ry
Ġble m
Ġble ach
Ġeight h
Ġwarm er
Ġgrab s
Ġstuff ing
Ġgreen ery
Ġfill s
Ġlove d
Ġregular ly
Ġcook er
Ġref lection
Ġamount s
Ġcomm ands
Ġdoor kn
ĠShe lly
Ġjack s
Ġsal on
Ġsal ary
Ġfab ulous
Ġtrans port
Ġlo ves
Ġchar ms
gar ia
Ġsun glass
Ġstro be
Ġmatch ing
ific ant
Ġcap it
Ġfact or
Ġpair ing
Ġfore ground
Ġhoop ing
Ġburn s
Ġinv est
Ġstud ent
Ġclim ate
Ġconsider ation
Ġsign ificant
ĠGo To
Ġsub mer
Ġcount s
Ġconn ois
Ġdevelop ment
Ġlead ing
Ġimpro vis
Ġcal iper
ĠBr ad
Ġtend ency
Ġtowel s
pr oof
Ġhang over
Ġess ay
Ġess ence
Ġdiscuss ing
Ġstitch es
Ġaccess ory
Ġcontact s
Ġsharp en
Ġslip per
ĠSh a
Ġflip ping
ĠUn o
Ġtor n
Ġfavor ites
Ġcontain s
Ġlist ening
Ġswe ater
Ġpal ms
Ġdress ing
Ġmach ines
ĠCl ock
ĠCl ub
Ġbenef icial
Ġsepar ated
Ġdecor ating
Ġmet abol
Ġexc ited
Ġproject s
Ġextend ing
ĠRe ady
Ġposture s
Ġcirc uit
Ġmodel ing
Ġsil ent
over ing
ĠAny way
Ġpencil s
Ġrece iver
ĠAt lantic
Ġshad ows
Ġmechan ical
Ġeffective ly
Ġce lebr
Ġpossib ilities
Ġtun nel
Ġmiss ed
Ġbur nt
ĠSw iss
Ġest ate
Ġnin eteen
Ġhum or
Ġspl ash
Ġvit al
Ġrepair s
Ġtu xed
Ġton ight
Ġgra vity
Ġfro g
Ġaltern atives
Ġgloss y
Ġcrack er
Ġident ified
Ġcarp enter
Ġpath way
Ġflo ating
AN CY
Ġchec ked
Ġrais ing
vas cular
Ġaffect s
Ġcab bage
Ġhur ts
Ġpep pers
Ġdim in
Ġconst ric
Ġthr ust
Ġintrodu ction
Ġflav ored
Ġcommunic ate
Ġactiv ity
Ġmotorc ycles
Ġartist s
Ġtrop ical
ĠJapan ese
Ġbread ing
Ġzip per
ram id
Ġtre ble
Ġtre mend
Ġtack le
Ġgrad ually
Ġcompl iments
Ġlens es
Ġpuff iness
Ġcleans er
ivers ity
Ġbic ycle
Ġasse mb
Ġcurrent ly
Ġmountain s
ĠSecond ly
Ġhous ing
Ġsteep ing
Ġshed ding
Ġbump s
Ġmoistur izer
Ġreleas ed
ĠGu ide
ĠPract ice
Ġdistrib ution
Ġafford able
aile d
Ġfail ure
Ġstabil ized
ĠApp ly
Ġconven ience
Ġmanufacturer s
wor ms
Ġla wn
Ġstap ler
ĠCL ANCY
iat rist
Ġsus p
Ġbake d
Ġmush room
Ġterr ible
Ġthorough ly
Ġled ge
Ġinvent ed
Ġparr ots
Ġcryst al
Ġnav ig
ĠSer vice
Ġallerg ic
Ġbron zer
Ġblad der
ĠLa uren
Ġlineback ers
Ġappet ite
Ġminer als
clock wise
ĠCarol ina
Ġvel oc
Ġlink s
Ġmur dere
Ġtrimm ed
Ġscall ops
ĠAsh ley
Ġhyp nosis
Ġnood les
Ġemer gency
Ġassoci ated
ĠDes ign
ĠRel ax
Ġrecre ational
Ġfung us
Ġnewsp aper
Ġincred ibly
Ġentr ance
ĠPractition er
Ġgeck o
Ġdat a
Ġmort g
Ġstirr ing
Ġratt le
Ġforg ot
Ġpregn ant
Ġscare crow
Ġmaneu ver
Ġcardio vascular
Ġeleg ant
Ġdistin ct
ĠClear water
Ġexperienc ed
Ġcarbohydr ates
Ġthro at
Ġyol k
Ġbart ender
Ġhoc key
Ġmuff in
Ġinse ct
ĠTrib al
Ġreap ply
Ġracqu et
Ġabstr act
Ġalumin um
ĠOreg on
ĠBul garia
Ġdebr is
ĠLare w
ĠROS E
ĠAssoci ation
Ġfinanc ial
Ġdoorkn ob
Ġconnois seur
Ġtremend ous
Ġmurdere r
2 5
6 0
H ey
I L
N ight
O U
W e
a ired
b ow
c ap
c ast
c ross
e at
e ur
e qu
f l
f ers
f ect
f ish
g ly
g ars
h ou
h ow
i en
i ge
i ol
l ifier
m it
m ond
n es
n ight
o nder
p ut
p ond
p oint
r s
r ish
s so
t z
u gged
v ine
v able
w w
w ell
y a
y n
Ġ .
Ġ ought
Ġt il
Ġt int
Ġt ax
Ġt ang
Ġt ilt
Ġt att
Ġt asting
Ġa ges
Ġth us
in nam
ou st
ou red
re m
Ġthe ater
Ġs outh
Ġs izz
Ġs amples
Ġs outhern
Ġs kew
Ġw arn
Ġw ww
Ġb out
Ġb ats
Ġb oun
at is
er ap
Ġc row
Ġc ub
Ġc ape
Ġh ar
Ġh om
Ġh ung
Ġg en
Ġg ad
Ġg est
Ġp ant
Ġp ork
Ġf et
Ġf ert
Ġf ault
Ġf oul
Ġf isher
Ġd art
Ġd ive
Ġd ied
Ġl ace
Ġl int
Ġl ane
Ġm ac
Ġm ad
Ġm ile
Ġm ural
it aire
Ġgo gg
Ġgo bo
on ia
ĠI rish
is y
is ed
ar ger
et ry
Ġn one
Ġn yl
Ġn erve
ke ep
Ġbe nds
Ġwh ites
Ġwe ars
ed ies
Ġe lderly
Ġst at
Ġst akes
Ġst orm
ac c
ac ting
ac les
gh ett
ut es
ĠT en
Ġre inf
al king
Ġdo sing
out s
ĠS il
ĠS uch
ĠS lide
ĠS upply
Ġr an
Ġr ake
Ġr and
Ġr ail
Ġr ang
Ġr ats
Ġr aces
Ġr ins
Ġcan es
ĠTh erap
Ġj ig
Ġj ail
id ge
id ence
id ants
ight en
Ġfor t
Ġjust ify
Ġli f
Ġsh ades
Ġk ites
ad en
ent imes
st ers
Ġso cket
im b
Ġup right
Ġup keep
am b
am s
am as
ĠAnd rew
ĠW ing
ĠW ould
od ile
ur a
Ġal ter
ep s
Ġch un
Ġch ase
Ġch rome
Ġfr ames
ct ors
Ġall ig
Ġat te
if ully
Ġco ars
Ġco gn
Ġback hand
Ġpl atter
Ġpl umb
Ġpl umber
Ġkn uck
Ġsp ice
Ġsp ect
Ġsp ong
Ġsp aces
Ġsp icy
Ġtr ies
Ġtr uth
ĠB ow
ĠB all
ĠB art
ul f
Ġint ell
Ġex h
Ġex haling
Ġcl og
ive l
Ġwor st
Ġwor ried
Ġpo etry
Ġfl esh
Ġfl ounder
ĠH ol
ĠH eel
Ġhand les
Ġoff ensive
Ġoff icer
Ġse lection
Ġde ment
Ġde vices
ect ed
ĠM o
um ing
ire s
ak ers
Ġbl ind
Ġbl ocking
ĠC ur
ĠC ross
ĠC omm
Ġpe ak
Ġpe acock
Ġv ia
ĠF in
ĠF re
ĠF it
ĠF eel
Ġad min
Ġad equ
Ġimp er
Ġpr un
Ġpr ayer
ĠL ots
ĠD i
ĠD ave
ĠD ef
ĠG re
ĠG reat
Ġen amel
Ġsl ant
Ġsl ick
Ġsl ate
Ġsl ope
iz ers
Ġsm ith
Ġsm oot
Ġsc en
Ġsc oot
Ġsc ient
Ġsc ary
Ġsu gars
Ġqu it
Ġwater proof
Ġcolor ful
Ġro le
Ġro be
ĠJ im
ĠJ ab
ĠJ ones
Ġfind s
ĠR ach
ĠR ead
Ġman ner
Ġman ager
be at
be an
Ġsa uc
Ġac oust
Ġrem ain
Ġrem edies
Ġ1 4
Ġ1 6
av y
Ġgr own
Ġcomp are
ib les
Ġcor res
Ġcre me
Ġcre vices
Ġwr ote
Ġwr inkle
ĠK ry
Ġph ob
Ġph ones
Ġdis k
Ġdis sol
ĠSt and
Ġposition ed
Ġclip per
Ġclip pers
Ġ2 4
Ġbrush ed
Ġve ter
Ġun like
Ġpaint brush
ĠU S
Ġexp ression
Ġexp enses
Ġrel ieve
Ġnew er
ĠFor d
Ġsur ger
Ġcenter piece
Ġdep artment
Ġcur ved
Ġide al
Ġide ally
Ġbeh alf
Ġfar ther
Ġlar gest
gle ct
Ġinf lu
Ġneck line
Ġbel ie
Ġweight ed
Ġdet erg
Ġdet ailed
Ġsupp lements
Ġcreat ivity
Ġstring er
Ġmas ks
Ġwheel ch
Ġrest ric
Ġwire less
Ġbegin ner
Ġinter p
Ġinter fere
Ġair port
ĠCh ild
ĠCh ris
Ġes cape
Ġfil ing
Ġfil ters
Ġra fting
Ġrid ers
Ġsty ling
ĠV I
ĠV OC
Ġcomb ing
Ġcomb inations
Ġbox er
Ġbox ers
Ġtra pped
Ġmeasure s
Ġsand ing
Ġbuild s
omm y
Ġspin al
erm aid
Ġche f
Ġform ation
Ġpad ding
Ġhook s
Ġhook ing
Ġref ract
Ġref lex
ri ver
ri ers
Ġphotograp hs
Ġfoll ows
Ġjack ing
Ġfinger nail
Ġallow ance
ĠBe ing
ĠBe ak
Ġtest s
Ġtemp orary
Ġfold s
Ġlo ving
Ġsun ny
Ġfast est
Ġbal ancing
ific ial
Ġcap acity
Ġpow ered
Ġkey s
Ġdirect ors
Ġfit ness
Ġfact ors
Ġfore most
Ġsol vent
Ġart ificial
me al
Ġwin s
Ġcorrect ing
Ġfam ilies
Ġhundred s
Ġpunch ing
Ġburn er
Ġburn ed
Ġport ra
Ġport ions
Ġ8 0
Ġinv ite
io x
Ġenjoy ing
Ġsub t
Ġsub st
Ġheart s
Ġscr am
Ġpitch ers
Ġexpl od
Ġlead s
ĠBr uni
Ġju ices
Ġmod ify
olog ical
Ġbasket s
Ġpan els
Ġstitch ing
Ġchair s
Ġaccess ible
Ġprevent ion
Ġpack ing
Ġadjust ment
Ġadjust able
Ġpersonal ity
ĠKeep ing
Ġspecial ize
oun ter
Ġmat ting
ĠSh ould
ĠSh uffle
Ġsmo ky
Ġloose ly
Ġbed s
Ġinvol ve
Ġinvol ving
Ġegg plant
Ġstain s
Ġcost s
Ġsetting s
Ġmet er
Ġshap ing
Ġguit ars
Ġload s
Ġtherap ies
Ġorgan iz
Ġorgan ization
Ġnear ly
Ġdish es
Ġdeck s
Ġem ails
Ġselect ed
Ġprin cess
Ġ6 0
Ġsil hou
Ġneg atives
Ġexplain ing
Ġprov iding
Ġfash ions
rodu ction
Ġcounter clockwise
Ġmeet ing
Ġconsist ently
Ġmechan ism
Ġdrain age
Ġenvironment al
ĠSp a
Ġce ment
Ġoutf itter
Ġtun ing
Ġpink ie
Ġdip ping
Ġrain s
Ġrough er
Ġattack er
Ġbur pies
ĠSw eep
Ġpli able
Ġpeel ing
Ġblow ing
Ġcro sso
Ġperform ance
Ġdeterm ining
Ġdang er
Ġautom otive
Ġaf ro
Ġton s
Ġaltern ate
Ġaltern ating
Ġstress ed
Ġincorpor ated
ering ue
Ġpet als
Ġbor ing
Ġrat io
Ġflo ats
Ġcontr asting
ĠLe ft
ĠLe ather
Ġremo val
Ġdrag on
Ġdrag ons
Ġscratch ing
iven ess
Ġaff ili
Ġill ness
Ġhur ric
Ġhur dle
Ġspoon s
Ġund o
Ġet c
ĠPl ay
Ġped al
Ġpsych ology
Ġkay aks
Ġski ing
Ġloos er
Ġcanoe ing
Ġexfoli ating
Ġpoin ter
Ġcand y
Ġfile t
Ġinit ial
ĠPro per
Ġeyel ash
Ġindic ates
Ġdetect ors
Ġcontinu ous
Ġcontroll ing
Ġconcentr ated
Ġbuck s
col n
Ġtub ing
Ġbic ycles
Ġprog ression
Ġmagn et
Ġtan ning
Ġlab el
ĠSal t
Ġmanage ment
Ġmanage able
Ġbare ly
Ġsold ering
Th is
Ġfant as
Ġintegr ate
Ġintegr ated
Ġincre ases
oint ed
Ġtab s
Ġreact ion
Ġjer k
Ġelev ation
Ġmedic ine
Ġprote ins
Ġdiv orce
Ġla undry
Ġsurpr ise
Ġdistract ions
Ġdealers hip
augh ter
Ġestab lish
Ġestab lished
Ġfestiv al
Ġtricep s
ĠPer fect
Ġdimension al
ĠQ u
Ġtox oplasmosis
Ġbes ide
Ġbes ides
ĠImp ro
Ġrecogn ize
Ġobst acle
Ġobst acles
Ġaccept able
Ġcalc ulate
Ġtumb ling
Ġconvers ation
Ġprec ise
Ġparticip ant
Ġhyd rogen
Ġoccasion ally
Ġax le
Ġba it
Ġcoo led
Ġlands cape
Ġrebound ing
ĠWor king
Ġflaming o
Ġsequ ence
Ġpear l
ĠFe et
ĠDep ot
Ġstrain er
ĠRich ard
Ġguarant ee
Ġelectron ics
Ġemot ions
Ġfundament al
bre aker
Ġod or
Ġcyl inder
Ġhorm one
Ġweap on
Ġconte xt
ĠEgypt ian
Ġcomprom ise
ĠKle in
Ġemphas ize
Ġdigit al
Ġanaly ze
Ġdisinfect ant
bur g
mar ine
Ġamp lifier
Ġhusb and
Ġgau ge
ĠNatur al
ĠOft en
Ġdev il
ĠCroc odile
Ġsimpl er
Ġcran berry
Ġindustr ial
Ġtoothp aste
Ġmast ered
Ġgor geous
Ġinver ted
Ġmolec ules
ĠBud d
ĠLin coln
Ġheadsh ot
ĠKar ie
Ġsym metric
Ġregist ered
Ġsunglass es
Ġcapit als
Ġmetabol ism
Ġtuxed o
Ġdimin ished
Ġthrust s
Ġassemb ly
Ġsusp ension
Ġveloc ity
Night mare
Ġtatt oo
innam on
Ġgad get
Ġgogg les
Ġnyl on
ghett i
Ġrand om
ĠAndrew s
Ġchun ks
Ġallig ator
Ġatte mp
ĠHol ga
Ġdement ia
Ġacoust ic
Ġcorres pond
Ġdeterg ent
Ġcrosso ver
! !
' ,
. ?
9 9
A I
A M
D H
E X
G oogle
G ER
I E
I LL
L A
N ow
O R
O Y
O h
O ne
O kay
R Y
V olley
X ing
a f
a ic
a ven
b um
c ase
c ious
c rib
d river
e ut
e led
f or
g und
g ae
h es
h one
h ole
i ac
i king
i os
i ency
i Xing
l on
l ook
l ids
m ade
n eck
n ger
o f
o ke
o be
p et
p age
p les
p aper
p arent
r u
r ies
u ly
v ation
w o
w ith
w est
w ich
y an
z es
Ġ [
Ġt as
Ġt ee
Ġt ens
Ġa while
in ant
in st
in itely
in ology
Ġs ent
Ġs ab
Ġs ift
Ġs ided
Ġs atis
Ġw ard
Ġw are
Ġw ond
Ġw avy
Ġo as
Ġto ner
Ġy a
Ġi gn
Ġi Google
Ġyou nger
nd ing
Ġb in
Ġb ank
Ġb ids
at ors
at ula
er k
er al
er able
er ms
Ġc ues
Ġc innamon
Ġh id
Ġh ooked
Ġh obby
Ġg an
Ġg ir
Ġg arn
Ġg room
Ġg erms
Ġp it
Ġp od
Ġp ip
Ġp un
Ġp eep
Ġp lex
Ġp oured
Ġf id
Ġf ec
Ġf enc
Ġf umes
Ġd ou
Ġd om
Ġd unk
Ġd ots
Ġd izz
ll o
Ġl u
Ġl oses
Ġm al
Ġm ales
Ġm ermaid
Ġm eringue
an es
an as
an ish
it ate
it ation
en n
en o
en ess
on ies
or al
or ize
ĠI m
Ġin h
Ġin ks
le ton
ar th
ar ation
ar ium
ve en
om y
Ġn est
Ġha irst
Ġha zard
ic ip
ic able
ic iency
Ġbe aring
ay a
Ġe ast
Ġst ing
Ġst air
Ġst ool
Ġst ages
Ġst atic
as ure
ĠT or
ĠT ide
ĠT op
ĠT aking
ĠT alk
Ġre le
Ġre inst
al o
al th
ĠS l
ĠS ar
ĠS ay
ĠS ide
ĠS if
ĠS ky
ĠS pring
ĠS onia
ĠA round
ĠA DH
Ġr ap
Ġr ose
Ġr ivers
Ġcan s
ĠTh umb
id ers
Ġu gly
Ġfor k
ir op
ir ling
ake d
ch arge
Ġk icked
ad s
ad ow
Ġor d
st ep
Ġso le
im on
im us
ro be
am ed
Ġmo b
Ġas ym
ill s
th is
th est
Ġab r
ĠW il
ĠW ash
ain ted
ĠY iXing
ur s
Ġhe ated
Ġthey Ã¢
Ġal ive
Ġal to
Ġal mond
Ġch is
Ġch lor
Ġch ips
Ġfr aming
Ġfr inge
ĠN or
if er
Ġco ating
Ġback bone
Ġback yard
Ġpl aster
op es
Ġkn eel
Ġcom ics
ĠO cc
ĠO aks
Ġsp ind
Ġsp ike
Ġsp acing
Ġsp atula
Ġtr unk
ers burg
ĠB re
ĠB and
ĠB ub
ĠB oy
ul ing
ul king
ul sion
Ġint ric
Ġint ended
Ġdown hill
Ġex ist
Ġcl in
Ġcl oud
ort ment
Ġput t
ap ers
qu it
qu is
ick et
ess or
Ġtw inkle
Ġfl ound
Ġfl uff
Ġfl icking
Ġcon gest
ĠH is
ĠH ar
ting u
Ġpre pping
Ġbit s
Ġbit es
ig ur
Ġoff ers
Ġover night
Ġse bum
Ġstart er
Ġde et
Ġde uce
Ġde bit
and asana
Ġbr as
Ġbr ows
Ġbr ushing
Ġbr ayer
ĠM A
ĠM e
ĠM en
ĠM ed
ĠM ac
ĠM id
ĠM ee
ĠM ax
ĠM ex
Ġact ors
ich lids
Ġwhere as
Ġbas in
act ions
ol or
ĠC er
ĠC on
ĠC all
ĠC are
ĠC ont
ĠC ool
ĠC ichlids
Ġpe ony
ĠF all
Ġpart ies
Ġad here
Ġher self
ĠL ind
ĠL ars
ĠL ife
ĠD em
ĠD uring
ĠD ental
ĠG l
ĠG old
ĠG roup
he a
Ġsl iced
ff ic
Ġfe vers
Ġsm ile
Ġsm ear
Ġsk is
Ġsc ent
Ġsu ction
Ġsu bs
Ġbo as
Ġbo ast
ĠP our
ĠP ort
ĠP ink
ĠP ark
Ġcut ter
Ġcut icle
Ġqu ote
Ġtalk s
Ġstr ict
Ġimportant ly
Ġbot her
Ġgl ob
Ġgl az
Ġgl ute
ĠIn ter
ĠIn haling
ens ed
ens ils
Ġpi erc
Ġpi geon
Ġcall ig
Ġstep ped
ĠJ o
ĠJ ason
Ġcont am
Ġcont rib
os ity
ĠR ef
Ġac es
ĠE l
ĠE m
ĠE ast
ĠE van
Ġrem ind
Ġrem oves
Ġrem over
Ġrem edy
Ġrem inder
og y
og en
Ġsw irling
Ġshe ar
Ġ1 7
Ġcar b
Ġcar ve
Ġcar ved
Ġgu ides
Ġam ate
Ġam icable
Ġgreat est
Ġper imeter
Ġhead ache
Ġapp lies
Ġfeel ings
ub r
Ġgr an
Ġgr it
Ġgr as
Ġcomp ress
Ġcomp onent
Ġcomp artment
ud es
Ġsim mer
ib bean
Ġcor k
Ġrun ner
Ġcre ep
Ġpress ed
Ġopen ed
Ġhard est
Ġsec ret
ang o
Ġdoesn Ã¢
Ġdef lection
Ġdef iciency
ell ent
ĠK e
ĠK ne
ĠK iss
Ġext rud
ath on
Ġph rase
Ġdis tingu
ric ia
ĠSt an
ĠSt ars
ĠSt retch
Ġposition ing
Ġrep aired
Ġrep ellent
Ġroll ers
tain ing
Ġprodu ced
Ġcent ral
Ġcour ses
Ġstick ers
Ġ2 00
Ġcr ush
Ġcr ump
Ġcr ash
Ġcr uc
Ġcr uis
Ġcr acked
Ġcr icket
Ġres ources
Ġsqu ish
Ġtouch down
iss imus
ount ain
Ġnum erous
Ġlift s
Ġwere n
Ġeye ball
Ġdes k
Ġrel ate
Ġrel ie
Ġsy rup
Ġstore d
Ġsur ve
Ġbase ment
Ġpic nic
Ġroom s
iv al
Ġsn atch
Ġsn akes
Ġcur led
Ġhome page
Ġbeh ave
anc ake
Ġcup c
Ġground ed
Ġinf ections
Ġperf umes
iqu es
ĠSome one
Ġcreat ures
Ġmas se
Ġrest less
Ġcatch es
Ġinter medi
ĠCh est
ĠCh eck
enc ies
uck y
Ġrid er
ĠV e
Ġpin ning
Ġstop ping
Ġhorse back
Ġpur se
Ġprot ecting
Ġsand y
Ġdisc ip
Ġdisc onn
Ġdisc lose
Ġdisc olor
Ġdi aper
Ġdi arr
Ġeight hs
Ġwarm ed
Ġwarm th
Ġbeaut ifully
Ġche aper
Ġform at
Ġswitch ing
Ġlength ening
Ġloop ing
Ġsch em
Ġangle d
Ġtail ored
Ġtail bone
Ġcomm it
Ġtreat ments
Ġshort s
Ġshort stop
Ġdeal t
Ġtemp o
Ġfold ing
Ġshoot s
Ġtrans l
Ġtrans action
Ġclos et
Ġsun light
Ġcool er
Ġmon key
Ġins er
Ġins urance
Ġbal m
Ġspot ting
Ġroot ing
Ġclear ance
Ġdoll s
Ġrelax ation
Ġpow ders
Ġdirect or
Ġfore arms
Ġsol ar
Ġsol itaire
Ġart icles
Ġwin ner
Ġconf igur
Ġread ily
Ġtrack s
Ġheal ing
Ġport able
ĠOn ly
Ġclim b
Ġveget arian
ĠOK ay
Ġprep aration
ĠFr iday
Ġsign ature
ĠGo lf
Ġsub marine
Ġscr unch
Ġsaf er
Ġcount ing
Ġpainting s
Ġdevelop ing
Ġexpl ode
Ġbell s
Ġant ique
Ġant iox
Ġteach ers
Ġpar as
Ġequ als
Ġschool s
Ġschool ing
Ġgolf er
Ġbrown s
Ġswing ing
ĠBr ush
Ġsteam er
Ġmar ble
Ġmar ried
Ġmar athon
Ġwee ke
pl ace
pr int
Ġ7 0
Ġeng aging
Ġice breaker
Ġsquare d
Ġsquare s
Ġblanket s
Ġdiscuss ion
Ġvis ually
Ġattach es
pect ive
Ġprevent s
Ġscore d
Ġpack ages
Ġreach es
Ġadjust ing
Ġslip ping
Ġslip pers
Ġspecial ized
Ġag ents
Ġass ortment
ĠUn ion
ĠUn fortunately
ĠUn iversity
Ġfield s
Ġrot ations
Ġshop s
Ġpen et
Ġpen alty
Ġscrew driver
Ġquart ers
Ġsnow man
sol ut
Ġtank s
Ġaut o
Ġtherap eut
Ġliqu eur
Ġorgan ized
Ġchop ping
ĠRe ach
Ġem bell
ĠEx cellent
Ġsil k
Ġlog s
Ġneg ot
Ġsmell ing
Ġprov ided
rib ly
Ġtension er
Ġmess ages
ĠAr ms
Ġflower ing
Ġintern ally
ph ere
Ġrece ipt
Ġprop s
Ġresp ir
Ġmajor ity
Ġbucket s
Ġlayer ing
Ġspread ing
Ġapplic ations
Ġhop s
Ġtap ping
Ġmen u
Ġcaus ing
Ġconnect s
Ġfashion ed
Ġbur row
Ġfeed back
Ġfirm ly
Ġpage ant
Ġinstr uments
Ġperform ed
Ġcoconut s
Ġtar leton
Ġkill er
Ġtripod s
Ġut ensils
Ġtrap s
Ġton es
Ġgoal ie
Ġphys ically
Ġcrack s
Ġsuccess fully
Ġtough er
Ġmax im
ĠLook s
AN DA
Ġchord s
Ġscratch es
Ġoper ation
Ġoper ating
Ġhur ting
Ġinj ured
Ġver te
Ġlim its
Ġlim bs
Ġtri ath
Ġ19 7
Ġcamp ing
Ġcamp us
Ġlamp s
Ġrad ial
Ġrip ped
Ġactiv ate
ĠGr ind
ĠPl ant
Ġgym n
Ġped dle
Ġped iat
Ġpsych iatrist
Ġkay aking
Ġbrace lets
met ics
Ġantib odies
Ġfriend ly
Ġlat te
Ġlat issimus
Ġinit i
ĠAb solut
Ġmoder ate
Ġdrip ping
Ġamaz ed
Ġbreed s
Ġindic ator
Ġfac ility
ĠTw ist
ĠSc r
Ġshut ter
Ġdelic ate
Ġdram a
Ġeduc ational
Ġaccur acy
Ġcrochet ing
Ġfiber glass
Ġjour ney
ĠDav is
Ġkid ney
Ġserious ly
Ġfunction al
ĠChrist ian
Ġadvant ages
Ġlic ensed
Ġlab eled
ĠSal on
ĠCar ibbean
Ġmoistur izing
IN D
Ġgas ket
Ġalign ed
Ġalign ment
Ġproced ures
Ġstraw s
Ġpotent ially
Ġconfus ing
ming ton
Ġaim ing
Ġteap ots
ĠPat ricia
Ġincre asing
Ġaw ful
Ġwar rior
Ġcult ure
Ġpee led
Ġmov ies
ĠMich ael
Ġmedic ation
Ġfrost ing
Ġjourn al
rac ting
wor ks
Ġbands aw
Ġgre ens
Ġden im
ĠTyp e
Ġrack s
entine l
Ġcoord inate
Ġdew y
ĠCL AI
Ġuncom mon
Ġdecis ions
Ġdealers hips
Ġrespons ible
Ġinstruct ions
Ġinclud es
Ġinclud ed
Ġpig ment
Ġdream s
Ġmush y
ĠAM ANDA
Ġhairs pray
Ġprom in
ĠPet ersburg
Ġdisapp ear
Ġpsycholog ical
Ġmel ted
ĠHand ler
Ġcalc ium
Ġcompliment ary
Ġcushion ing
Ġwound s
Ġgrap hic
Ġluck y
Ġshel ves
ĠOut look
ĠBel ieve
Ġclump s
ĠFire fly
ĠLast ly
ĠRes ources
Ġappear ance
Ġconsum er
ĠDoes n
Ġtour ing
Ġaqu arium
Ġdise ases
Ġwhit ening
Ġstrateg ies
Ġflatten ed
ĠReal tor
Ġvolt age
Ġillustr ate
Ġwip ing
Ġjog ging
Ġlizard s
Ġchap ped
Ġclas ped
Ġpret end
Ġvib rate
ĠGerm an
Ġenchilad as
Ġarr ange
ĠRep eat
Ġaccum ulated
Ġstyl ist
Ġhumid ity
Ġirrit ate
Ġspirit ual
Ġnunchuck s
Ġtut or
Ġpy ramid
Ġrehe ars
Ġshim mer
rol ogy
Ġspa ghetti
Ġvine gar
ĠDa ily
Ġslop ing
Ġsnack s
Ġfatig ue
Ġprincip les
Ġrepetition s
yc ling
Ġted dy
Ġsan it
Ġsne aky
Ġcav ity
Ġfib ers
Ġdors i
Ġeval u
lymp ic
Ġenh ance
Ġenl arger
ĠKell i
Ġextract ion
Ġobl iques
Ġaccomp lish
Ġblem ishes
Ġmortg age
Ġinsect s
Ġboun cing
Ġcub es
Ġhar vest
Ġhom es
Ġhung ry
Ġfert il
ĠSil ver
ĠTherap y
Ġplumb ing
Ġintell ig
ĠKry ny
Ġphob ia
Ġsurger y
Ġinflu ence
Ġsubt ract
Ġsilhou ette
Ġmagnet ism
Ġfantas ies
Ġward robe
Ġoas is
Ġhid den
Ġgan ache
Ġdizz y
Ġreinst all
ĠSif u
ĠADH D
irop ract
Ġasym metric
ĠWil mington
Ġalto gether
Ġflound ers
Ġextrud er
Ġcruc ial
Ġintermedi ate
Ġdiarr hea
Ġantiox idants
Ġpediat ric
ĠCLAI RE
% .
' .
1 00
5 00
A dd
E AU
G o
H e
H AN
H RI
K E
N D
O P
P D
T C
V E
V IN
a im
a ffeine
a que
b an
b ul
b ine
b urn
b ased
b iot
c y
c are
d ess
e v
e es
f oot
f iber
g ment
g ile
g ling
g ster
h us
h ee
h ite
h asana
i ers
i able
i ors
k hasana
l ance
l ishing
m m
m int
m other
m ix
m iss
m ates
m atic
n ine
o very
p e
p ace
p ose
p ass
p ole
r d
r ay
r ich
r imp
r iment
s u
s ix
t es
t om
t ill
t te
t elling
t entimes
u ing
u er
u an
u ity
u enc
v on
v age
w atch
w ear
x els
y al
y ms
Â ´
Ġ &
Ġ x
Ġ ÃĤ
Ġt ines
Ġt ents
Ġa ward
in c
in ine
in ating
in ator
in arian
ou dy
re et
re ci
Ġs ac
Ġs ip
Ġs ong
Ġs als
Ġs allow
Ġw iring
Ġo lympic
Ġto ast
Ġy og
Ġy ummy
Ġb on
Ġb ould
Ġb ush
Ġb ail
Ġb ooth
Ġb ikes
Ġb amb
at ics
er ment
er ves
Ġc ere
Ġc aut
Ġc ables
Ġh ate
Ġh atch
Ġh os
Ġh unch
Ġg our
Ġg rew
Ġg inger
Ġg yms
Ġp ens
Ġp uck
Ġp its
Ġp ets
Ġp ilates
Ġp ancake
Ġf akes
Ġf res
Ġf udge
Ġf erment
Ġd rap
Ġd ips
Ġd ash
Ġd ates
Ġd rape
Ġd ensity
Ġd iesel
Ġd ict
Ġd aughter
Ġl oll
Ġl ately
Ġl augh
Ġm ent
Ġm im
Ġm itt
Ġm ash
an o
an el
it ect
it zer
Ġof tentimes
Ġgo og
es an
es tern
es thetic
en ch
or ge
or der
or ph
or rac
ĠI I
ĠI nt
ĠI van
Ġin e
Ġin ward
Ġin ject
Ġin put
us et
us ed
le a
le ave
is a
is ible
is ode
ar ies
ve al
et ers
om ile
Ġn ic
Ġn ur
Ġn ast
Ġn ude
Ġn amed
Ġha ll
Ġha ired
ke ys
ic a
ic ier
ic ious
Ġbe ars
ot ed
ot ation
ot ection
Ġwh ist
Ġwe ird
Ġwe aken
ed ian
Ġe arn
Ġe ats
Ġe con
Ġst ub
Ġst aring
ac ard
ac ific
as y
ut t
ĠT ur
ĠT ul
ĠT ell
ĠT ouch
ĠT iger
ĠT ommy
ĠT ango
Ġre use
Ġre vers
Ġre ef
Ġre veal
al d
al on
al ite
ĠS un
ĠS and
ĠS kin
ĠS ayer
ĠS outhern
ĠS ingle
ĠS leep
ĠA A
ĠA LL
ĠA von
Ġr ind
Ġr ush
Ġr uff
Ġr ises
ver ine
Ġcan e
Ġcan non
ĠTh ail
Ġj am
Ġj oy
Ġj ug
ust ible
id ized
Ġfor ces
ir ation
ir az
ch ing
ch es
Ġli ly
Ġli mp
Ġli ber
Ġsh ove
Ġan c
ad ill
ad dle
Ġor bit
st ate
st age
st one
st orm
st yle
Ġso y
Ġup beat
ee ley
am a
am iliar
Ġmo ss
Ġas ks
Ġas leep
Ġas yn
ill e
ill er
Ġout board
th at
th ere
th row
th ey
ĠW ow
ĠW ar
ĠW ound
ĠW ild
ur pose
Ġne glect
Ġhe l
Ġhe ms
Ġhe ats
art s
art ments
il a
Ġal ph
ra ise
Ġhere Ã¢
Ġch at
Ġch oo
Ġch uck
Ġch rom
Ġfr oth
Ġfr ied
ct uary
ce l
rou d
rou s
ip ops
if ter
Ġsome how
Ġpl um
Ġpl ates
Ġpl uck
op y
Ġkn it
Ġcom ic
Ġcom edy
Ġcom edian
ĠO m
Ġsp ade
Ġsp ouse
Ġsp iced
Ġsp iders
Ġtr acing
Ġtr uly
ĠB er
ĠB ad
ĠB ra
ĠB ig
ĠB reat
ĠB oot
ĠB end
ĠB ik
ĠB acard
ul in
Ġint ent
Ġdown load
Ġpro ceed
Ġcl icking
Ġcl utch
Ġcl oudy
ive ly
Ġput ty
ap ula
ess ica
Ġme als
Ġneed ing
ĠWe b
ĠWe iss
Ġfl ows
Ġfl oss
Ġfl utter
Ġfl oral
Ġfl otation
Ġtim ed
Ġcon vent
ĠH am
ĠH ands
Ġhand led
Ġpre pped
ace ment
ig s
Ġoff stage
Ġover view
Ġse as
Ġse ating
Ġde ath
and er
iff in
Ġbr ass
ĠM on
ĠM ain
ĠM ag
ĠM other
ĠM ike
ĠM allon
ĠM ountain
ist r
ist s
ist ics
Ġact or
um er
um ble
oc ked
ree k
Ġnow here
ft s
Ġdr ips
Ġdr unk
Ġdr iven
Ġbas em
act ive
Ġbl ast
ong s
ol es
ol ong
ol verine
ĠC ail
ĠC os
ĠC ock
ĠC ase
ĠC oll
ĠC ert
ĠC HRI
ĠC affeine
ĠC uenc
uch in
Ġside burn
Ġpe onies
Ġv ice
Ġv irt
Ġv iol
ĠF ed
ĠF ace
ach es
ach uset
Ġpart ners
Ġad op
Ġad hes
Ġimp ress
ĠL ay
ĠL ight
ĠL ater
ĠL azy
ĠL ifting
ĠL ilies
ĠL imon
em ark
ĠD J
ĠD ow
ĠD ay
ĠD ec
ĠD ry
ĠD eep
ĠD ED
ĠD andasana
ĠG e
ĠG ar
ĠG ary
ĠG retch
ĠG mail
he y
he at
Ġen ables
Ġen rich
Ġsl ips
"" .
Ġlet Ã¢
are n
are r
are t
Ġfe ver
ag ger
ag ram
ber g
iz ona
Ġsm udge
Ġsk im
Ġsc ience
Ġsc apula
ĠP H
ĠP ay
ĠP art
ĠP ass
ĠP arm
ĠP lease
ĠP sych
ĠP aint
ĠP ersonal
ĠP acific
Ġqu ilt
Ġcolor ation
Ġtyp ing
Ġimport ed
Ġstr iking
el ine
el ia
Ġro yal
Ġhelp ed
Ġgl ide
ĠIn side
ĠIn cl
Ġar ter
Ġpi xels
ĠJ ill
ĠJ ose
ĠJ ames
ĠJ ared
ĠJ enn
ĠJ uan
ĠJ essica
Ġleg ally
ĠR ed
ĠR ock
ĠR iv
Ġbet a
ĠThere fore
Ġman a
Ġman na
Ġman go
ĠE ric
ĠE asy
head s
Ġsw oop
Ġleft over
Ġcar n
Ġcar ving
Ġcar riers
Ġper alite
Ġlight ening
Ġhead ed
Ġhead aches
Ġapp reci
ub lic
Ġthink s
Ġhold em
Ġstra nds
Ġcomp artments
Ġcou ples
Ġskin ny
Ġpain s
Ġpain ter
Ġno ises
vel ing
Ġfront side
Ġperson s
Ġrun ners
Ġsmall est
Ġforward s
Ġwr it
Ġhard y
Ġhard ly
Ġdef ine
rop yl
ĠK ing
ĠK ey
ĠK eeley
Ġext ensive
Ġed ited
ath y
Ġph ases
Ġdis l
Ġdis charge
ric al
ric ulum
ĠSt rings
Ġclip ped
Ġreal ity
Ġreal ities
Ġcr umb
Ġcr ooked
Ġrec ept
Ġve t
Ġfun ky
Ġun c
Ġun n
Ġun p
Ġun able
Ġun cle
Ġun pl
Ġsqu irt
Ġpract ical
Ġpract ices
Ġinst ant
Ġexp ans
Ġdec ade
Ġdec iding
Ġpush es
Ġrel ation
ird s
Ġcons ume
Ġcons cious
Ġcenter ing
Ġear ring
Ġjump ed
Ġdep os
Ġstretch y
Ġcur ves
Ġcur riculum
Ġsix es
Ġ3 5
Ġfar thest
Ġspe aks
Ġquick est
Ġcomple tion
Ġground ing
Ġinf ected
Ġperf or
Ġbel ay
Ġbel ts
Ġwind y
Ġdet ach
Ġdet riment
Ġmix es
Ġsupp ose
Ġtight ening
Ġtight ened
Ġstring ing
Ġlow ered
Ġcatch er
Ġinc line
Ġinter change
ĠMake up
Ġwax ing
Ġprocess ing
Ġprocess es
Ġfloor ing
ĠCh oo
ĠCh ap
ĠCh ocol
ĠCh anel
Ġloc ate
Ġloc ations
Ġacc ident
Ġbreak up
Ġmot iv
Ġrid ges
ĠHe alth
ĠV er
ĠV alley
ĠV orrac
Ġcomb ining
Ġcomb ustible
Ġblack heads
Ġwal nut
Ġstop per
Ġtra um
Ġtra ffic
Ġpur ses
Ġcoll ecting
Ġlower ing
astic s
Ġsand wich
Ġspr int
Ġspr inkle
Ġthin ning
Ġpop ping
Ġpop ulation
Ġfine ly
Ġdisc ourage
Ġble nds
Ġhot el
Ġdi agram
Ġfire d
Ġfire works
Ġgreen ish
Ġform ulated
Ġdesign ated
Ġswitch es
Ġfree lance
Ġdist ur
Ġdist racting
Ġpost er
Ġrub bed
Ġtail or
Ġref orm
Ġthick en
Ġcomm ode
Ġtreat ed
Ġfoll icle
Ġste ak
Ġbar b
Ġrecommend ation
Ġrecommend ations
Ġtemp l
ids on
Ġcross ing
Ġlo an
Ġplan er
Ġplan et
Ġplan ned
gar ine
Ġfast en
Ġmon keys
Ġmatch ed
ific ate
Ġstrong est
Ġcutting s
Ġsoft en
Ġsoft ening
Ġkey board
Ġprof essor
Ġcloth s
Ġfact s
Ġpair s
Ġclass ical
me g
Ġconf ir
Ġconf use
Ġdemonstr ated
Ġlater al
Ġbusiness es
Ġhoop house
Ġinv isible
Ġstud ies
Ġstud ied
Ġclim ber
az z
Ġprep aid
ĠFr ames
Ġconsider ably
Ġpowder y
Ġenjoy able
Ġpitch ing
Ġdevelop s
Ġexpl ore
Ġexpl os
Ġimpro ving
Ġimpro ved
Ġpar ag
Ġgolf ers
Ġgrind s
Ġmar garine
Ġpres ence
Ġpres cription
Ġprofession ally
mb les
Ġ7 5
Ġpat ience
Ġpat ients
Ġret ire
Ġret ail
Ġret ouch
Ġeng aged
Ġtravel s
Ġvis iting
Ġcharacter istic
Ġcharacter istics
Ġstrap less
ons ense
Ġdetail ing
Ġadjust ments
Ġspray s
ey e
yl er
Ġag ility
Ġmat t
ĠSh iraz
ĠUn less
Ġtor till
Ġnut meg
Ġrot ating
Ġsmo ked
Ġstrip per
Ġter ribly
Ġhol iday
Ġcontain ed
Ġsnow board
Ġflex ed
Ġlist ener
Ġcorn meal
Ġinstall ation
light s
Ġaud io
Ġdress es
ĠCl ass
ĠCl imb
ĠEvery one
Ġmom ents
Ġdecor ations
Ġavo iding
Ġterm inology
Ġbab ies
Ġfair way
Ġbro ker
Ġsecure d
Ġorgan ize
Ġchop stick
Ġdrib bles
Ġem ulsion
ĠEx pl
Ġmodel s
Ġvers a
Ġsil ic
Ġrib s
Ġelectric ity
Ġmess ing
ĠAr izona
Ġrece ivers
Ġsell ing
Ġsaw s
Ġpalm ing
Ġprop onent
Ġmeet ings
Ġoption al
Ġmonth ly
Ġequip ped
Ġpast a
Ġpast ry
Ġdrain ed
ĠSp anish
lt ra
Ġhop ing
Ġhop ping
Ġbright en
Ġbright ness
Ġtap ed
Ġtun er
Ġtoss ing
Ġbol ster
Ġrough ly
Ġtrail s
ĠSw itzer
Ġlemon s
Ġsuggest ion
Ġest im
Ġfix ed
ane ous
Ġcol ander
ĠWhere as
Ġguard s
Ġclothes p
arr ing
ida e
ĠEng land
Ġperiod s
Ġperform ing
Ġpub lished
Ġdang ling
Ġautom ob
Ġbid ding
Ġgra ham
Ġwedd ings
Ġrese mbles
Ġident ical
Ġhu nt
Ġpet al
Ġdig est
Ġredu ction
Ġsched uling
Ġsweet ness
Ġtough ness
Ġbor ic
ĠTr ack
ĠTr aining
Ġur n
Ġsport ing
Ġabsor bs
Ġabsor bing
ĠLe ague
Ġremo vable
Ġoper ate
Ġoper ations
Ġoper ates
Ġill usion
Ġdim ensions
Ġnet work
Ġpopular ity
Ġbeat en
Ġtrad emark
Ġenc ounter
Ġ19 8
ĠZ ach
Ġcamp uses
Ġrad i
Ġrad ius
Ġpocket s
ĠGr aden
Ġartist ic
Ġswim s
Ġsyn c
Ġsyn ch
Ġcollect or
Ġge omet
Ġcert ification
Ġtre asure
Ġfem ales
Ġfem inine
Ġeyel ashes
Ġbreed ing
Ġsubject ive
Ġscrub bing
ĠTw in
Ġseason ing
Ġbrid le
ĠRus sel
Ġreplace ment
Ġconcentr ating
Ġmanufacture d
Ġtelesc opes
Ġrect ang
ĠDav idson
Ġarch itect
Ġenter tainment
Ġinsp ires
Ġbic eps
Ġdur ation
Ġjaw fish
Ġdiagon ally
Ġmagn etic
Ġreceive d
ĠAdd itionally
Ġdrug s
Ġbump er
Ġdispl acement
Ġtransition s
Ġsudden ly
IN A
ĠSe lection
ĠAfric a
Ġsold er
Ġnotch ed
Ġdehydr ation
ĠGu ys
Ġacrylic s
Ġcomplic ations
Th en
Ġtact ics
Ġpupp ies
Ġwhip ping
asion ally
ĠAm elia
roll ing
Ġcopy right
Ġintegr ity
ĠPat rick
Ġrefer red
Ġrefere e
Ġrefere nces
Ġexperiment ing
Ġcult ures
Ġpark a
Ġdest ination
Ġisol ate
Ġisol ated
Ġreact ions
Ġadap t
Ġencl osed
Ġscoop s
Ġelev ate
Ġdiamond s
Ġathlet es
Ġhon or
Ġgre et
Ġfra gile
Ġden y
Ġden ial
Ġdiv ide
Ġmul berry
Ġev il
Ġstap le
ĠSqu at
Ġcoord ination
Ġpol ice
ĠMass achuset
ĠCap uchin
ĠCol ubr
Ġcrunch y
Ġcrunch es
Ġvend ing
Ġsurpr ised
Ġdistract ed
Ġrespons ibility
Ġinclud ing
ĠAM A
Ġcock tail
Ġbrain storm
Ġbranch es
Ġblot ting
Ġpeach es
ĠDVD s
Ġunderw ire
Ġdisapp ointed
Ġvisual ize
Ġmicro fiber
Ġterr ain
Ġbroad cast
Ġeffort less
Ġdeliver ing
Ġgeograp hical
Ġerr ors
Ġbehavior al
Ġbound aries
Ġcart on
icy lic
ĠTra vis
ĠTra veling
ĠOff ice
ĠDra gster
Ġrepl acing
Ġelement ary
string ent
Ġagree ment
Ġmagaz ine
Ġcryst als
Ġgrap hite
Ġpap aya
Ġwhisk ers
ĠTe chn
Ġreward ing
ĠSer ies
Ġshel ter
Ġconvers ations
ĠMad ar
ĠFl at
Ġlineback er
Ġminer al
Ġdisp os
Ġinfl amm
Ġparticip ate
Ġsymbol s
Ġven om
Ġaqu atic
Ġsen ile
Ġba iting
Ġcas ual
Ġcoo per
Ġpist ol
Ġpale tte
Ġdise ase
Ġmail box
Ġep isode
Ġstunt s
Ġjud gment
ĠWor ld
ĠCo ach
Ġstrateg y
Ġswamp s
Ġguarant eed
Ġexpand ing
Ġgrand mother
Ġillustr ator
Ġfundament als
Ġtast y
Ġtast es
Ġpers pective
Ġemb ro
ĠSu per
ĠSu khasana
ĠAL EX
ĠAL VIN
Ġenchilad a
Ġunf amiliar
Ġaccording ly
Ġassess ment
Ġintimid ating
Ġtag s
Ġtuc king
Ġtuc ked
Ġwat ered
Ġcrop s
Ġgum s
Ġdoc ument
Ġdoc uments
ĠAc cess
Ġorient ed
Ġorient ation
Ġmos aic
Ġmos quit
Ġchamele on
Ġchamele ons
Ġfrustr ated
Ġfrustr ating
Ġspo ken
Ġpoor ly
Ġconcl udes
ĠMot ocross
Ġarg uments
Ġmanip ulate
Ġcarr ot
Ġcarr ots
Ġreprodu ctions
Ġcomplex ion
Ġphotograph ers
Ġassign ed
Ġfragr ant
Ġdedic ated
lass es
uzz le
Ġsill y
Ġbun ny
Ġply wood
ĠTri angle
Ġultim ately
Ġintest ines
Ġoverp ower
ĠGod dess
Ġbudd y
Ġfilt ration
Ġpurs ue
Ġsubmer ged
Ġslipper y
ĠSha un
ĠClock work
Ġmushroom s
tz ky
Ġtint ed
Ġsizz ling
Ġmac ro
Ġstat us
Ġreinf orce
Ġcoars er
Ġspong es
ĠBow ler
ĠBart on
Ġexh ales
ĠMo ving
ĠFin ish
Ġadmin istr
Ġimper ative
ĠDi abetes
ĠDef initely
ĠGre ys
Ġsmoot her
ĠJones y
ĠRead ing
Ġsauc ers
ĠStand ing
Ġveter inarian
Ġwheelch air
Ġinterp ret
ĠVI P
Ġrefract ometer
Ġaffili ation
Ġillness es
Ġhurric ane
ĠQu ick
Ġsymmetric al
Ġgadget s
Ġsab re
Ġsatis f
Ġwond ered
Ġgarn ish
Ġfenc ing
Ġhairst yle
ĠSky y
Ġrap id
Ġord inary
Ġkneel ing
ĠOcc asionally
Ġintric ate
ĠHar ley
ĠMex ico
ĠCer tain
ĠCont in
Ġstrict ly
Ġpierc ing
Ġcallig rap
Ġcontrib ute
ĠEl bow
ĠEm ily
ĠKe ith
ĠKne es
Ġdistingu ished
Ġsurve y
Ġschem e
Ġconfigur ation
Ġparas ites
Ġtherapeut ic
Ġnegot i
Ġverte bra
Ġtriath lon
Ġpromin ent
Ġrehears als
Ġintellig ent
ĠKryny tzky
Ġpediatric ian
Add ario
EAU X
Ġsals a
Ġbamb oo
Ġhos pit
Ġgour met
Ġloll ipops
Ġmim ic
esthetic ian
Ġearn ed
Ġstub born
ĠThail and
Ġasyn ch
ĠBik ram
ĠBacard i
Ġconvent ional
ĠCock tail
ĠCuenc o
Ġsideburn s
Ġvirt ually
Ġadhes ive
ĠDED EAUX
ĠGretch en
ĠParm esan
ĠJenn ifer
ĠRiv as
ĠChocol ate
ĠFrames i
Ġtortill as
ĠSwitzer land
ĠMassachuset ts
ĠColubr idae
! """
% ,
) ,
3 0
5 3
9 0
9 7
A L
A s
B obby
C H
C I
D o
E M
E GER
F re
F OR
H N
H ER
I D
I M
I S
I n
I t
I KE
K ER
M ON
N ED
P R
T ip
T wo
U LL
W ell
a it
a vel
b ac
b ly
b ro
b read
b its
b rew
b ench
c our
c ook
c otch
d o
d on
d ge
d les
d uty
d alon
e am
f rie
g s
g in
g ard
g ence
g oes
g raph
h h
h i
h on
h ot
h ies
h ony
h ism
i w
i y
i ences
k on
k ers
k lor
k ins
l en
l ength
l ife
l ining
l augh
m at
m ate
m ation
m ans
m ark
m itted
n et
n ate
n ah
n iest
n off
o ir
o ly
o el
o kay
o ise
o vers
p s
p at
p art
p ong
p tion
r ot
r as
r ant
r ig
r ong
r ont
s car
t c
t w
t urn
t end
t ious
t ors
u v
u ble
u be
u ise
v i
v ic
v ant
v ior
v ado
w rap
w ash
w idth
x op
y man
y ote
y sters
z pat
Â ½
Ġ era
Ġt rench
Ġt angle
Ġt ingle
Ġa er
Ġa stringent
Ġa esthetician
Ġth irst
Ġth resh
Ġth ief
in is
in ance
in ity
ou ffee
re al
re ate
re ne
re nce
Ġs ust
Ġs ack
Ġs ister
Ġs entinel
Ġw ob
Ġw estern
Ġw olverine
Ġo om
Ġo int
Ġo val
Ġo olong
Ġo ysters
Ġto w
Ġto pping
Ġto ler
Ġto bac
Ġi cing
Ġb ou
Ġb om
Ġb ill
Ġb od
Ġb erm
Ġb ounces
Ġb anch
Ġb itter
at al
at ra
at urn
er b
er get
er ri
Ġc it
Ġc od
Ġc ul
Ġc um
Ġc iv
Ġc uc
Ġc ycles
Ġc inch
Ġc ycl
Ġh ed
Ġh ick
Ġh itch
Ġh oll
Ġh ike
Ġh oe
Ġh iding
Ġg h
Ġg ust
Ġg ross
Ġg erm
Ġg aze
Ġg icle
Ġp ing
Ġp all
Ġp am
Ġp ud
Ġp ouch
Ġp acing
Ġp aster
Ġp iling
Ġp acked
Ġp orous
Ġp anda
Ġp raise
Ġf ad
Ġf ee
Ġf anc
Ġf ather
Ġf aj
Ġf rench
Ġf erry
Ġd and
Ġd ich
Ġd up
Ġd orm
Ġd anc
Ġd read
Ġd ah
Ġd ues
Ġd uct
Ġd ivid
ll is
ll iot
Ġl b
Ġl y
Ġl am
Ġl ure
Ġl act
Ġl ag
Ġl ash
Ġl oy
Ġl bs
Ġl isting
Ġl asting
Ġl ager
Ġm all
Ġm ate
Ġm and
Ġm ating
Ġm ites
Ġm esh
Ġm ental
Ġm akers
Ġm uzzle
an ked
an ia
an ana
an non
an veen
an nah
it or
it ors
it ary
it ute
it ution
Ġgo d
Ġgo ver
Ġit al
Ġit ÃĤ
en g
en ex
en ns
en ius
on ess
on str
or ate
or ney
ĠI de
Ġin board
Ġin haling
Ġin no
us ions
le ve
le ur
le ft
Ġis op
Ġis land
is c
is able
is ole
is phere
ar a
ar i
ar ate
ve led
et ically
et ics
et era
et ime
Ġn our
Ġn ation
Ġn ape
Ġn arr
Ġn icks
Ġn onsense
Ġn avel
Ġha l
Ġha v
ke l
ic ure
ic ating
ic ia
ic ature
Ġbe ater
Ġbe ating
Ġbe ats
Ġbe aks
ot t
Ġwh ir
Ġwh ose
ed om
ed nes
Ġst ings
Ġst oves
Ġst encil
Ġst aker
Ġst ories
Ġst inger
Ġst agn
all i
all ery
ac o
ac erb
as car
ut ation
ĠT O
ĠT y
ĠT an
ĠT ar
ĠT ip
ĠT ong
ĠT ighten
al g
al ation
al wood
Ġdo se
Ġdo ctors
Ġdo dge
ant ed
ĠS U
ĠS k
ĠS n
ĠS y
ĠS ty
ĠS atur
ĠS OS
ĠS aturn
ĠA ir
ĠA cc
ĠA ustr
Ġr is
Ġr om
Ġr ic
Ġr amp
Ġr ushing
Ġr anch
Ġr hin
ver bal
Ġcan Ã¢
Ġcan cer
Ġcan ola
ĠTh in
Ġj et
Ġj ets
Ġj acked
id ents
ight s
Ġu ne
Ġu ltra
Ġfor cing
se cut
ir an
ir noff
ch a
ch ar
ch ant
ch ief
ion ate
oo ley
ĠSo y
Ġli ver
Ġli king
Ġsh y
Ġsh akes
Ġsh ins
Ġsh oel
Ġk er
Ġk ink
Ġk oh
Ġk iw
Ġk arate
Ġor al
Ġor ang
Ġor nam
ent h
ent ially
st ore
st ress
st ands
st airs
ec e
ec ord
Ġso res
im eters
ro g
ro ic
ro st
ro ved
Ġup d
Ġup s
Ġup set
ee ly
am ass
Ġmo lasses
ĠAnd over
our ce
itt ers
Ġlike d
Ġlike li
Ġout s
Ġab ilities
ĠW ere
ĠW ard
ĠW ave
ĠW omen
ĠW ashing
ĠW onder
ĠW alking
ĠW rong
ĠW ednes
ain ts
od ak
od el
od ged
ĠY ol
ur able
ur ities
ur ray
Ġne op
Ġhe mp
Ġnot icing
il k
il m
il es
il ian
ind rical
Ġal ot
Ġal arm
Ġal gae
ra w
ra ul
ra per
ra vel
ep ts
Ġch a
Ġch i
Ġch ill
Ġch art
Ġch iropract
Ġfr u
Ġfr y
Ġfr yer
Ġfr idge
ct ure
ct ober
Ġle aks
Ġle veled
Ġall ev
ĠN orm
ĠN ord
ĠN ige
ĠN eely
ip es
Ġco ins
Ġco pies
Ġco yote
Ġback field
Ġback cour
Ġsome place
Ġpl acket
Ġpl ugged
op les
op oly
op atra
ĠO scar
ĠO ctober
Ġsp out
Ġsp ent
Ġsp ell
Ġsp ool
Ġsp arring
ers hey
ĠB o
ĠB ook
ĠB atter
ĠB ob
ĠB AN
ĠB ox
ĠB ILL
ĠB OY
ĠB anana
ul k
ul s
ul ative
ul atory
Ġint r
Ġint u
Ġex change
Ġex acerb
Ġpro be
Ġcl ar
Ġcl utter
ort ant
ive d
ive red
Ġthem ed
ap se
qu es
qu art
Ġte aring
mp it
un ter
un ate
un ette
un ias
un icating
Ġpo nd
ess ive
Ġsee k
ine ma
Ġus ers
Ġus age
Ġus ual
ĠWe Ã¢
Ġfl are
Ġfl ock
Ġfl ushing
Ġfl ames
Ġfl ask
ss ing
ss entially
est ones
Ġcon ver
Ġcon vert
Ġcon secut
ĠH I
ĠH it
ĠH igh
ĠH ors
ĠH itting
ĠH aw
ĠH AR
ĠH annah
ĠH ershey
ĠH ulk
ĠH unter
Ġhand ful
Ġhand ker
Ġpre y
Ġpre fers
Ġbit ing
ace let
ig ning
Ġoff ic
Ġover ly
Ġover weight
Ġkind ling
ther n
Ġde lt
ore r
Ġbr ie
Ġbr other
Ġbr uis
Ġbr unette
ĠM S
ĠM as
ĠM atch
ĠM ult
ĠM oon
ĠM aster
ĠM ean
ĠM AN
ĠM ask
ĠM urray
Ġact ing
ĠWh ite
ast r
Ġdiff er
oc ular
oc ado
omet ers
omet imes
ven ue
Ġdr own
Ġdr ier
Ġdr ift
Ġbas il
Ġbl ues
Ġbl oss
Ġbl unt
ĠC r
ĠC ow
ĠC ount
ĠC ons
ĠC reme
ĠC ode
ĠC amel
ĠC IND
ĠC PR
ĠC reate
Ġside wall
Ġside lines
Ġpe oples
Ġv alley
ĠF ood
ĠF old
ĠF el
ĠF air
ĠF ortun
ĠF ollow
Ġad vent
Ġad vert
Ġad mit
Ġimp lements
Ġimp urities
Ġhair y
Ġhair line
Ġher b
ĠL A
ĠL ou
ĠL es
ĠL ust
ĠL ess
ĠL ong
ĠL isting
ĠL aying
ĠL AU
ĠL ucky
ĠD I
ĠD O
ĠD R
ĠD ot
ĠD og
ĠD ian
ĠD utch
ĠD rem
ĠD ooley
Ġwork st
Ġwork bench
ĠG ra
ĠG ard
ĠG ames
ĠG rape
ĠG ulf
ĠG INA
ĠG enius
he et
one lla
xt end
Ġen orm
Ġen zy
Ġen erget
Ġsl im
Ġsl ash
Ġsl ings
Ġsl udge
Ġsl icing
Ġbu gg
Ġfe es
ink s
lor d
ish ment
yp e
Ġsk ips
Ġsk ating
Ġsk imming
ĠThat Ã¢
Ġtop ical
Ġtop ics
Ġsc uff
Ġsc iences
Ġsc raper
Ġsu ited
Ġbo ld
ĠP ar
ĠP ill
ĠP unch
ĠP oss
ĠP arsley
ĠP hill
ĠP AT
ĠP urpose
ĠP enns
ĠP iran
Ġqu o
Ġqu ot
Ġqu il
Ġwater color
Ġimport s
Ġstr ipe
ail or
Ġro asting
Ġgl oom
Ġgl iding
Ġgl utes
ĠIn c
Ġar rest
Ġar rows
Ġar mpit
ens ation
Ġeven ed
Ġcall s
ĠJ K
ĠJ on
ĠJ ul
ĠJ ean
os m
ĠR et
ĠR un
ĠR est
ĠR ud
ĠR ept
ĠR anch
ĠR ecord
Ġturn out
Ġman aged
Ġman goes
Ġsa vior
Ġsa xop
Ġac up
ĠE M
ĠE ar
ĠE qu
ĠE gg
ĠE ug
ĠE tc
ĠE lliot
ĠE ssentially
ĠE xtend
Ġplay back
Ġlong est
Ġsw ish
Ġsw ings
Ġsw ift
Ġsw irls
Ġsw ivel
Ġunder cut
Ġshe en
Ġcar go
Ġcar icature
Ġam ong
Ġgreat er
Ġgreat ly
ans isco
ove red
Ġlight weight
Ġhead st
Ġhead lights
Ġapp arent
Ġapp ears
Ġey ed
Ġpoint y
Ġgr am
Ġgr ades
Ġgr illed
Ġgr ams
Ġcomp os
Ġcomp osition
ions hip
ud ing
Ġfoot ing
Ġfour s
Ġno on
Ġclean ers
du ctors
Ġperson nel
ib ilities
day s
Ġday light
Ġcre ole
Ġdra gging
Ġopen er
Ġhard ened
Ġsec re
ang er
Ġdef l
Ġdef ault
ump tious
ĠK om
ĠK RI
ĠK EN
ĠK aren
ĠK athy
ĠK odak
ĠAs ian
Ġed dy
ath ers
Ġser ver
Ġhapp ier
ĠSt ra
ĠSt ate
Ġrep orter
Ġrep ainted
ign on
ange as
amp oo
Ġbuy s
Ġcard iac
Ġprodu ces
Ġprodu cing
Ġreal ized
Ġcr it
Ġcr ad
Ġrec over
Ġrec eption
Ġrec overing
Ġrec overy
Ġrec ipes
Ġres c
Ġres ort
Ġres erv
Ġres upply
Ġres ource
ĠLet Ã¢
Ġun s
Ġun its
Ġun att
Ġun weight
Ġun lim
Ġun lock
Ġun ravel
Ġsqu ad
Ġsqu eam
Ġsit es
ĠU nder
ĠU dd
Ġpract ically
Ġpract iced
Ġob s
Ġob tain
Ġinst ances
Ġnum b
Ġexp ose
Ġexp ense
Ġdec ay
ress ed
Ġsecond ary
Ġdes cent
Ġdes ert
Ġrel iable
Ġnew born
Ġatt itude
Ġatt orney
Ġim bal
Ġsur g
Ġsur geon
Ġfull ness
Ġear rings
Ġpic adill
Ġproduct ive
Ġkne ad
Ġkne ading
Ġsn aps
Ġele ph
Ġhor r
Ġhor ns
Ġmus ical
Ġmus co
wh ich
Ġkick er
vent ion
Ġ3 00
Ġ3 60
Ġreg ion
Ġreg row
Ġreg ions
Ġreg ister
Ġpick et
anc isco
Ġpot s
Ġneck s
gg ling
Ġdet angle
str uct
Ġbag ging
Ġbag gy
cle an
Ġsupp lied
Ġtight ly
Ġtight ness
Ġbeg an
ograp hy
ograp hical
ord ers
Ġwood s
Ġrest room
Ġreason able
Ġinter val
Ġdefin ing
Ġwax es
Ġmil itary
Ġmark ets
Ġprocess or
Ġprocess ed
ĠCh i
ĠCh op
ĠCh arm
ĠCh oosing
ĠCh osen
chn app
Ġacc ep
Ġacc ents
Ġacc idents
Ġbreak er
Ġbreak age
Ġbreak outs
Ġmot or
Ġrid es
ĠHe arts
ffect ive
Ġdepend ent
ĠV anveen
Ġpin ned
Ġcomb ined
Ġblack s
umb ers
Ġcoll apse
Ġmed al
Ġmed ial
Ġtrain s
Ġprot rud
Ġwatch es
Ġspr out
Ġdisc ard
Ġdisc ount
Ġtable au
Ġdi vers
Ġdi agn
Ġdi apers
Ġfire s
Ġent ree
Ġent ering
Ġdark s
Ġform ing
Ġform ula
Ġdesign ate
Ġmilk y
Ġlove ly
Ġblock ers
Ġsurf ing
ah a
Ġfree zes
Ġdist ort
Ġdist ances
Ġlength s
Ġred s
Ġiron ing
Ġpost ed
Ġtip ping
Ġcook s
Ġhook ah
Ġbra king
Ġbra iding
Ġbutton hole
Ġcomm itted
Ġheav ily
Ġ4 8
Ġshort ly
Ġfinger p
Ġfinger print
Ġgar bage
Ġste er
Ġste ering
Ġav ocado
Ġtemp ered
Ġfold er
ĠDo ing
Ġround worms
Ġtrans fers
Ġtrans parent
Ġclos ure
gr ip
Ġfoc al
Ġlo ft
Ġlo be
Ġchar ged
Ġsun flow
Ġstro king
Ġmon oxide
Ġins ulate
Ġins ulated
Ġcond uct
Ġcond ensation
Ġmatch stick
bo ssing
Ġcap s
Ġcap able
Ġcap ture
Ġcap abilities
Ġcontin ually
Ġcontin ues
Ġrelax er
Ġrelax es
Ġspeed s
Ġsing les
Ġsoft ened
ters cotch
Ġsle nder
Ġpower ing
Ġmind s
Ġoppos ing
Ġap h
Ġap ron
Ġbat hing
Ġgener ic
Ġfore ver
Ġsol ve
Ġsol ids
ĠDon Ã¢
Ġart work
ium s
Ġnight s
Ġconf orm
Ġconf ront
Ġfur ry
Ġhoop s
Ġgard ens
Ġgard ener
Ġmatter s
Ġcam isole
Ġport als
Ġclim ates
Ġwide ly
ĠFr ancisco
Ġprotect ant
Ġprotect ive
Ġsign al
Ġsign aling
Ġgroup ed
Ġpour s
Ġpour ing
Ġfre edom
ĠWith out
Ġinform ative
Ġsub way
imm ers
Ġscr ipt
Ġexpl an
Ġant icip
Ġlead ed
Ġteach es
Ġimpro ves
Ġcal ories
Ġknot ted
Ġadv isable
Ġfo iled
ĠBr ayer
ĠBr acelet
Ġsteam ed
aw s
com ing
com pet
Ġfig uring
Ġmar in
Ġmar ine
Ġpres er
Ġpres ents
Ġpres erv
Ġpres erve
Ġprofession als
Ġbul k
Ġpat io
Ġret ention
Ġret ract
ys is
olog ist
Ġelect rology
Ġcra ze
Ġmouth piec
Ġaccess orize
Ġcharacter s
cl oth
Ġrout es
Ġjo ke
Ġval ues
Ġscore s
Ġlips lide
Ġthird s
Ġupper cut
Ġmoist en
Ġskill et
Ġcream s
Ġcream ed
Ġpack s
Ġpack aging
Ġsharp ener
Ġadjust ed
Ġsciss oring
Ġpersonal ities
Ġmat ted
ĠSh rimp
ĠSh annon
ĠSh ampoo
Ġass ume
Ġass uming
Ġflavor ful
au x
Ġlock er
Ġmic rop
Ġrot or
Ġrot ates
Ġrot ator
Ġchocol ates
Ġstrip pers
Ġsitu ated
Ġpen ny
Ġlin ers
Ġland lord
Ġflash y
Ġflex ors
Ġlist ed
Ġshr ub
Ġshr ivel
Ġwonder ing
Ġing est
Ġyard age
sel s
aj amas
Ġexc eption
Ġexc uses
ĠAmeric ans
Ġliqu ids
Ġorgan izing
Ġorgan ism
Ġmold y
Ġmold ing
ĠRe lease
Ġsimilar ly
Ġdish w
Ġem ulate
Ġem bossing
Ġdead lines
ĠEx am
ĠEx act
Ġcirc um
Ġcirc ling
Ġcirc ulatory
Ġlog os
sh ip
Ġrib bing
Ġfilter ing
Ġelectric ian
Ġmess ed
Ġmount ed
ĠAr my
Ġyellow head
Ġrece iving
ĠSee ing
Ġsell s
Ġsaw ing
Ġcounter act
Ġdial ing
Ġprop el
Ġstandard s
Ġconsist s
br uary
work er
Ġbath ed
Ġpast el
Ġshad ing
Ġang ling
Ġspring time
Ġsalt water
Ġenvironment ally
Ġdust ing
Ġdent ures
ĠSp in
ĠSp ark
ĠSp eed
Ġapplic able
hand ed
Ġgift s
Ġmust ard
Ġoutf ield
Ġsuc ked
Ġpossib ility
medi ated
Ġmiss ion
Ġskirt s
Ġphone book
Ġattack s
Ġbur gund
oof y
Ġshamp oos
Ġspark ler
Ġspark lers
Ġvol ts
Ġmarket ing
Ġpeel s
Ġpeel er
Ġfight er
Ġcol um
Ġcol ony
Ġexcess ive
Ġguard ing
Ġrecord ing
Ġsens es
Ġsens or
Ġham string
Ġtexture s
Ġconcer t
Ġsuit case
Ġperiod ically
Ġinstr uction
Ġperform ances
Ġdeterm ines
Ġwidth s
Ġhum ming
Ġdang ers
Ġpurch ased
Ġshampoo ing
Ġtu gging
Ġgra pp
Ġrese ll
Ġrese mble
Ġcrack ers
Ġincorpor ating
Ġincorpor ates
Ġpresent ation
iber ately
Ġdig ging
Ġeff leur
Ġchallen ges
Ġdel ivered
Ġdel iberately
ĠPut ting
Ġsweep ing
Ġexpert ise
rel ated
ĠTr ust
ĠTr ad
ĠTr acy
Ġtele graph
Ġflo ors
Ġseal ing
Ġcontr acting
Ġ18 00
Ġabsor ption
Ġhydr angeas
Ġgro in
Ġflush ed
ĠLe ave
Ġaccount ing
ĠAmerican o
Ġoccur red
Ġaffect ed
Ġhur ry
Ġcurl s
dom inant
sp in
Ġlate x
Ġliter acy
ĠAct ors
Ġund ulation
Ġplug s
Ġintrodu ced
Ġconc epts
Ġprice y
Ġenc our
Ġletter ing
Ġ19 97
Ġcommunic ating
Ġet ouffee
Ġnote book
ĠGr ace
ĠGr iffin
ĠPl astic
ĠPl acing
Ġcontract ion
Ġacne ic
Ġmotorc ycling
Ġtrop hies
Ġped als
Ġpill ows
Ġmud dy
Ġoutd ated
Ġprefer ably
ffe inated
ĠKn ight
Ġopportun ities
Ġcollect ible
Ġcollect ibles
Ġaudition ing
Ġturt les
Ġturt len
Ġgain ing
Ġexfoli ation
Ġclamp s
Ġcert ificate
Ġleaf s
Ġantib ody
Ġantib iot
Ġbudget ing
ram s
Ġtack s
Ġtack les
Ġfile ts
Ġlat est
Ġlat he
Ġinit ially
ĠAb solute
ĠBl ue
Ġstruct ures
Ġstruct ural
Ġgrad ed
Ġindic ation
Ġindic ated
Ġcontinu ed
Ġnutr ition
Ġnarrow s
Ġstem s
ĠSc ott
Ġdram atically
Ġvo ila
Ġperman ently
Ġeduc ate
Ġconcentr ation
go ing
Ġer up
Ġir ides
Ġir rig
Ġlad der
Ġconstr uct
Ġshell s
ĠStart ing
Ġcheap est
Ġenter taining
Ġinsp ection
Ġinsp iration
ylv ania
col ored
Ġtur bine
Ġdur ability
Ġprog ressive
Ġmagn ifying
Ġhill s
Ġhill top
Ġfle ece
Ġlic enses
Ġlab or
Ġlaw yer
Ġshift s
Ġspir al
Ġspir als
ĠHold ing
Ġfrequ ency
Ġfrequ encies
shirt s
Ġneutral ize
Ġpivot ing
Ġbind ings
Ġdy e
ĠSe as
ĠSan ctuary
Ġsha ving
Ġanch ored
Ġcham omile
Ġspill ed
ĠGu y
Ġsymp hony
Ġpinch ing
Ġdistrib ut
Ġdistrib ute
Ġdistrib uted
Th at
Ġtact ic
Ġtact ical
Ġpupp et
Ġstabil ize
ĠApp le
Ġru gged
ĠPress ing
Ġcrank y
Ġsurv ival
Ġbehav iors
Ġincre ments
Ġpadd ed
Ġpadd les
Ġreflect s
Ġfingert ip
Ġidentify ing
Ġsummer time
rit ers
Ġcult ural
Ġfol ic
Ġfol klor
Ġanal ysis
ĠBack wards
Ġballoon s
ĠDe Fre
ĠPe acock
ĠJan et
ĠJan ice
ĠJan uary
Ġchew ing
Ġfrost ed
Ġabsorb ent
Ġtreadmill s
HE N
rac ial
Ġgather ing
Ġdiv is
Ġmug s
ett es
Ġev ol
Ġev idence
Ġstap les
Ġstiff ness
Ġcoach es
Ġcoord inator
Ġcoarse ly
Ġpol itical
ĠHome brew
Ġprefere nces
ĠCol or
ĠCol ors
Ġprior ity
Ġscrap book
Ġquiet ly
ĠJO HN
ĠRob ot
Ġcarbon ation
Ġsurpr ises
Ġearth y
Ġdistract ion
Ġmonit ors
Ġapproxim ate
Ġrespons ibilities
Ġefficient ly
Ġcabin ets
Ġdisplay ing
Ġwarrant ies
Ġsus pect
Ġhi king
Ġfuel s
ĠSm all
ĠSm irnoff
Ġsex ual
Ġsevent een
ĠCle opatra
Ġprom ise
ĠPer haps
Ġdefend ing
Ġdefend ers
Ġlubric ant
Ġlubric ates
Ġtox ins
Ġbound s
Ġcart oon
ĠInd ians
ĠImp ortant
ĠTra il
ĠWill iam
Ġhem isphere
ĠHand yman
Ġbloom s
Ġfear ful
Ġskip ped
Ġquad ric
Ġrepl en
Ġrepl aced
Ġresid ency
Ġrespect ful
Ġindepend ently
Ġparr ot
Ġ0 11
Ġtumb lers
Ġboo st
Ġboo ster
Ġboo sters
Ġpap ers
Ġlust ing
asm ine
Ġtruck s
Ġexam ine
Ġclump ing
Ġprec aut
Ġbron ze
ĠMad dalon
Ġpel vic
Ġbuff ing
Ġbuff er
Ġbuff alo
ĠRes cue
ĠEn joy
Ġdisp osition
Ġimmun ization
Ġconsum ing
Ġexperi ences
Ġhyd raul
Ġprinc iple
ĠCanad a
Ġemploy er
ĠEurop ean
Ġsymbol ic
RI CI
The y
Ġax les
Ġsen cha
Ġodd ly
Ġcas ino
Ġhood s
Ġpure ly
Ġpist on
Ġlump s
Ġmur als
Ġwhit en
Ġrender ing
ĠAd obe
Ġjud ges
Ġwilling ness
Ġtrimm ers
Ġflaming osis
Ġsequ ences
ĠCo ast
ĠComp ass
ĠComp any
ĠFe bruary
Ġroast ed
Ġemot ional
Ġrespond ing
Ġhonest ly
ST RY
Ġcyl indrical
Ġhorm ones
Ġweap ons
Ġchap ter
ĠGerm any
Ġfeather ing
Ġskull s
Ġconte mp
ĠKle enex
Ġunf old
Ġindirect ly
box ing
Ġneighbor hood
Ġintimid ate
Ġtut oring
Ġwat ers
Ġgrape vine
Ġpy th
Ġpleas ing
Ġpleas urable
Ġfarm ers
Ġmer id
Ġmath em
ĠIg E
ĠIg G
Ġann uity
ĠWind ows
Ġalt itude
ĠDa isy
Ġoverlap ping
ĠDraw ing
Ġdumbbell s
Ġdedic ate
Ġwatt age
Ġban anas
Ġpup il
Ġpup ils
Ġfool ish
Ġster ile
Ġstack ing
ĠSlow ly
Ġshout ing
Ġchron ic
Ġchron icle
Ġchannel s
Ġexec ute
Ġpoly mer
Ġoverp roduction
ĠMor se
ĠMix ed
Ġvac u
Ġrob ot
Ġgrill ing
Ġstrand ed
Ġdrawback s
Ġattract ed
Ġregard less
Ġfilt ered
Ġinvest ment
Ġsubmer ge
Ġimprovis ation
Ġcelebr ate
Ġfrog s
Ġnavig ate
Ġnavig ation
Ġforgot ten
Ġmaneuver ing
Ġtang les
Ġskew ers
Ġcrow d
Ġcape let
Ġfet lock
Ġfault s
acc oon
ĠTen nis
Ġran king
Ġrang es
Ġrins ing
Ġfort unate
Ġlif etime
Ġcogn ition
Ġknuck le
Ġknuck les
Ġspect rum
Ġclog ged
ĠComm unicating
ĠFre ya
ĠFit ness
ĠFit zpat
Ġadequ ate
Ġadequ ately
Ġprun ing
Ġprun er
Ġscen es
Ġscient ific
ĠRach el
ĠRach ael
Ġdissol ved
Ġreflex ology
Ġportra it
Ġportra its
Ġsubst ance
Ġscram bling
Ġexplod ing
ĠShould er
Ġorganiz ations
Ġorganiz ational
Ġetc etera
Ġcontinuous ly
ĠImpro v
Ġpearl s
ĠRichard son
ĠBudd ha
ĠBudd hism
Ġattemp t
crib ed
Ġign ore
Ġbin ocular
Ġfid get
Ġfec al
ĠIm ag
Ġinh ib
Ġrele ases
ĠSar ah
Ġmob ber
Ġabr asive
Ġchis el
Ġspind les
ĠBand ha
ĠBub bles
ĠBoy d
Ġclin ical
Ġcloud s
Ġfluff y
Ġcongest ion
ĠMA STRY
ĠCool er
ĠLind a
ĠDem onstr
ĠGold en
ĠPort al
ĠJo in
Ġcontam inate
Ġremind ers
Ġamate ur
Ġgras p
Ġcrush ed
Ġcrump le
Ġcruis er
Ġrelie ving
Ġbehave d
Ġcupc akes
Ġdiscip line
Ġdisconn ect
Ġdiscolor ation
Ġcommit ment
Ġinser ted
Ġweeke nd
Ġpenet rate
Ġrespir atory
Ġ197 2
Ġgymn astics
ĠScr ub
Ġgraphic s
Ġshimmer y
Ġevalu ating
Ġfertil izer
biot ic
Ġsac rum
Ġsip hon
Ġyog urt
Ġbush es
Ġcere al
Ġcaut ious
Ġfres her
Ġdrap ed
Ġgoog le
orph in
Ġine ffective
Ġnic est
Ġwhist le
Ġliber al
ĠWar rior
ĠWild life
Ġalph abet
Ġchrom ium
Ġfroth y
ĠOm aha
ĠBreat he
ĠWeb ster
ĠMon opoly
ĠMag az
ĠCos metics
ĠCert ified
ĠFed eral
ĠGe orge
ĠIncl uding
Ġarter ial
Ġwrit ers
ĠKey a
Ġdisl odged
Ġcrumb s
Ġrecept acle
Ġunn ecess
Ġexpans ion
Ġdetriment al
ĠVer de
Ġtraum atic
Ġdiagram matic
Ġtempl ates
Ġconfir mation
Ġparag raph
Ġchopstick s
Ġautomob ile
Ġgeomet ry
Ġadapt able
Ġinflamm ation
Ġembro ider
Ġinterpret ation
FOR D
MON IE
NED Y
iy ana
Ġthresh old
Ġsust ain
Ġwob bly
Ġoom ph
Ġoint ment
Ġtoler ate
Ġtobac co
Ġbanch a
Ġciv il
Ġcuc umbers
Ġhed ge
Ġhick ory
Ġholl er
Ġgicle e
Ġpall et
Ġpam per
Ġpaster n
Ġfanc ier
Ġdand y
Ġdich roic
Ġdivid ed
Ġital ic
Ġisop ropyl
Ġnarr ative
Ġstagn ant
ĠTong ue
ĠSty le
ĠAcc ount
Ġrhin estones
Ġune ven
Ġkoh l
Ġkiw i
Ġlikeli hood
ĠWashing ton
ĠWednes day
ĠYol anda
Ġneop rene
Ġallev iate
ĠNorm ally
ĠNord ic
ĠNige l
Ġbackcour t
ĠBatter ies
ĠBAN FORD
ĠBOY E
Ġconsecut ive
ĠHaw ai
ĠHAR MONIE
Ġhandker chief
Ġbrie fly
ĠMult iple
ĠMean ing
Ġbloss om
ĠCount ry
ĠCIND Y
ĠFel icia
ĠFortun ately
ĠLAU RA
ĠDrem el
ĠGrape vine
Ġenorm ous
Ġenzy me
Ġenerget ic
Ġbugg y
ĠPoss um
ĠPAT RICI
ĠPenns ylvania
Ġgloom y
ĠRud y
ĠRept ile
Ġsaxop hone
ĠEug ene
ĠKRI EGER
ĠKEN NEDY
Ġreserv oir
Ġunlim ited
Ġsqueam ish
ĠUdd iyana
Ġpicadill o
Ġeleph ant
Ġmusco vado
chnapp s
Ġprotrud es
Ġfingerprint s
Ġsunflow ers
compet itive
Ġmouthpiec es
Ġburgund y
Ġeffleur age
Ġturtlen eck
Ġirrig ation
Ġfolklor ic
ĠDeFre itas
ĠMaddalon i
Ġhydraul ic
ĠFitzpat rick
ĠPATRICI A
! "
) ;
. )
1 0
1 2
1 3
1 5
1 6
5 5
6 3
7 7
? ""
A D
A V
A Y
A l
A LL
B E
B L
B l
B ay
B ecause
B AR
C A
C an
C le
C ER
C KER
C ULL
D on
D ol
E T
E Z
E r
E qu
F D
F or
G H
G e
H i
H ave
H ik
H AM
H IM
I R
I CH
I BL
J ust
L e
L et
L aw
L ean
L IN
L OC
M X
N C
N o
N IBL
O VE
P A
P od
P ST
P PA
S A
S t
S OU
S pace
T A
T E
T win
T ube
V P
V era
W ould
X ON
Y N
Y eah
a us
a ust
a gain
a way
a unch
a uc
a ques
b t
b us
b as
b ore
b ail
b el
b os
b ones
b we
b low
b ett
b irds
c re
c ard
c ore
c ond
c ases
c asting
c ounter
c ogen
d es
d ent
d est
d ish
d ock
d ale
d ier
d rop
d ress
d oor
d ah
d ouble
d ict
e a
e al
e ak
e ath
e ared
e enth
f s
f ight
f ree
f ord
f rench
f ections
f ox
f illed
f idence
g as
g al
g ent
g ers
g les
g ered
g ium
h o
h u
h ake
h ome
h air
h oe
h att
h ops
h adow
h oles
i ere
i ant
i id
i very
i ore
i ety
i ker
j ing
k ind
k ish
l in
l ot
l ower
l ily
l ob
l aces
l ands
l asting
l ker
l ime
m om
m ic
m all
m ith
m id
m ake
m ers
m aking
m os
m ary
m ets
m akers
m onella
n n
n in
n ant
n ment
n orm
n gr
n ails
n ett
n acle
n atal
o ar
o ice
p u
p id
p erson
p ost
p ony
p roduction
r in
r id
r ad
r iting
r idge
s er
s or
s ay
s cent
s kin
s ometimes
t in
t is
t ight
t ip
t reat
t one
t ock
t ub
t ically
t ype
u k
u x
u ish
u ous
u rop
u cer
u asive
v y
v ill
v ol
v ie
v ier
v ature
v ignon
w ee
w ill
w ind
w he
w orm
w elling
w riters
w riting
x ic
x ious
y h
y ramid
y llo
z ed
z oy
z ym
z ky
Â ©
Ã ĥ
Ġt v
Ġt ing
Ġt ep
Ġt ig
Ġt ies
Ġt roup
Ġt ying
Ġt umble
Ġa str
Ġa ug
Ġa ustin
Ġa ero
Ġa ha
Ġa hh
Ġa leve
Ġth rew
Ġth orn
in side
in arily
ou ple
ou ettes
re c
re z
re ed
re ally
re ly
re ach
re nder
re ens
re tion
Ġthe ore
Ġthe rab
Ġs in
Ġs ar
Ġs igh
Ġs ate
Ġs way
Ġs age
Ġs ieve
Ġs izing
Ġs oul
Ġs ifter
Ġs igning
Ġs chnapps
Ġw ow
Ġw id
Ġw ick
Ġw ont
Ġw arp
Ġw arning
Ġw anna
Ġo re
Ġo at
Ġto ning
Ġto pped
Ġi od
Ġi dle
Ġi Pod
ing ers
ing les
Ġb is
Ġb ak
Ġb atch
Ġb ale
Ġb ib
Ġb ows
Ġb aker
Ġb ony
Ġb itten
Ġb ias
Ġb reeze
Ġb ounced
at y
at ar
at ere
at ec
er ad
er ical
er ts
er ior
Ġc d
Ġc us
Ġc ows
Ġc ider
Ġc asing
Ġc yan
Ġc inema
Ġh ind
Ġh one
Ġh ock
Ġh eck
Ġh oof
Ġh ired
Ġh oses
Ġh iring
Ġh ulking
Ġg in
Ġg ou
Ġg ut
Ġg al
Ġg ly
Ġg ig
Ġg imb
Ġg ills
Ġg allery
Ġg iant
Ġp or
Ġp out
Ġp ith
Ġp ir
Ġp um
Ġp eck
Ġp oop
Ġp lea
Ġp roud
Ġp ajamas
Ġp oofy
Ġf as
Ġf oo
Ġf itt
Ġf ans
Ġf ade
Ġf av
Ġf ats
Ġf uss
Ġf ades
Ġf oli
Ġf ails
Ġf aced
Ġf etch
Ġf uzz
Ġf aux
Ġf auc
Ġd il
Ġd ies
Ġd air
Ġd ated
Ġd arn
Ġd ual
Ġd ices
Ġd agger
Ġd immers
Ġd welling
ll as
ll ip
ll ite
ll ustr
Ġl it
Ġl ith
Ġl ake
Ġl ect
Ġl akes
Ġl ug
Ġl ids
Ġl acing
Ġl icking
Ġl isp
Ġl acqu
Ġm l
Ġm ere
Ġm am
Ġm ens
Ġm ound
Ġm unch
Ġm ike
Ġm astic
Ġm irl
Ġm au
Ġm isting
Ġm uted
Ġm ommy
an asana
it a
it am
it ious
it ated
it ating
it ian
it ics
it ley
Ġgo ose
Ġgo ble
Ġgo wn
Ġgo bos
Ġit ch
Ġit iner
es ter
es hy
es ides
es sels
en ry
en ger
on ic
on ate
on na
on omy
or ie
or ical
or ative
or ters
or geous
ĠI ron
ĠI AN
ĠI llustr
Ġthat s
Ġin here
Ġin active
ow y
us ic
us ual
us chet
le nd
le ted
le phone
le vation
is ms
is ual
is ept
is py
ar on
ar ke
ar per
ar ry
ar ga
ve e
ve yard
ve rely
et a
et i
et ter
et one
om a
om ical
om iting
om bie
om ona
Ġn u
Ġn er
Ġn or
Ġn od
Ġn ines
Ġn aps
Ġn ets
Ġn atives
Ġn itrogen
Ġn aked
Ġn erves
Ġha ul
Ġha ss
Ġha lt
Ġha unt
Ġha bits
ke nds
Ġon going
ic an
ic ide
ic ate
ic ians
ic ola
Ġbe es
Ġbe am
Ġbe ige
ot ic
ot ate
ot he
ot ton
ot ony
ot tle
ot ta
ot eno
Ġwh oo
Ġwh il
Ġwh irl
Ġwh oles
Ġwe ave
Ġwe aving
Ġwe arer
ed ges
ed ona
ay ed
ay ers
ay french
Ġe ater
Ġe go
Ġe ager
Ġe Bay
Ġe llip
Ġst all
Ġst ere
Ġst ad
Ġst ink
Ġst ood
Ġst up
Ġst ager
ac ular
ac ram
ac itor
as er
as eline
ut o
ut z
ut ing
ut ier
ut to
ut ura
ut Ãĥ
ĠT oo
ĠT our
ĠT ort
ĠT ap
ĠT un
ĠT est
ĠT ig
ĠT iff
ĠT ol
ĠT ank
ĠT ues
ĠT ina
ĠT ai
ĠT icks
ĠT yler
ĠT ailor
Ġre qu
Ġre per
Ġre wards
Ġre vis
Ġre els
Ġre hydr
Ġre used
Ġre char
Ġre venue
al a
al m
al t
al ach
al ity
al ia
al cohol
al van
Ġdo lp
ant hus
ĠS F
ĠS T
ĠS it
ĠS ir
ĠS ally
ĠS ure
ĠS ort
ĠS her
ĠS ush
ĠS el
ĠS ix
ĠS ub
ĠS itting
ĠS ri
ĠS pl
ĠS au
ĠS epar
ĠS pray
ĠS yn
ĠS entinel
ĠS HAN
ĠS oma
ĠS edona
ĠS acram
ĠA C
ĠA id
ĠA nt
ĠA qu
ĠA rab
ĠA ces
ĠA dr
ĠA ging
ĠA ura
ĠA ND
ĠA TC
ĠA part
ĠA VP
ĠA aron
Ġr age
Ġr av
Ġr ips
Ġr ated
Ġr ising
Ġr ico
Ġr accoon
Ġcan ine
Ġcan ister
ĠTh us
ĠTh rough
ĠTh ough
ĠTh ird
ĠTh ru
ĠTh urs
Ġj oh
Ġj azz
Ġj asmine
Ġj ayfrench
Ġare na
id y
id erm
ight ly
Ġfor ks
Ġfor aging
Ġwith ers
se e
se qu
se lor
se ize
se mble
se cond
se vier
ch o
ch er
ch ed
ch eck
ch ants
ch lea
ly ing
oo re
oo ve
ĠSo on
Ġli g
Ġli es
Ġli fter
Ġli mb
Ġli br
Ġli vest
Ġsh all
Ġsh uff
Ġsh aker
Ġsh roud
Ġsh ifter
Ġsh ingles
Ġsh arper
Ġan em
Ġk iss
Ġk iting
ad em
ad ies
ad oes
ad uate
ad emy
ad iol
ad vant
Ġor c
Ġor ders
Ġor nate
ent o
ent ed
ent ies
ent ial
st art
st able
st ud
st ery
st ances
st ories
st rology
st alg
ec ue
ec ifically
ome chan
Ġso f
Ġso les
Ġso aking
Ġso aks
Ġso aked
Ġso othe
im al
im age
im per
im ble
im sy
ro s
ro x
ro it
ro ly
ro cket
Ġup stream
ee zing
am i
am ari
Ġmo hee
ill ary
our aged
Ġout stand
Ġout come
th a
th ous
th etically
Ġab d
Ġab use
Ġab and
Ġab ductors
Ġab norm
ĠW all
ĠW ater
ĠW ood
ĠW arm
ĠW ats
ĠW ord
ĠW ork
ĠW ait
ĠW alt
ĠW imble
ain e
od o
od es
od ed
od ge
od ate
od ized
ĠY um
ur ger
ur ban
ur gence
Ġne on
Ġne bul
Ġhe ater
Ġhe most
Ġhe irl
Ġhe aven
Ġlitt ers
Ġnot ify
il ip
il ation
il ical
Ġwhat so
Ġwhat not
ind y
ĠYou Tube
Ġal way
Ġal ien
ra h
ra ils
ra ham
ep hy
Ġthere Ã¢
Ġthere by
Ġch ants
Ġch ina
Ġch aff
Ġch illed
Ġch ills
Ġfr own
Ġfr ig
Ġfr anch
Ġfr ying
ct ory
Ġle ase
Ġle verage
Ġle ague
Ġmake over
Ġall oy
Ġall ey
Ġat tain
Ġat mos
ĠN O
ĠN ail
ĠN ature
ĠN ative
ĠN ancy
ĠN AT
ĠN OR
ĠN utt
ide mic
ard onn
ip her
ip per
ip ping
if ty
if old
if iore
Ġco in
Ġco qu
Ġco ast
Ġco iling
Ġco aching
Ġco ils
Ġco bwe
Ġco chlea
Ġback er
Ġback up
Ġback rest
Ġback fl
Ġback hoe
Ġpl ow
Ġpl ans
Ġpl aques
op h
op en
ge es
Ġbut terscotch
Ġkn itting
Ġkn ocking
ĠO S
ĠO il
ĠO bs
ĠO me
ĠO oh
ĠO thers
ĠO wner
ĠO lymp
ĠO tis
Ġsp an
Ġsp it
Ġsp ines
Ġsp astic
Ġsp ices
Ġsp aring
Ġsp raw
Ġsp rocket
Ġtr out
Ġtr ial
Ġtr ib
Ġtr ips
Ġtr ump
ĠB ro
ĠB ee
ĠB un
ĠB ull
ĠB ush
ĠB rew
ĠB OS
ĠB EN
ĠB OU
ĠB ibles
ĠB RY
ĠB irds
ĠB MX
ĠB esides
ul ent
ul ter
ul ner
ul ates
Ġright s
Ġint ensive
Ġdown s
Ġdown side
Ġdown stairs
ab i
ab st
ab iner
ab orate
Ġex cl
Ġex ceed
Ġex cel
Ġex agger
Ġpro cl
Ġpro xim
Ġcl iff
Ġcl ue
Ġcl erk
Ġcl aim
Ġcl utt
Ġcl aws
Ġour s
Ġour self
nt ly
nt il
qu et
Ġte ch
Ġte ase
Ġte ars
ick y
mp h
un ro
un cture
Ġwor m
Ġwor ries
so red
Ġpo ke
Ġpo king
Ġpo lic
Ġpo kes
Ġpo ison
ine ll
Ġtw eak
Ġme ga
Ġme nding
ĠWe ather
ĠWe lker
Ġfl ore
Ġfl air
Ġfl ips
Ġfl ange
Ġfl aw
Ġfl ared
Ġfl aky
Ġfl amm
Ġfl utes
Ġfl anked
Ġfl eshy
Ġfl imsy
Ġany ways
Ġinto xic
est a
est ing
est ation
est ors
Ġcon verse
ĠH ot
ĠH as
ĠH ill
ĠH op
ĠH oop
ĠH ence
ĠH ouse
ĠH oney
ĠH iding
ĠH enry
Ġhand writing
Ġhand rails
Ġpre re
Ġpre view
Ġpre vision
Ġpre lim
Ġpre heat
Ġpre wash
Ġpre dict
Ġpre natal
Ġgood ies
Ġgood ness
ig orous
ig lass
ig gles
Ġoff ices
Ġover st
Ġover hand
Ġover cook
Ġover turn
Ġover whe
Ġse es
Ġse verely
ation ally
Ġlot us
Ġkind ness
Ġstart ers
Ġde als
ect s
and el
Ġbr ide
Ġbr ick
Ġbr ist
Ġbr ood
Ġbr uschet
Ġbr ayers
ĠM in
ĠM all
ĠM al
ĠM ill
ĠM od
ĠM ast
ĠM uch
ĠM em
ĠM ont
ĠM akes
ĠM iss
ĠM ary
ĠM ajor
ĠM ites
ĠM alo
ĠM ilk
ĠM usic
ĠM unro
ist y
ist ent
ist ry
ist ically
ist ency
ich a
ich e
ĠWh o
ĠWh itley
Ġtwo s
ast o
um ination
um ming
Ġdiff user
oc al
oc ate
oc can
lf rie
Ġdr oop
Ġdr izz
Ġdr ivers
ak able
Ġbl own
Ġbl and
Ġbl onder
Ġbl ocked
Ġbl inks
ol stery
ĠC O
ĠC ut
ĠC ir
ĠC ard
ĠC ab
ĠC reat
ĠC up
ĠC ost
ĠC red
ĠC ats
ĠC ole
ĠC ren
ĠC ustom
ĠC arr
ĠC alf
ĠC off
ĠC onn
ĠC amas
ĠC amass
ĠC ouple
ĠC otton
ĠC indy
ĠC asto
ite le
ull ed
Ġpe as
Ġpe ers
Ġpe aks
Ġv ir
Ġv ines
Ġv ents
Ġv essels
Ġv omiting
Ġv ulner
Ġv igorous
Ġv ocal
ĠF ly
ĠF ine
ĠF ull
ĠF ines
ĠF usion
ĠF arms
ĠF isher
ĠF ilm
ĠF utura
Ġball et
ach ed
ach ute
Ġpart ially
Ġad s
Ġad or
Ġad ulter
Ġimp ed
Ġimp art
Ġimp lies
Ġimp ressive
Ġimp ersonal
Ġhair cut
Ġpr iced
ĠL as
ĠL ee
ĠL ine
ĠL ud
ĠL ips
ĠL ank
ĠL ands
ĠL aw
ĠL uc
ĠL itter
ĠL CD
ĠL ino
ĠL arge
ĠL isa
ĠL IKE
ĠL OVE
ĠL arry
ĠL edges
ĠL utz
ĠL adies
em er
em ies
ĠD en
ĠD is
ĠD ame
ĠD el
ĠD ix
ĠD obson
ĠD irect
ĠD AV
Ġwork er
ĠG ab
ĠG round
ĠG ently
ĠG uit
ĠG oms
ĠG inj
ĠG inger
ĠG RA
ĠG ILL
ĠG reek
ĠG orgeous
ĠG utier
ĠG alvan
he ll
he it
he lp
he aling
ne lly
Ġen able
Ġen emies
Ġevery time
Ġsl am
Ġsl ump
Ġsl ave
"" '
Ġfe ars
Ġfe line
Ġfe athers
Ġfe isty
ag ate
ag ues
ag gy
ag ascar
Ġshow y
Ġshow ers
iz able
Ġby pass
ink age
ish a
int zen
Ġtheir s
Ġsm ack
Ġsm oth
Ġsm ears
Ġsk yl
Ġtop ographical
Ġtop spin
Ġsc an
Ġsc ab
Ġsc ope
Ġsc ents
Ġsc ared
Ġsc ribe
Ġsc utch
Ġsc aven
Ġsc reens
Ġsu nd
Ġsu cc
Ġsu pers
Ġsu icide
les cent
Ġbo b
Ġbo iled
ĠP K
ĠP P
ĠP h
ĠP op
ĠP ick
ĠP ol
ĠP os
ĠP ower
ĠP aper
ĠP ier
ĠP ool
ĠP erc
ĠP ear
ĠP icking
ĠP att
ĠP arr
ĠP ulse
ĠP imples
ĠP inch
ĠP oke
ĠP addle
ĠP igs
ĠP ublic
ĠP astr
ĠP FD
ĠP yramid
ĠP omona
ĠP alm
ĠP abst
Ġwas p
Ġwas ting
Ġqu e
Ġqu ant
Ġtalk ative
lp ool
Ġstr ay
Ġstr aining
Ġgl are
Ġgl ands
Ġgl obe
Ġar row
Ġar ced
Ġar bore
ens er
Ġpi ano
ĠJ B
ĠJ ay
ĠJ ord
ĠJ ane
ĠJ NC
os a
os cape
os hin
Ġcle ft
Ġcle ared
ĠR E
ĠR ay
ĠR im
ĠR am
ĠR ub
ĠR uff
ĠR oth
ĠR acing
ĠR aw
ĠR ocking
ĠR oman
ĠR ict
ĠR OY
ĠR yan
ĠR eno
ĠR otate
Ġbet s
end orphin
Ġman ure
Ġman aging
Ġman ifold
be ans
Ġsa ving
Ġsa ute
Ġsa iid
Ġsa ucer
Ġsa utÃĥ
Ġac ids
Ġac quire
Ġac quis
Ġac etone
Ġac anthus
Ġac adem
Ġeas tern
ĠE s
ĠE ner
ĠE vent
ĠE mer
ĠE ffect
ĠE lements
ĠE lderly
ĠE arth
ĠE levation
ĠE cho
Ġrem inis
Ġrem odel
og ens
og rams
og lob
Ġsw an
Ġsw ans
Ġsw ell
Ġsw ipe
Ġsw ept
Ġsw elling
ound ation
Ġop t
Ġop acity
Ġop aque
Ġunder age
Ġunder arm
Ġunder gr
Ġunder line
Ġunder go
Ġunder water
Ġunder arms
Ġunder stands
Ġunder lying
Ġcar bs
Ġcar ried
Ġcar oteno
Ġcar abiner
Ġset t
Ġthan ks
Ġam aret
Ġper ch
Ġper ipher
Ġlight ener
Ġlight ened
ark dale
Ġline ar
Ġend less
Ġhead ph
Ġapp les
Ġapp oint
Ġplace mat
Ġgr ate
Ġgr omm
Ġgr its
Ġgr ids
Ġgr ime
ĠThey Ã¢
Ġcomp re
Ġcomp ar
Ġcomp ression
Ġskin s
Ġfoot wear
Ġsim ulate
Ġpain ful
Ġpain ters
Ġno vice
Ġno llie
Ġno zz
Ġno stalg
Ġclean ly
Ġfront s
ĠAl as
ĠAl oe
ĠAl co
ĠAl ien
ĠAl gae
Ġbott on
Ġstraight er
Ġperson a
Ġstre ets
Ġstre aks
Ġcor on
Ġcor por
cess ful
Ġhands hake
Ġcre ases
Ġcre ma
Ġcre pe
Ġpress ur
Ġwr iter
Ġhard en
Ġhard ens
Ġhard ship
Ġsec uring
Ġpos itives
ang ing
Ġdef orm
Ġdef ects
ors hip
Ġmin ced
ĠK im
ĠK ash
ĠK ings
ĠK ah
ĠK erry
ĠK iller
ĠK erri
ĠK IR
ĠK oshin
Ġext ent
Ġext rem
Ġext ras
Ġed ition
Ġed iting
Ġed ged
ath etic
Ġph yllo
Ġdraw ers
Ġdraw string
Ġdis ability
Ġdis eng
Ġdis advant
Ġser um
ĠSt op
ĠSt ick
ĠSt ore
ĠSt ull
ĠSt amp
ĠSt reet
Ġpaper work
Ġoil er
Ġrep ack
Ġrep aint
Ġrep utation
Ġrep orters
Ġroll over
amp agne
ob ic
tain s
Ġfin ite
Ġfin ches
ank s
Ġcent s
Ġstand point
Ġclip ping
Ġcour te
Ġcour ser
Ġhad n
Ġstick er
Ġ2 2
Ġcr ay
Ġcr uel
Ġcr uise
Ġcr imper
Ġrec ent
Ġrec ently
Ġrec ycle
Ġrec ycl
Ġrec order
Ġrec lining
Ġres isting
Ġres urgence
ĠAn ne
ĠAn imal
ÂĢÂ Ŀ
Ġve il
Ġve gg
Ġve iny
Ġve ctor
Ġfun niest
ĠLet ting
Ġun cl
Ġun pack
Ġun bre
Ġun load
Ġun iversity
Ġun usual
Ġun stable
Ġsqu iggles
Ġpaint ball
ĠU K
ĠU m
ĠU top
ĠU lt
ĠU IL
ĠU ntil
Ġel ong
Ġel aborate
Ġpract ition
Ġcare d
Ġob ese
Ġob struct
Ġinst ill
Ġinst itution
Ġnum erical
Ġexp ort
Ġexp ands
Ġexp ecting
Ġeye lets
Ġdec e
Ġdec l
Ġdec king
Ġdec als
Ġdec ides
Ġdec aying
Ġpush ups
ope fully
Ġsecond ly
Ġdes ce
Ġdes cription
Ġrel ief
Ġatt end
Ġatt rib
Ġflat s
Ġflat head
Ġim for
Ġcover ings
ĠFor k
Ġremember ing
Ġsur cing
Ġsur render
Ġfew er
Ġye ast
Ġbase ments
Ġpass ers
Ġpass ionate
Ġpass enger
Ġfull s
Ġfull est
Ġfull back
Ġproduct ions
iv a
iv an
iv ator
Ġdep leted
Ġkne ec
Ġstretch ed
Ġsn iff
Ġsn ows
Ġsn eezing
Ġlearn s
Ġboth ers
Ġlast s
Ġcur b
Ġcur ving
Ġcur ry
Ġcur ious
Ġcur ren
Ġcur vature
Ġcur tains
Ġhome made
Ġsix th
Ġhor n
wh en
wh ite
Ġ3 2
Ġ3 7
Ġ3 50
Ġreg iment
Ġreg ulate
Ġreg ulated
Ġpick up
Ġcomple tes
rab i
Ġcup board
Ġground er
Ġspec ially
Ġspec ified
Ġinf ilt
Ġpot ters
Ġpot atoes
Ġneck laces
Ġorder ing
Ġind ention
Ġbel ongs
Ġwind s
Ġwind mill
Ġopp ose
Ġdet ox
Ġdet erior
Ġunt o
Ġunt ie
str ung
Ġlay ered
Ġlay over
ĠSome body
fe nder
Ġz oo
Ġz est
Ġz ombie
Ġbeg un
Ġstring y
ograp hic
Ġmas ters
Ġmas ala
to ire
to ise
Ġlow ers
Ġwheel ing
Ġrest ore
Ġrest ored
Ġchest nut
Ġmean while
ĠMy ra
Ġbegin ners
Ġinc ons
Ġinter act
Ġinter ception
Ġinter rup
Ġinter cept
Ġinter action
Ġinter acting
Ġinter actions
Ġdefin ed
Ġdefin ite
Ġwax y
Ġwax ed
Ġbook mark
ĠCh ar
ĠCh ile
ĠCh ili
ĠCh amele
ĠCh ico
ĠCh iropract
ĠCh ipping
ĠCh ampagne
Ġslow ing
ole t
mer chant
Ġfil ms
Ġfil ament
Ġra ises
Ġacc omm
Ġacc ustom
Ġacc lim
Ġbreak ups
Ġold est
Ġsty lish
ĠV en
ĠV al
ĠV ol
ĠV og
ĠV odk
ĠV isa
ĠV isual
ĠV arga
ĠV aseline
Ġpin nacle
Ġcomb o
Ġcomb ed
Ġexerc ising
Ġstop ped
Ġhorse hair
Ġtra pping
Ġmed itate
Ġmed itation
Ġtechn ology
Ġpressure s
Ġvar ied
ĠGood win
Ġarm or
Ġsand ed
Ġsand ers
Ġsand paper
Ġsand alwood
ĠAll ister
ĠAll ison
Ġbuild ings
omm el
Ġdisc l
Ġdisc overing
Ġdisc reet
Ġdisc overs
Ġdisc overed
Ġdisc ouraged
Ġtable t
Ġtable ts
Ġble w
Ġhot ter
Ġdi ver
Ġeight s
Ġeight ies
Ġfire wall
Ġche ers
Ġche ater
Ġmain stream
Ġent it
Ġent ered
Ġent hus
Ġdark en
Ġdark room
Ġform ats
Ġdesign ers
ren heit
Ġfill er
Ġblock age
Ġswitch ed
Ġeyes hadow
Ġsurf board
Ġregular ity
ah aw
ah renheit
Ġwa iving
Ġwa ited
Ġfree ly
Ġfree hand
Ġfree zing
Ġdist illed
Ġdist iller
Ġlength y
Ġred o
Ġred ness
Ġred dish
Ġpost ers
Ġloop ed
Ġtip py
Ġrub y
Ġref ine
Ġref ining
Ġref ined
Ġwon Ã¢
Ġbra ise
Ġbra ided
ri k
Ġfall en
ĠOr ig
Ġfoll icles
Ġless en
Ġheav iness
Ġheav iest
Ġcat al
Ġshort en
Ġshort ed
Ġgar ments
Ġgar gle
Ġmass es
Ġmass ive
Ġste al
ĠBe ach
ĠBe gin
ĠBe jing
Ġworks heet
Ġsal es
Ġsal icylic
Ġbar gain
Ġbar riers
Ġav ian
ĠNe ither
ĠNe glect
Ġtemp ted
Ġtwist s
Ġtwist ed
Ġprint making
Ġwet ting
Ġround ness
Ġtrans verse
Ġtrans plant
Ġtrans actions
Ġtrans mitted
Ġlo vers
Ġlo af
Ġchar ging
Ġplan ing
Ġplan ner
Ġplan ets
Ġfast ened
Ġcool s
Ġmon otony
Ġins ight
Ġins ulin
ĠTo es
ĠTo ss
ĠTo ky
Ġcond uc
Ġspot ters
Ġspot ted
Ġfocus es
Ġpattern ed
Ġcap ability
Ġcap tive
Ġcap pu
Ġcap icola
Ġcap acitor
Ġvari able
Ġvari ability
Ġsing ing
Ġsoft ware
Ġkey not
Ġfollow ed
Ġbad ge
Ġprof icient
Ġdirect ed
Ġsle d
Ġfact ory
Ġdeep ening
Ġmind ful
Ġap ical
Ġap ex
Ġap iec
Ġwash es
Ġlarge ly
Ġbat t
Ġgener ate
Ġfore f
Ġfore ign
Ġfore sh
irr itating
Ġsol o
Ġsol uble
Ġclass y
Ġclass ics
Ġclass mates
ĠDon na
Ġsmooth s
Ġsmooth ed
Ġsmooth ness
Ġart ic
Ġart icle
Ġ5 00
Ġwin ch
Ġnight mare
Ġcorrect ions
Ġconf ine
Ġdrink ers
Ġdirection al
Ġdemonstr ating
Ġthumb ing
Ġread er
Ġread able
Ġread ings
ĠNot re
Ġtrack ing
Ġcustom ize
Ġcustom ized
Ġcondition ers
ng ue
Ġbreath es
Ġtooth ache
Ġport a
Ġport ability
Ġca ulking
Ġca ffeinated
Ġinv oice
Ġstud s
Ġstud ying
Ġclim ax
Ġclim bs
Ġveget ation
ĠFr ance
ĠFr ansisco
Ġconsider ing
Ġprotect or
Ġsign als
Ġenjoy s
Ġenjoy ed
Ġben eath
Ġben zoy
Ġsub mit
Ġnecess ity
Ġheart worms
Ġheart worm
Ġscr uff
Ġtemper ament
Ġconn ections
Ġenerg ies
Ġsquee zes
cc ino
cc ola
Ġant isept
Ġlead ers
Ġtrip ping
Ġcal iber
Ġcal orie
Ġcal amari
Ġpar ry
Ġpar achute
Ġequ ate
Ġequ ity
Ġteam mates
Ġteam mate
Ġinformation al
Ġknot less
Ġbrown ish
Ġadv ise
Ġadv ances
Ġfo iling
ĠBr uce
ĠBr inell
ĠBr intzen
Ġtend ed
Ġtend ons
com pass
Ġwo ke
Ġpres et
Ġpres ets
Ġpres cribe
Ġpres ident
Ġpres cribed
pr otection
Ġ7 2
Ġret r
Ġeng ines
Ġeng ages
ĠRem ove
Ġthread ed
ins on
ins ically
Ġju icing
Ġju icer
Ġju icy
Ġju icier
Ġju ggling
Ġmod est
Ġmod ified
Ġmod ifying
olog ies
Ġelect roly
Ġpan ic
Ġring ing
Ġvis ited
Ġattach ment
Ġattach ments
cl ick
Ġjo ining
Ġjo ined
Ġprevent ing
Ġval ance
uc cessful
Ġwrap s
Ġchick s
Ġchick ens
Ġblood ed
Ġblood stream
Ġcream ing
Ġpack ets
Ġiss uer
Ġsharp est
Ġsharp ness
Ġsharp ened
Ġseat bel
Ġpersonal ize
Ġpersonal ized
Ġspecial izes
Ġsupport ed
Ġsupport ive
Ġspray ing
Ġag reed
oun ge
Ġdam ages
Ġdam aging
Ġdam ns
Ġmat ifying
Ġmag ical
ĠSh op
ĠSh immy
Ġass ure
Ġflip ped
ĠUn like
au nt
Ġtor sion
Ġtor toise
Ġrot ting
Ġstrip ping
Ġstrip ped
Ġland ed
Ġabs ence
Ġflash light
Ġscrew ing
Ġscrew ed
Ġquart s
Ġstrength ens
Ġflex or
Ġflex ion
Ġcold s
Ġcorn bread
Ġtom ahaw
Ġpal p
Ġdress er
Ġmach e
Ġshr unk
Ġshr inkage
ĠCl own
ĠCl aire
ĠCl arke
ĠCl arkdale
Ġfresh est
Ġfresh water
itive ly
Ġstain ing
Ġcost ly
Ġcost uming
Ġanywhere s
Ġgrip ping
ex isting
tim al
Ġfilm makers
con cept
Ġbro ke
Ġbro il
Ġorig in
Ġorig inated
Ġorig ami
ĠBas ic
Ġflu ids
Ġsecure s
Ġextend s
Ġload ing
Ġbunch ing
Ġbunch es
Ġorgan isms
Ġchop py
ĠRe g
ĠRe leas
ĠRe inf
Ġplayer Ã¢
Ġhy per
Ġselect ions
Ġdead ly
Ġprin ter
Ġprin ters
ĠEx cept
Ġcoun ters
Ġcoun selor
Ġavoid ed
Ġ6 5
Ġvers es
Ġlog ic
Ġlog ically
Ġsmell ed
Ġexplain s
Ġfoam s
sh a
sh aw
Ġwomen Ã¢
ĠAny one
ĠAny ways
ĠAny body
ĠAny time
Ġmess y
ĠAr m
Ġsoon er
Ġtrim mer
Ġ20 1
Ġband age
Ġband ages
Ġstate ments
Ġrece ives
Ġkeeps akes
Ġappro ve
Ġappro ved
Ġappro aching
Ġobject ives
Ġweek ly
not ic
vis ational
Ġyoga alli
Ġstory telling
Ġprop ane
Ġprop els
Ġprop agate
Ġqual ities
Ġqual ify
Ġfriends hip
Ġbath s
Ġbath tub
Ġdrain s
Ġ15 0
Ġ15 1
Ġguide lines
Ġdust y
ĠSp ot
ĠSp end
ĠSp ecially
ĠSp iced
ĠSp ecifically
Ġkite mare
ĠCan on
ĠCan non
Ġce il
Ġhop per
Ġoutf its
Ġbright er
Ġsuc king
Ġmusic ian
Ġtap ing
Ġtap ers
Ġda isy
ĠIs le
Ġattack ing
Ġreturn ing
gest ure
Ġbur st
Ġbur dock
Ġsoc iety
Ġspark er
Ġspark ly
Ġprim ing
Ġprim ed
Ġprim itive
Ġmaintain s
Ġsuggest s
Ġsuggest ed
Ġid ling
Ġtract ion
Ġcro pping
Ġcro akie
arr ass
Ġtexture d
Ġseam stress
Ġguess ing
Ġperiod ic
Ġcompet ing
Ġdeterm ined
Ġaware ness
Ġhum ans
Ġhum orous
Ġpub lish
Ġpub lishing
Ġemp athetic
Ġspl ice
Ġpurch ases
Ġut ility
Ġtu fts
Ġgra vel
Ġgra veyard
Ġmult ip
Ġrul ers
Ġchem istry
Ġvodk as
Ġgloss es
Ġstress ing
Ġphys i
Ġcrack ing
Ġincl ined
Ġpresent ations
Ġsuccess ion
Ġident ification
Ġappropri ately
kin i
Ġhu gged
Ġpet unias
Ġdig its
Ġweed ing
Ġredu ces
Ġredu ced
Ġdel ay
Ġdel usions
Ġdel ivery
Ġcarp al
Ġhighlight ing
Ġhighlight ed
Ġexpert vill
Ġtransfer red
Ġwinter time
Ġbor row
Ġbor ax
erv ation
Ġcake y
Ġpath s
Ġpath ogens
Ġmap le
ĠTr ue
ĠTr ans
ĠTr ample
ĠTr itele
Ġur inate
Ġforget ting
Ġansw ers
Ġabsor bers
Ġhydr ometer
Ġnon irritating
Ġnap kins
Ġrop er
Ġgrass y
Ġsquat ted
Ġrais ins
Ġscratch ed
Ġoccur ring
fact ion
Ġaff ection
Ġaffect ive
Ġoper ated
Ġill umination
Ġdim ple
Ġinj ure
Ġnet ting
Ġnet wor
Ġstock bro
Ġstamp ing
epend ent
Ġmem or
Ġpercent age
Ġpercent ile
Ġresist or
Ġresist ant
Ġtarget ing
foli ate
Ġver b
Ġthr u
Ġthr ift
Ġthr ottle
Ġliter ary
Ġmill imeters
Ġbeat le
ĠAct ing
Ġund one
Ġund ulating
Ġund ressed
Ġtri ang
Ġtrad ing
Ġtrad itionally
ĠBy e
Ġintrodu cing
Ġintrodu ctory
Ġenc aust
Ġ19 4
ci utto
ox y
ĠZ oom
ĠZ ero
ĠZ inf
ĠZ ebra
ĠZ ephy
Ġet ching
Ġsum mar
Ġbac ked
Ġcamp ers
Ġrad iate
Ġrip ping
Ġmeat y
ĠGr ass
ĠGr aco
ĠPl us
Ġcontract or
Ġcontract ors
Ġgray s
Ġslee k
Ġengine er
Ġped est
Ġped icure
Ġkay aker
cell aneous
Ġprefer red
Ġsend ing
Ġscreen writers
Ġwra pper
Ġge ars
Ġge ared
Ġgain s
Ġbackground s
Ġexfoli ant
Ġclamp ing
Ġpoin ters
Ġconcent ric
Ġbrew ed
Ġimprove ment
Ġimprove ments
Ġtre nd
Ġtack ling
Ġsad dles
Ġcand les
Ġcand ies
ĠSec retion
ĠAb by
ĠAb raham
ĠBl ock
ĠBl anc
Ġworkout s
Ġboil s
Ġboil er
ĠPro f
ĠPro ject
Ġgrad u
Ġindic ate
Ġindic ators
Ġpaddle d
Ġcontinu ation
Ġnutr itional
Ġnutr itious
gl ich
gl ue
Ġcot tin
Ġpatch es
Ġfac il
Ġinde ed
Ġnarrow er
Ġnarrow est
Ġstir ry
ĠSc iss
ĠSc otch
Ġbrid les
Ġcompan ionship
Ġaccur ately
Ġdiet itian
Ġfamiliar ize
ĠBring ing
Ġapproach ed
Ġtherm o
Ġtherm al
Ġtherm ometers
Ġteaspoon s
ĠJohn ny
ĠJohn son
Ġrhyth ms
go v
go al
reg ular
reg ister
Ġtong ues
Ġir idized
Ġir regular
Ġpump ing
Ġpump kin
Ġpuff y
Ġlad le
Ġlad ders
Ġconstr aints
Ġdem and
Ġdem ands
Ġarch ing
Ġarch ed
Ġcleans ers
Ġexpect ed
Ġsnap ped
Ġthickness es
Ġmagic ian
Ġpepper mint
Ġox id
Ġox idized
Ġox ford
Ġbic ep
Ġdamp ness
Ġnorth west
Ġkid ding
Ġneat ly
Ġknob s
Ġdiagon als
Ġmagn ified
Ġtherapist s
Ġsilver ware
Ġdentist ry
Ġcarpet ing
Ġrhythm ic
off s
Ġtan nin
Ġtick et
Ġtick ets
Ġhist orical
Ġpool s
Ġfle w
Ġlab els
ĠSal icylic
ĠAdd ison
Ġsoap y
ĠOp timal
Ġspir its
ĠBar oness
ĠHold em
Ġdrug store
ĠCar l
ĠCom ics
ĠCom edy
Ġscal es
ĠPre p
ĠPre tz
ĠPre tend
ĠPre vention
Ġopin ions
Ġmoistur ize
Ġmoistur izers
Ġcontrast ed
Ġcotton y
Ġvoice less
lu a
Ġwild ly
Ġol ives
Ġollie ing
Ġdy es
Ġwed ges
Ġwed ged
ĠSe lect
ĠSe gund
ĠSan sevier
Ġanch ors
Ġanch oring
Ġnotch es
Ġspill s
Ġspill ing
Ġpolish ed
Ġscale d
Ġsymp tom
Ġbathroom s
Ġhammer ing
Ġhors erad
Ġfest ive
Ġstim ulation
Ġstim ulated
Ġstim ulating
Ġstabil izer
ĠAm y
ĠApp roved
ĠApp alach
Ġru ins
Ġcopy ing
Ġbond ing
Ġbond ed
ĠPr otection
ĠJack son
Ġgrain s
ĠSte ve
ĠSte ven
ĠSte glich
Ġincre ased
Ġrazor bl
Ġrefer ring
Ġreflect or
Ġreflect ed
Ġreflect ors
Ġloosen ess
rit o
Ġcult ivator
Ġpee k
Ġisol ation
Ġisol ations
Ġisol ates
Ġumb ilical
ĠDe fender
Ġscoop ing
Ġscoop ed
Ġsculp t
ĠJan nett
Ġaddress ing
Ġaddress es
Ġelev ated
Ġelev ator
Ġaccent u
Ġmedic ines
Ġmedic ations
Ġchew y
Ġchew ed
Ġexcept ions
Ġabsorb ed
inch ed
Ġbunk ers
Ġgre edy
Ġpest s
Ġev ap
sey e
ĠOver head
Ġclap ping
Ġpol ite
Ġpol itics
ĠMC AT
ĠMC CULL
ĠCL EM
ĠCol bus
Ġpriv acy
Ġscar ves
ĠJe welry
ĠRob in
ĠRob inson
ĠRob shaw
ĠEu ro
Ġcarbon ated
Ġmonolog ues
Ġestab lishing
Ġgossip ing
Ġsus cept
Ġbull seye
Ġcateg ories
Ġpig ments
Ġpig gy
Ġretain s
ĠSm ith
ĠSm ooth
ĠSm oke
Ġchip ping
ĠMart in
ĠCle an
Ġpeach y
Ġvan veen
Ġprom ote
Ġprom oted
Ġfell ows
ĠPer form
ĠPet e
ĠIntern ational
Ġdisapp ears
Ġdisapp eared
Ġterr ifying
Ġsweat ers
Ġbroad casting
Ġproportion ately
Ġcompetition s
Ġeffort s
Ġumbre llas
Ġlubric ate
Ġlubric ation
Ġwake board
Ġcart ridge
Ġled ges
Ġlatch es
ĠInd ies
ĠInd ia
ĠInd ian
ĠInd ependent
ĠImp ulse
Ġinvent ion
Ġinvent ory
Ġbear ings
Ġstur dier
ĠSund ay
ĠWill y
ĠOff set
Ġtrust y
ĠItal y
Ġmel on
Ġmel ting
Ġmel ts
Ġflight y
Ġoverl aps
Ġbloom ing
Ġpron ounce
Ġskip ping
Ġrecogn ition
Ġrecogn izable
Ġrespect s
Ġelastic s
Ġsurround s
Ġsurround ing
Ġsurround ed
Ġsurround ings
Ġparr ies
Ġassemble d
word s
Ġtit led
Ġbi ological
Ġbi omechan
Ġbi kini
Ġboo kends
Ġgrap es
Ġpap illa
Ġpizz azz
Ġdumb o
Ġlust er
Ġnav asana
ĠTe acher
ĠTe lephone
ĠSch mid
Ġrust ic
Ġneighb ors
Ġallerg ies
ĠBel t
ĠBel gium
Ġintim acy
Ġflick s
Ġflick ering
ĠMad onna
ĠMad agascar
Ġactive ly
Ġblad ed
Ġblad ders
Ġvin osity
Ġvic inity
ĠFl ip
ĠFl aming
ĠFire house
ĠFire fox
ĠLa M
Ġbuff et
Ġboy frie
ĠRes ervation
ĠEn emy
Ġappet izing
Ġstream s
Ġstream line
Ġminim al
Ġdisp ose
Ġconsum ed
Ġinfl ation
Ġinfl ating
Ġtorch ed
Ġemploy ee
Ġemploy ment
Ġemploy ees
Ġsculpture s
Ġconservative ly
eight hs
lim er
lock s
min ute
rup tion
Ġven ue
Ġven erable
Ġvel ve
Ġtin ned
Ġtour nam
Ġsen ior
Ġpist e
Ġdull ness
Ġlob ster
Ġmail ing
Ġwhit ener
Ġep idemic
Ġep oxy
Ġreview s
ĠAd ult
Ġjud ging
Ġfrizz y
Ġmeant ime
ĠMar vel
ĠMar cel
ĠCo ffee
Ġpeg s
Ġpear lescent
Ġvary ing
ĠDep ression
ĠDep artment
ĠDean na
Ġscall op
Ġ12 3
Ġmini ature
Ġelectron s
Ġelectron ic
Ġrespond s
Ġgrand parent
ĠKnow ing
Ġrepresent ing
ST OP
crow d
Ġthreat ening
Ġthreat ened
Ġwip es
Ġod ors
Ġcuff s
Ġpers su
Ġpers uasive
Ġnood le
Ġemb ed
Ġemb arrass
ĠTurn ing
Ġrating s
Ġassoci ation
Ġbackpack er
Ġbackpack ers
Ġclas p
ĠHer oscape
Ġvib r
Ġsling ing
Ġscroll ing
Ġsuck er
Ġarr ive
ĠJump s
ĠRep ublic
ĠRel ations
Ġcomprom ising
Ġrecre ation
Ġfung al
Ġnewsp apers
Ġincred ible
Ġaccum ulate
Ġstyl us
Ġstyl ized
Ġentr ies
Ġinspect ed
Ġmarking s
ĠSwitch ing
Ġdigit ally
Ġirrit ation
ĠPractition ers
Ġanaly zing
Ġtablespoon s
Ġintimid ated
Ġsail or
Ġhusb ands
Ġgau ze
Ġpleas ant
Ġfarm ed
Ġlack ing
Ġmer chants
Ġmis erable
Ġmis concept
Ġmis cellaneous
kew arm
ĠTom atoes
Ġrehe at
ĠAc ne
ĠAc ademy
Ġshim s
Ġann oy
Ġann ual
ĠWind y
ĠNatur ally
ĠOft entimes
Ġspo ke
Ġconcl usion
ĠMan hatt
ĠMot orc
Ġblond e
ĠCroc osm
ĠFlex ion
ĠLow es
ĠGreg ory
agn etic
Ġsuff er
Ġsuff ering
Ġsuff icient
Ġglow y
Ġglow ing
Ġarg ue
Ġarg ument
Ġsimpl ified
Ġreprodu ction
Ġcran king
Ġcriss cross
Ġindustr ies
Ġassign ment
Ġassign ments
Ġfatig ued
Ġsocial ize
Ġdestroy ed
Ġfragr ance
Ġprincip al
bl own
rie ver
Ġted ious
Ġban ana
Ġban ned
Ġbust ed
Ġcav ities
Ġharm ful
Ġfib rous
Ġdad dy
Ġdors al
Ġnip per
otch es
Ġweigh s
Ġeval uate
Ġster n
Ġster ling
ĠTri kon
Ġresol ved
Ġresol ution
ĠAlex a
Ġjunk ie
Ġultim ate
Ġsore ness
Ġchunk ier
ĠNick y
ĠBu ying
ĠBu ccola
Ġintest inal
Ġexec ution
Ġpros ciutto
ĠMc C
ĠMc Ge
ĠMc Lean
ĠMor occan
ĠMatt el
ĠCD s
ĠChe ers
Ġimplement ation
ĠDet ail
ĠDet erm
ĠDet roit
Ġenl arge
Ġslab s
Ġbudd ies
Ġrob ust
Ġswab s
Ġcompact ed
Ġexpress ing
Ġblem ish
Ġtransport ing
Ġimprovis ers
ĠSha wn
Ġtorn adoes
Ġcelebr ating
Ġconstric t
Ġconstric ting
Ġconstric tor
ĠApply ing
Ġmortg ages
Ġdistinct ive
Ġreapply ing
Ġtremendous ly
IL ES
OU GH
cap ing
Ġtil es
Ġtil ted
Ġtax es
Ġtang ling
Ġsizz le
Ġcrow ded
Ġgen re
Ġgest uring
Ġgest ural
Ġfisher man
Ġfisher mans
Ġreinf or
Ġrins es
Ġlif eline
Ġcoars eness
Ġcogn itive
Ġspect acular
Ġspong y
Ġexh alation
Ġblind s
ĠCur l
ĠCur ly
ĠComm and
ĠFin ishing
ĠFre itas
Ġimper fections
ĠGre y
Ġsmoot hing
Ġscen ario
Ġscient ist
Ġremain s
Ġdissol ve
ĠStand ard
Ġveter inary
Ġbelie vable
Ġwheelch airs
Ġrestric t
Ġrestric tions
ĠChild ren
ĠVI CKER
Ġchef s
Ġreflex ologist
Ġsubst ant
Ġscram ble
Ġexplod es
ĠShould ers
Ġaffili ated
Ġhurric anes
ĠProper ty
ĠImpro visational
Ġprecise ly
Ġtattoo ing
Ġattemp ting
Ġcorrespond s
!! !
LA Y
crib ing
Ġtas ers
Ġtas ks
Ġgir lfrie
Ġgroom ing
Ġpod s
Ġpod ium
Ġpip ette
Ġplex i
Ġfec es
Ġdou bles
Ġdou bt
Ġdom inance
Ġlu x
Ġlu kewarm
Ġmal icious
ĠTor so
ĠSl ice
ĠSl iding
Ġrose water
Ġrose mary
Ġmob ility
Ġchis els
Ġchlor ine
Ġchlor inated
ĠNor thern
Ġspind le
ĠBre ak
ĠBub ble
ĠMA AD
ĠMe gan
ĠMed ical
ĠMid west
ĠCon nelly
ĠCall ister
ĠLind say
ĠLars Er
ĠGl oves
Ġsubs cribe
Ġsubs cription
ĠPort land
ĠPark er
Ġbother ing
Ġglaz ing
Ġglaz ed
Ġglute al
ĠInter state
ĠInter active
ĠRef ined
Ġcarb ide
Ġamate urs
Ġgran ular
Ġgran ulated
Ġgras ping
Ġcreep y
ĠStretch ing
Ġcruis ing
Ġcupc ake
ĠVe iled
ĠVe gas
Ġformat ting
Ġtransl ate
Ġinser tion
Ġweeke nds
Ġpenet ration
Ġembell ish
Ġrespir ator
Ġmaxim al
Ġmaxim ize
Ġ197 0
ĠPlant ing
Ġgymn ast
Ġpsychiatrist s
Ġiniti ation
ĠTwist ed
ĠScr umptious
IND IS
Ġpigment ation
Ġsanit izer
Ġreinstall ing
PD T
VE LL
bul bs
su its
Ġaward ed
Ġbould ering
Ġferment ation
Ġdict ates
Ġlaugh s
Ġment ally
ĠInt o
Ġinject ed
Ġinput s
Ġnur ses
Ġnur sing
Ġnast y
Ġhall way
Ġweaken ed
Ġecon omy
Ġecon omical
ĠTur kish
ĠTul ip
Ġrevers ing
Ġreef s
ĠSun land
ĠALL YN
Ġshove l
Ġanc ient
Ġanc estors
Ġorbit al
style watch
Ġhel met
Ġhel mets
opy right
ĠBer n
ĠBoot s
Ġdownload ed
ĠMain tenance
umer ic
Ġbasem an
Ġbasem en
ĠCase y
ĠCHRI S
ĠCHRI STOP
Ġviol ation
Ġadop ting
ĠLight ing
ĠDow d
ĠGar bett
ĠPay pony
ĠPsych iatrist
ĠJose ph
Ġcarn iv
Ġappreci ate
Ġappreci ates
Ġunc ial
Ġunpl ug
Ġunpl ugged
Ġdepos it
Ġperfor ms
Ġperfor ated
ĠChap el
Ġaccident ally
Ġmotiv ation
ĠHealth y
Ġwalnut s
Ġsandwich es
Ġdistur bing
Ġreform ing
Ġreform er
Ġbarb ecue
Ġfasten ers
Ġexplos ion
Ġexplos ive
Ġretire ment
Ġretail er
Ġretouch ing
Ġsnowboard ing
ĠExpl ain
ĠExpl orer
Ġsilic one
Ġsilic ones
Ġclothesp in
Ġclothesp ins
Ġ198 0
Ġradi ator
Ġrectang les
Ġrectang ular
Ġarchitect ure
Ġarchitect ural
Ġgreet ing
Ġeffortless ly
ĠTechn ician
Ġdispos al
Ġdispos able
ĠSuper man
ĠALEX SON
Ġdocument ing
Ġmosquit o
Ġmosquit os
Ġmacro biotic
Ġadministr ative
Ġadministr ator
Ġsatisf ied
Ġrapid ly
ĠCertain ly
ĠContin uing
Ġcalligrap her
Ġcalligrap hic
Ġnegoti ating
Ġhospit al
Ġhospit als
laugh ing
uv ian
vi olet
Ġaer obic
Ġthirst y
Ġbou quet
Ġbom b
Ġbitter ness
Ġcit r
Ġcul inary
Ġcum ulative
Ġcycl ometer
Ġgh oul
Ġpud ding
Ġfad ed
Ġfee ble
Ġfaj ita
Ġdup lic
Ġdanc er
Ġly mph
Ġlact ate
Ġloy alty
Ġgover nment
ĠIde ally
Ġinno vation
Ġhal ter
Ġwhir lpool
Ġstencil s
ĠSU V
ĠSk ate
ĠSatur day
Ġris king
Ġrom antic
ĠThin nes
Ġultra violet
Ġshoel ace
Ġker nel
Ġkink y
Ġorang ish
Ġornam ents
Ġupd ating
Ġchiropract or
Ġfru its
Ġspell ed
ĠBox ing
ĠBILL HIM
Ġintr insically
Ġclar ity
quart ers
Ġconver ting
ĠHors es
Ġoffic ers
Ġbruis ing
ĠMas cara
ĠMatch es
ĠCow boy
Ġadvent ure
Ġadvert ising
ĠLA BAR
ĠLou is
ĠDI XON
ĠDO T
ĠDian e
Ġworkst ation
ĠGra vity
ĠGard ening
Ġslings hot
ĠPar ake
ĠPhill ips
ĠPiran ha
Ġquot ations
ĠJon sey
ĠJul io
ĠJean ette
ĠRet riever
Ġacup uncture
ĠEM C
ĠEar lier
ĠEqu ity
ĠEgg s
Ġcaricature s
Ġheadst ones
Ġsecre ts
ĠKom odo
ĠStra ight
Ġcrit ique
Ġcrad le
Ġresc uer
Ġuns ightly
Ġunweight ed
Ġimbal ance
Ġsurg ical
Ġhorr ible
Ġregister ing
Ġaccep ting
Ġsprout ed
Ġdiagn ost
Ġdistort ed
Ġfingerp icking
Ġcaps ize
Ġaph ids
Ġexplan ation
Ġanticip ating
Ġmarin ade
Ġpreser ving
Ġpreserv atives
Ġmicrop hone
Ġdishw ashing
Ġcircum stances
ĠSpark man
ĠSpeed ball
Ġoutfield er
Ġcolum n
Ġhumming birds
Ġgrapp ling
ĠTrust ees
Ġencour aging
Ġantibiot ics
Ġerup t
Ġirides cent
ĠSeas ide
Ġdistribut ors
Ġdivis ions
Ġevol ution
Ġscrapbook ing
Ġquadric ep
Ġreplen ish
Ġprecaut ions
Ġcontemp orary
Ġpyth on
Ġmerid ian
Ġmathem atics
Ġvacu um
ĠImag ine
ĠDemonstr ator
ĠMagaz ines
Ġunnecess ary
Ġembroider y
Ġcivil ization
Ġuneven ly
Ġkohl rabi
ĠHawai ian
Ġblossom ing
Cle ar
CER NIBL
Dol berg
ET TE
Equ us
Hik ers
Le ather
SOU ND
bas ically
bail ing
des cribing
ho fe
ngr aden
wee k
zym es
Ġting ling
Ġtep ee
Ġtig ers
Ġtroup e
Ġastr onomy
Ġaustin stylewatch
Ġtherab and
Ġsar an
Ġsate llite
Ġwick er
Ġoat meal
Ġiod ize
Ġbak ery
Ġcus pid
Ġcyan ot
Ġgly cogen
Ġgig gling
Ġgimb ap
Ġpout ier
Ġpir ouettes
Ġpum ice
Ġfas c
Ġfitt ings
Ġfav ors
Ġfoli age
Ġdair y
Ġlacqu er
Ġmam bo
Ġmens wear
Ġmirl it
itam in
Ġgoble t
Ġitiner ary
ĠIron ing
ĠIllustr ator
Ġinhere ntly
Ġwhil st
Ġwholes ale
Ġellip tical
Ġstere o
Ġstup id
ĠTort oise
ĠTiff any
ĠTol asana
ĠTues day
Ġreper toire
Ġrevis ed
Ġrehydr ate
alcohol ic
Ġdolp hin
ĠSher ry
ĠSush i
ĠSel vage
ĠSau vignon
ĠSHAN AY
ĠSacram ento
ĠAND RE
ĠThurs days
Ġjoh ngraden
Ġjayfrench stud
Ġlibr ary
Ġlivest ock
adiol us
Ġoutstand ing
thous and
Ġaband on
Ġabnorm al
ĠWats on
ĠWimble don
Ġnebul izer
Ġhemost ats
Ġheirl oom
Ġwhatso ever
Ġatmos phere
ĠNAT HAN
ĠNOR VELL
ardonn ay
Ġcoqu ille
ĠObs essive
ĠOlymp ics
Ġtrib al
ĠBun ny
ĠBOU LAY
ĠBRY AN
Ġexcl us
Ġprocl aim
Ġclutt ered
Ġpolic y
Ġflaw less
Ġflamm able
ĠHoop ing
Ġprelim inary
Ġpredict able
Ġoverwhe l
Ġbrist les
Ġbruschet ta
ĠMast ry
ĠMalo v
Ġdrizz le
ĠCred it
ĠCren eti
ĠCarr ie
ĠConn olly
ĠCamass ia
ĠCotton wood
Ġvulner able
ĠFines se
ĠLud man
ĠLank a
ĠLaw rence
ĠLOVE ALL
ĠDobson ian
ĠDAV ID
ĠGuit ar
ĠGinj o
ĠGRA HAM
ĠGILL ETTE
ĠGutier rez
ĠGalvan ic
Ġsmoth ered
Ġskyl ight
Ġsucc ulent
Ġsupers et
ĠPos er
ĠPier rot
ĠPear ling
ĠPatt i
ĠPoke mon
ĠPastr ana
Ġarbore al
ĠJord an
ĠRict as
Ġsaiid i
Ġacquire d
Ġacquis ition
ĠEner gy
ĠEmer ald
ĠEffect iveness
Ġreminis cent
Ġundergr aduate
Ġamaret to
Ġheadph ones
Ġnozz le
Ġnostalg ic
ĠKah lua
ĠKIR K
ĠKoshin age
Ġextrem ity
ĠStamp in
Ġcourte ous
Ġvegg ies
Ġuncl ip
Ġunpack ing
Ġunbre akable
ĠUtop ia
ĠUlt a
Ġattrib uted
Ġimfor ative
Ġsurcing les
Ġcurren cy
Ġinfilt ration
Ġdeterior ates
Ġbookmark s
ĠChamele ons
ĠChiropract ic
Ġaccomm odate
Ġaccustom ed
Ġacclim ated
ĠVodk a
ĠToky o
Ġconduc ive
Ġcappu ccino
Ġkeynot e
Ġapiec e
Ġforesh adow
Ġbenzoy l
Ġantisept ic
ĠBrintzen hofe
Ġseatbel t
Ġtomahaw k
Ġshrunk en
ĠReleas ing
Ġyogaalli ance
Ġnetwor king
Ġencaust ic
ĠZinf andel
ĠZephy r
Ġsummar ize
ĠScotch gard
ĠPretz el
ĠSegund o
ĠSansevier ia
Ġhorserad ish
ĠAppalach ian
Ġrazorbl ade
ĠMCCULL OUGH
ĠCLEM EN
Ġsuscept ible
Ġvanveen bulbs
ĠSchmid t
Ġgrandparent s
Ġperssu asive
ĠManhatt an
Ġcrisscross ed
ĠTrikon asana
ĠMcGe hee
ĠVICKER S
INDIS CERNIBL
ĠCHRISTOP HER
ĠBILLHIM ER
ĠLABAR DA
Ġjayfrenchstud ios
INDISCERNIBL E
