{"<s>":0,"<pad>":1,"</s>":2,"<unk>":3,"<mask>":4,"!":5,"\"":6,"$":7,"%":8,"&":9,"'":10,"(":11,")":12,"+":13,",":14,"-":15,".":16,"/":17,"0":18,"1":19,"2":20,"3":21,"4":22,"5":23,"6":24,"7":25,"8":26,"9":27,":":28,";":29,"=":30,"?":31,"A":32,"B":33,"C":34,"D":35,"E":36,"F":37,"G":38,"H":39,"I":40,"J":41,"K":42,"L":43,"M":44,"N":45,"O":46,"P":47,"Q":48,"R":49,"S":50,"T":51,"U":52,"V":53,"W":54,"X":55,"Y":56,"Z":57,"[":58,"]":59,"a":60,"b":61,"c":62,"d":63,"e":64,"f":65,"g":66,"h":67,"i":68,"j":69,"k":70,"l":71,"m":72,"n":73,"o":74,"p":75,"q":76,"r":77,"s":78,"t":79,"u":80,"v":81,"w":82,"x":83,"y":84,"z":85,"¢":86,"©":87,"´":88,"½":89,"¾":90,"Â":91,"Ã":92,"Ċ":93,"Ġ":94,"Ģ":95,"Ĥ":96,"ĥ":97,"Ļ":98,"ľ":99,"Ŀ":100,"Ġt":101,"Ġa":102,"Ġth":103,"in":104,"ou":105,"re":106,"Ġthe":107,"Ġs":108,"Ġw":109,"Ġo":110,"Ġto":111,"Ġy":112,"Ġi":113,"Ġyou":114,"nd":115,"ing":116,"Ġb":117,"at":118,"er":119,"Ġc":120,"Ġh":121,"Ġg":122,"Ġp":123,"Ġf":124,"Ġand":125,"Ġd":126,"ll":127,"Ġl":128,"Ġm":129,"an":130,"it":131,"Ġof":132,"Ġgo":133,"Ġit":134,"es":135,"en":136,"on":137,"or":138,"ĠI":139,"Ġthat":140,"Ġin":141,"ow":142,"us":143,"le":144,"Ġis":145,"is":146,"ar":147,"ve":148,"et":149,"om":150,"Ġn":151,"Ġha":152,"ke":153,"Ġon":154,"ic":155,"Ġbe":156,"Ġyour":157,"ot":158,"Ġgoing":159,"Ġwh":160,"'s":161,"Ġwe":162,"ed":163,"ay":164,"Ġe":165,"Ġst":166,"all":167,"ac":168,"as":169,"gh":170,"ut":171,"ĠT":172,"Ġre":173,"'re":174,"al":175,"Ġdo":176,"out":177,"ere":178,"Ġthis":179,"ant":180,"ĠS":181,"ĠA":182,"Ġr":183,"ver":184,"Ġcan":185,"ĠTh":186,"igh":187,"Ġj":188,"Ġhave":189,"ith":190,"Ġare":191,"ust":192,"id":193,"ight":194,"Ġu":195,"Ġfor":196,"Ġwith":197,"se":198,"ir":199,"ake":200,"ld":201,"ally":202,"Ġwant":203,"ch":204,"ion":205,"ly":206,"oo":207,"Ġjust":208,"ĠSo":209,"Ġli":210,"Ġsh":211,"Ġan":212,"Ġk":213,"ad":214,"Ġor":215,"use":216,"ent":217,"st":218,"ec":219,"ome":220,"Ġso":221,"im":222,"ro":223,"Ġup":224,"ee":225,"Ġget":226,"am":227,"Ġmo":228,"Ġas":229,"ill":230,"ĠAnd":231,"ack":232,"our":233,"itt":234,"Ġlike":235,"Ġout":236,"th":237,"Ġab":238,"ĠW":239,"'t":240,"ain":241,"ure":242,"od":243,"ĠY":244,"ur":245,"'m":246,"Ġne":247,"Ġhe":248,"ould":249,"art":250,"Ġlitt":251,"Ġif":252,"very":253,"Ġnot":254,"il":255,"Ġwhat":256,"Ġlittle":257,"ind":258,"Ġthey":259,"ĠYou":260,"Ġal":261,"ra":262,"ep":263,"Ġthere":264,"Ġhere":265,"Ġone":266,"Ġch":267,"Ġfr":268,"ct":269,"Ġle":270,"Ġmake":271,"ce":272,"Ġabout":273,"Ġall":274,"Ġthen":275,"Ġat":276,"ĠN":277,"rou":278,"ide":279,"ard":280,"ter":281,"ip":282,"ook":283,"if":284,"Ġdon":285,"Ġco":286,"Ġback":287,"Ġmy":288,"Ġsome":289,"Ġpl":290,"own":291,"op":292,"ĠThe":293,"ge":294,"Ġwill":295,"ice":296,"Ġbut":297,"Ġthing":298,"Ġkn":299,"ause":300,"Ġcom":301,"Ġhow":302,"ĠO":303,"Ġwhen":304,"Ġreally":305,"Ġsp":306,"Ġtr":307,"Ġway":308,"ers":309,"Ġuse":310,"ĠB":311,"ul":312,"Ġright":313,"Ġint":314,"Ġdown":315,"ab":316,"Ġex":317,"Ġpro":318,"king":319,"Ġcl":320,"ort":321,"Ġvery":322,"ĠNow":323,"Ġbec":324,"ive":325,"Ġour":326,"Ġthem":327,"nt":328,"Ġput":329,"ap":330,"ĠIt":331,"qu":332,"Ġte":333,"'ll":334,"Ġfrom":335,"ick":336,"mp":337,"un":338,"Ġwor":339,"Ġmore":340,"her":341,"so":342,"Ġlook":343,"Ġbecause":344,"ate":345,"Ġpo":346,"ess":347,"Ġtake":348,"Ġsee":349,"ine":350,"Ġtw":351,"Ġme":352,"Ġneed":353,"Ġus":354,"ĠWe":355,"Ġfl":356,"Ġany":357,"Ġinto":358,"pp":359,"Ġtim":360,"ss":361,"est":362,"Ġcon":363,"ĠH":364,"ame":365,"Ġsure":366,"Ġhand":367,"ually":368,"ting":369,"Ġpre":370,"ĠThis":371,"Ġbit":372,"'ve":373,"ace":374,"Ġgood":375,"ig":376,"Ġoff":377,"Ġover":378,"Ġse":379,"ation":380,"ose":381,"Ġlot":382,"Ġknow":383,"Ġkind":384,"ther":385,"Ġstart":386,"Ġke":387,"Ġde":388,"Ġwould":389,"ect":390,"round":391,"and":392,"ore":393,"iff":394,"Ġbr":395,"ĠM":396,"ist":397,"Ġact":398,"hing":399,"Ġalso":400,"ich":401,"ĠWh":402,"Ġtwo":403,"ast":404,"um":405,"gain":406,"Ġdiff":407,"oc":408,"ree":409,"omet":410,"Ġother":411,"Ġkeep":412,"reat":413,"Ġtime":414,"ire":415,"Ġnow":416,"ĠIf":417,"ft":418,"lf":419,"ven":420,"Ġtal":421,"Ġdiffere":422,"Ġgot":423,"Ġwhere":424,"Ġdr":425,"ak":426,"Ġbas":427,"Ġthese":428,"way":429,"act":430,"ment":431,"Ġwhich":432,"ater":433,"Ġbl":434,"ong":435,"ol":436,"ĠC":437,"ite":438,"Ġnice":439,"irst":440,"uch":441,"ull":442,"Ġside":443,"ass":444,"Ġpe":445,"eel":446,"Ġhas":447,"Ġv":448,"ĠF":449,"Ġball":450,"ach":451,"Ġpart":452,"Ġad":453,"Ġactually":454,"Ġsomet":455,"Ġimp":456,"Ġaround":457,"Ġdifferent":458,"age":459,"Ġagain":460,"Ġhair":461,"oot":462,"ple":463,"Ġcome":464,"Ġpr":465,"Ġher":466,"Ġthings":467,"ĠL":468,"rough":469,"em":470,"ĠD":471,"ody":472,"Ġshould":473,"Ġwork":474,"ĠG":475,"he":476,"one":477,"Ġthrough":478,"ne":479,"xt":480,"Ġen":481,"Ġevery":482,"Ġsl":483,"\"\"":484,"urn":485,"Ġfirst":486,"Ġlet":487,"ff":488,"Ġbu":489,"ople":490,"Ġmuch":491,"are":492,"per":493,"Ġfe":494,"ag":495,"ward":496,"Ġpeople":497,"ber":498,"Ġshow":499,"iz":500,"Ġby":501,"Ġmay":502,"ink":503,"lor":504,"ĠBut":505,"ie":506,"ish":507,"int":508,"ood":509,"able":510,"Ġthree":511,"Ġtheir":512,"yp":513,"Ġsm":514,"ue":515,"Ġsk":516,"ĠThat":517,"nder":518,"Ġtop":519,"Ġsc":520,"Ġsu":521,"ush":522,"ble":523,"les":524,"Ġbo":525,"Ġtry":526,"ĠP":527,"Ġwas":528,"ies":529,"Ġdoes":530,"ty":531,"Ġcut":532,"Ġqu":533,"Ġwater":534,"Ġcolor":535,"Ġtyp":536,"Ġimport":537,"ition":538,"Ġsomething":539,"Ġtalk":540,"old":541,"row":542,"ving":543,"lp":544,"ves":545,"Ġstr":546,"ail":547,"el":548,"atch":549,"Ġro":550,"Ġhelp":551,"Ġimportant":552,"Ġbot":553,"ough":554,"Ġgl":555,"Ġthose":556,"aking":557,"ĠIn":558,"Ġar":559,"ens":560,"Ġeven":561,"get":562,"other":563,"Ġpi":564,"Ġdoing":565,"Ġcall":566,"kay":567,"Ġstep":568,"ĠJ":569,"Ġusing":570,"Ġcont":571,"Ġtoo":572,"Ġleg":573,"os":574,"Ġsay":575,"Ġcle":576,"Ġnext":577,"Ġfind":578,"rap":579,"ĠR":580,"ady":581,"thing":582,"Ġturn":583,"Ġsame":584,"Ġwell":585,"Ġadd":586,"Ġbody":587,"ous":588,"Ġbet":589,"ĠThere":590,"end":591,"ance":592,"ry":593,"side":594,"ways":595,"Ġman":596,"ock":597,"be":598,"Ġsa":599,"ity":600,"Ġmight":601,"Ġac":602,"Ġeas":603,"ĠE":604,"ile":605,"Ġrem":606,"Ġplay":607,"head":608,"Ġpiec":609,"og":610,"Ġcould":611,"ase":612,"fore":613,"Ġlong":614,"Ġsw":615,"Ġwho":616,"Ġmost":617,"ound":618,"Ġop":619,"Ġunder":620,"Ġleft":621,"Ġshe":622,"Ġbasic":623,"Ġmove":624,"Ġ1":625,"Ġcar":626,"Ġset":627,"Ġgive":628,"Ġalways":629,"ĠWhat":630,"Ġgu":631,"ix":632,"Ġthan":633,"Ġpull":634,"Ġam":635,"self":636,"ial":637,"Ġgreat":638,"ms":639,"ans":640,"Ġper":641,"ove":642,"Ġahead":643,"Ġlight":644,"ark":645,"Ġline":646,"Ġend":647,"Ġhead":648,"Ġapp":649,"eck":650,"Ġplace":651,"Ġfeel":652,"Ġbefore":653,"ont":654,"ade":655,"av":656,"ub":657,"Ġbig":658,"Ġey":659,"Ġthink":660,"Ġhold":661,"nce":662,"Ġpoint":663,"Ġgr":664,"Ġstra":665,"ular":666,"ĠHi":667,"up":668,"ale":669,"ĠThey":670,"akes":671,"Ġcomp":672,"ions":673,"een":674,"Ġcou":675,"Ġskin":676,"tty":677,"ud":678,"Ġfoot":679,"erson":680,"Ġfour":681,"Ġanother":682,"ars":683,"Ġsim":684,"Ġpain":685,"Ġbring":686,"Ġhigh":687,"Ġno":688,"Ġclean":689,"orm":690,"vel":691,"Ġfront":692,"ĠWhen":693,"du":694,"ning":695,"ĠAl":696,"Ġpretty":697,"Ġonce":698,"Ġbott":699,"Ġstraight":700,"ild":701,"Ġperson":702,"Ġtype":703,"Ġstre":704,"ib":705,"Ġcor":706,"cess":707,"itch":708,"Ġhands":709,"ax":710,"Ġrun":711,"Ġsmall":712,"ower":713,"day":714,"der":715,"Ġday":716,"Ġcre":717,"air":718,"ond":719,"Ġdra":720,"Ġhis":721,"ise":722,"Ġpress":723,"ize":724,"ck":725,"Ġforward":726,"Ġdone":727,"Ġwr":728,"ips":729,"gether":730,"Ġopen":731,"Ġbre":732,"Ġcalled":733,"ever":734,"ner":735,"aper":736,"Ġhard":737,"Ġpiece":738,"Ġtogether":739,"Ġable":740,"fter":741,"ost":742,"Ġsec":743,"ĠOkay":744,"Ġpos":745,"ily":746,"atter":747,"ang":748,"Ġdoesn":749,"ier":750,"ious":751,"ated":752,"ked":753,"Ġgetting":754,"Ġdef":755,"Ġtell":756,"Ġmaybe":757,"imes":758,"ĠOne":759,"ell":760,"Ġonly":761,"ors":762,"ump":763,"Ġmin":764,"Ġstill":765,"rop":766,"ave":767,"ĠK":768,"ĠAs":769,"Ġbeen":770,"Ġbest":771,"ably":772,"Ġext":773,"mon":774,"Ġed":775,"ath":776,"Ġfeet":777,"Ġhim":778,"Ġph":779,"ĠThen":780,"Ġdraw":781,"Ġdis":782,"ember":783,"ric":784,"Ġ\"\"":785,"Ġinside":786,"..":787,"Ġeach":788,"ool":789,"Ġhalf":790,"ross":791,"Ġser":792,"Ġmany":793,"Ġhapp":794,"ĠSt":795,"Ġpaper":796,"Ġbottom":797,"Ġposition":798,"Ġoil":799,"Ġname":800,"Ġrep":801,"Ġdog":802,"ign":803,"Ġtoday":804,"Ġroll":805,"bably":806,"Ġarea":807,"ange":808,"amp":809,"Ġused":810,"ful":811,"ob":812,"tain":813,"ash":814,"Ġbuy":815,"Ġthrow":816,"Ġfin":817,"Ġaway":818,"Ġcard":819,"Ġtimes":820,"Ġdid":821,"ape":822,"Ġface":823,"red":824,"Ġprobably":825,"dle":826,"ical":827,"oop":828,"hale":829,"Ġready":830,"Ġprodu":831,"Ġdry":832,"ank":833,"arn":834,"ouch":835,"ating":836,"Ġcent":837,"Ġstand":838,"eep":839,"Ġclip":840,"Ġcour":841,"Ġreal":842,"lic":843,"Ġhad":844,"Ġstick":845,"Ġ2":846,"Ġcr":847,"Ġrec":848,"Ġhit":849,"Ġres":850,"Ġcomes":851,"te":852,"Ġ\"":853,"Ġfive":854,"ĠAn":855,"Ġanything":856,"Ġglass":857,"ient":858,"ÂĢ":859,"Ã¢":860,"Ġgoes":861,"Ġyourself":862,"Ġbrush":863,"Ġtalking":864,"ÂĢÂ":865,"de":866,"Ġve":867,"Ġfun":868,"ĠLet":869,"Ġfing":870,"Ġmaking":871,"Ġun":872,"Ġcoming":873,"ÂĢÂĻ":874,"Ġsqu":875,"Ġsit":876,"Ġplant":877,"Ġpaint":878,"Ġafter":879,"Ġtouch":880,"Ġbetter":881,"ĠU":882,"iss":883,"Ġel":884,"Ġpract":885,"ount":886,"Ġcare":887,"Ġshot":888,"Ġeasy":889,"uff":890,"ese":891,"Ġob":892,"Ġinst":893,"ult":894,"Ġnum":895,"Ġwhite":896,"Ġlift":897,"Ġlooking":898,"Ġenough":899,"oth":900,"Ġwere":901,"Ġexp":902,"Ġworking":903,"Ġeye":904,"Ġdec":905,"Ġeverything":906,"Ġproper":907,"ress":908,"Ġpush":909,"ction":910,"ope":911,"Ġbasically":912,"Ġsecond":913,"ween":914,"Ġmade":915,"Ġbetween":916,"Ġdes":917,"ically":918,"Ġwhile":919,"Ġrel":920,"Ġnew":921,"Ġatt":922,"wards":923,"Ġflat":924,"unch":925,"body":926,"oll":927,"wn":928,"Ġsy":929,"Ġbeing":930,"Ġstore":931,"ines":932,"Ġim":933,"ird":934,"Ġcover":935,"Ġusually":936,"ĠFor":937,"Ġremember":938,"fort":939,"Ġsur":940,"arm":941,"Ġinch":942,"Ġlooks":943,"Ġminut":944,"ection":945,"Ġfew":946,"tch":947,"Ġstay":948,"Ġcons":949,"als":950,"Ġye":951,"ings":952,"Ġcourse":953,"oor":954,"Ġmid":955,"Ġbase":956,"Ġcouple":957,"ives":958,"right":959,"vious":960,"ows":961,"gth":962,"ready":963,"Ġsize":964,"Ġpass":965,"Ġdire":966,"Ġalready":967,"Ġten":968,"ĠJust":969,"Ġguy":970,"Ġcenter":971,"ike":972,"Ġfull":973,"Ġear":974,"ason":975,"ĠOnce":976,"Ġsometimes":977,"ling":978,"Ġmakes":979,"Ġjump":980,"ither":981,"reen":982,"Ġpic":983,"Ġits":984,"Ġroom":985,"Ġproduct":986,"iv":987,"ible":988,"Ġfish":989,"Ġdep":990,"Ġkne":991,"ments":992,"Ġtrying":993,"Ġwhole":994,"Ġstretch":995,"Ġsn":996,"irt":997,"oose":998,"Ġpractice":999,"Ġlearn":1000,"Ġboth":1001,"Ġlegs":1002,"--":1003,"Ġokay":1004,"Ġlast":1005,"Ġele":1006,"ia":1007,"Ġcur":1008,"Ġhome":1009,"Ġsix":1010,"Ġide":1011,"Ġhor":1012,"Ġmus":1013,"ence":1014,"Ġbeh":1015,"itting":1016,"wh":1017,"Ġkick":1018,"ially":1019,"vent":1020,"Ġ3":1021,"Ġfar":1022,"Ġspe":1023,"ary":1024,"Ġreg":1025,"ger":1026,"Ġsort":1027,"Ġtool":1028,"Ġcer":1029,"Ġquick":1030,"Ġpick":1031,"Ġcomple":1032,"Ġmiddle":1033,"most":1034,"Ġlar":1035,"anc":1036,"Ġeither":1037,"rab":1038,"Ġclose":1039,"gle":1040,"atur":1041,"Ġcup":1042,"Ġground":1043,"Ġwhatever":1044,"Ġcomfort":1045,"Ġspec":1046,"ations":1047,"Ġnumber":1048,"Ġinf":1049,"Ġlip":1050,"Ġpot":1051,"Ġneck":1052,"Ġorder":1053,"Ġboard":1054,"Ġperf":1055,"ton":1056,"Ġind":1057,"Ġbel":1058,"Ġwear":1059,"Ġweight":1060,"Ġmeas":1061,"gg":1062,"Ġwind":1063,"Ġopp":1064,"Ġdet":1065,"ĠAgain":1066,"Ġunt":1067,"str":1068,"Ġways":1069,".\"":1070,"iqu":1071,"res":1072,"Ġbag":1073,"erc":1074,"Ġmix":1075,"Ġtea":1076,"cle":1077,"ied":1078,"ats":1079,"Ġcase":1080,"Ġsupp":1081,"Ġlay":1082,"ĠSome":1083,"Ġmeans":1084,"Ġshoulder":1085,"Ġarms":1086,"Ġapply":1087,"Ġknees":1088,"fe":1089,"Ġz":1090,"Ġtight":1091,"Ġcreat":1092,"Ġdrop":1093,"Ġbeg":1094,"Ġpartic":1095,"Ġstring":1096,"aut":1097,"ograp":1098,"oy":1099,"ron":1100,"ouse":1101,"Ġgame":1102,"Ġmas":1103,"ord":1104,"Ġtypes":1105,"read":1106,"Ġwood":1107,"Ġwhy":1108,"Ġproble":1109,"to":1110,"Ġlow":1111,"Ġwheel":1112,"Ġrest":1113,"Ġchest":1114,"Ġuntil":1115,"Ġwire":1116,"ates":1117,"ature":1118,"Ġcatch":1119,"ety":1120,"ample":1121,"Ġmean":1122,"ĠMy":1123,"viously":1124,"Ġbegin":1125,"ual":1126,"ather":1127,"Ġreason":1128,"ĠThese":1129,"ift":1130,"Ġinc":1131,"Ġinter":1132,"Ġdefin":1133,"Ġair":1134,"ĠMake":1135,"neath":1136,"ten":1137,"Ġwax":1138,"Ġown":1139,"Ġbook":1140,"Ġcause":1141,"Ġmil":1142,"Ġmark":1143,"Ġhaving":1144,"Ġprocess":1145,"Ġfloor":1146,"ĠCh":1147,"Ġunderneath":1148,"hy":1149,"Ġes":1150,"Ġbreat":1151,"Ġloc":1152,"enc":1153,"Ġmoving":1154,"Ġslow":1155,"Ġminutes":1156,"ole":1157,"ative":1158,"Ġcir":1159,"Ġcomfortable":1160,"mer":1161,"uck":1162,"Ġfil":1163,"Ġra":1164,"chn":1165,"Ġoutside":1166,"Ġshoulders":1167,"Ġacc":1168,"Ġbreak":1169,"Ġparticular":1170,"Ġmot":1171,"Ġrid":1172,"ture":1173,"Ġold":1174,"Ġnatur":1175,"Ġsty":1176,"Ġchild":1177,"ĠHe":1178,"ffect":1179,"Ġcontro":1180,"Ġsimple":1181,"Ġdepend":1182,"ĠV":1183,"Ġpin":1184,"Ġcomb":1185,"Ġexerc":1186,"Ġblack":1187,"Ġcolors":1188,"Ġedge":1189,"ping":1190,"ply":1191,"Ġwal":1192,"Ġstop":1193,"Ġseg":1194,"umb":1195,"Ġbox":1196,"Ġremove":1197,"Ġpieces":1198,"Ġhorse":1199,"Ġbehind":1200,"ject":1201,"Ġtra":1202,"Ġfood":1203,"Ġfound":1204,"ory":1205,"Ġgets":1206,"Ġfinish":1207,"Ġmeasure":1208,"ug":1209,"Ġgrow":1210,"Ġpur":1211,"Ġlevel":1212,"Ġcoll":1213,"Ġesp":1214,"Ġthough":1215,"Ġlower":1216,"Ġmed":1217,"ides":1218,"Ġtrain":1219,"Ġexample":1220,"Ġtechn":1221,"Ġposs":1222,"Ġprot":1223,"Ġpressure":1224,"Ġphot":1225,"Ġcertain":1226,"ention":1227,"astic":1228,"Ġvar":1229,"ĠGood":1230,"Ġarm":1231,"cles":1232,"Ġsand":1233,"Ġwatch":1234,"ĠAll":1235,"Ġspr":1236,"Ġbuild":1237,"ĠAlright":1238,"Ġthin":1239,"Ġpop":1240,"omm":1241,"ĠWell":1242,"Ġcreate":1243,"ts":1244,"Ġwall":1245,"Ġfine":1246,"Ġsomeone":1247,"itely":1248,"Ġsaid":1249,"Ġdisc":1250,"und":1251,"Ġtable":1252,"Ġtaking":1253,"Ġtowards":1254,"Ġble":1255,"Ġhot":1256,"Ġdi":1257,"eth":1258,"Ġeight":1259,"Ġalmost":1260,"Ġwarm":1261,"Ġfire":1262,"its":1263,"ener":1264,"Ġspin":1265,"Ġspace":1266,"ness":1267,"erm":1268,"Ġgrab":1269,"Ġbeaut":1270,"Ġstuff":1271,"Ġche":1272,"oney":1273,"ĠAnother":1274,"where":1275,"Ġmain":1276,"ength":1277,"Ġent":1278,"Ġhouse":1279,"Ġgreen":1280,"Ġdark":1281,"Ġform":1282,"Ġcheck":1283,"Ġputting":1284,"avor":1285,"Ġdefinitely":1286,"ze":1287,"ider":1288,"ecially":1289,"Ġdesign":1290,"Ġmilk":1291,"hic":1292,"ian":1293,"ren":1294,"Ġfill":1295,"Ġlove":1296,"Ġnorm":1297,"ecause":1298,"Ġblock":1299,"Ġswitch":1300,"Ġeyes":1301,"Ġsurf":1302,"Ġregular":1303,"Ġsegment":1304,"ah":1305,"Ġwa":1306,"nds":1307,"Ġpad":1308,"Ġfree":1309,"Ġdist":1310,"Ġlength":1311,"Ġonto":1312,"Ġred":1313,"Ġwithout":1314,"Ġleave":1315,"Ġiron":1316,"Ġbird":1317,"ense":1318,"Ġpost":1319,"Ġloop":1320,"Ġnail":1321,"erest":1322,"Ġnever":1323,"ĠBecause":1324,"Ġinterest":1325,"Ġacross":1326,"ĠAlso":1327,"Ġidea":1328,"Ġcomplete":1329,"'d":1330,"Ġtip":1331,"Ġsch":1332,"Ġrub":1333,"Ġangle":1334,"Ġalong":1335,"Ġlonger":1336,"wel":1337,"Ġtail":1338,"Ġcook":1339,"Ġhook":1340,"Ġlines":1341,"Ġref":1342,"Ġchoose":1343,"Ġamount":1344,"Ġsimply":1345,"Ġcontrol":1346,"bs":1347,"Ġthick":1348,"Ġwon":1349,"Ġbra":1350,"Ġhip":1351,"ĠTod":1352,"stem":1353,"Ġbutton":1354,"Ġcomm":1355,"Ġexact":1356,"Ġflow":1357,"ĠFirst":1358,"ri":1359,"iness":1360,"Ġgives":1361,"Ġfall":1362,"Ġdoor":1363,"ĠShe":1364,"Ġjob":1365,"ents":1366,"Ġchange":1367,"Ġknee":1368,"ĠOr":1369,"Ġexper":1370,"Ġsystem":1371,"Ġphotograp":1372,"tion":1373,"Ġtreat":1374,"Ġsuch":1375,"Ġfoll":1376,"Ġless":1377,"Ġheav":1378,"Ġexhale":1379,"Ġslight":1380,"Ġeasier":1381,"Ġ4":1382,"Ġcat":1383,"Ġjack":1384,"Ġshort":1385,"Ġseven":1386,"Ġdeal":1387,"Ġfinger":1388,"Ġfingers":1389,"Ġobviously":1390,"Ġnatural":1391,"Ġtechniqu":1392,"Ġhole":1393,"Ġgar":1394,"Ġmass":1395,"Ġste":1396,"Ġallow":1397,"ĠBe":1398,"Ġworks":1399,"Ġsal":1400,"Ġbar":1401,"Ġhour":1402,"vers":1403,"ility":1404,"Ġlea":1405,"Ġhappens":1406,"Ġrecomm":1407,"Ġexercise":1408,"Ġrecommend":1409,"dd":1410,"ges":1411,"ract":1412,"Ġtest":1413,"Ġav":1414,"ether":1415,"acter":1416,"Ġnotice":1417,"ĠNe":1418,"Ġtemp":1419,"Ġtwist":1420,"ĠHere":1421,"Ġkeeping":1422,"Ġprint":1423,"cer":1424,"Ġwet":1425,"Ġfab":1426,"Ġfold":1427,"ids":1428,"Ġheat":1429,"Ġword":1430,"ĠDo":1431,"ef":1432,"acing":1433,"Ġround":1434,"Ġshoot":1435,"Ġtrans":1436,"Ġclos":1437,"ĠHow":1438,"Ġperfect":1439,"Ġespecially":1440,"gr":1441,"oon":1442,"Ġtire":1443,"Ġcross":1444,"Ġfoc":1445,"Ġlo":1446,"uring":1447,"Ġchar":1448,"Ġplan":1449,"ension":1450,"gar":1451,"Ġsun":1452,"Ġsection":1453,"Ġfast":1454,"Ġmoney":1455,"ening":1456,"Ġeffect":1457,"Ġstro":1458,"Ġshape":1459,"iful":1460,"Ġextra":1461,"Ġyears":1462,"Ġpicture":1463,"Ġstyle":1464,"ĠToday":1465,"bing":1466,"vice":1467,"Ġtape":1468,"Ġbus":1469,"Ġcool":1470,"Ġmon":1471,"Ġitself":1472,"Ġins":1473,"ĠTo":1474,"Ġquite":1475,"Ġrunning":1476,"ks":1477,"Ġbal":1478,"Ġpatter":1479,"Ġcond":1480,"Ġspot":1481,"Ġtrick":1482,"erg":1483,"Ġmatch":1484,"ered":1485,"Ġroot":1486,"ific":1487,"Ġcoat":1488,"Ġdeg":1489,"Ġblue":1490,"ooth":1491,"ages":1492,"Ġstrong":1493,"Ġclear":1494,"Ġvehic":1495,"Ġfocus":1496,"Ġpattern":1497,"bo":1498,"Ġcap":1499,"Ġhips":1500,"lease":1501,"Ġdoll":1502,"ently":1503,"Ġcutting":1504,"Ġcontin":1505,"Ġrelax":1506,"Ġspeed":1507,"Ġvari":1508,"Ġfabric":1509,"kes":1510,"less":1511,"Ġsing":1512,"Ġheel":1513,"Ġpow":1514,"ĠSomet":1515,"Ġrope":1516,"Ġje":1517,"Ġlife":1518,"Ġsoft":1519,"ters":1520,"Ġkey":1521,"Ġhelps":1522,"Ġfollow":1523,"ouble":1524,"rew":1525,"Ġbad":1526,"Ġever":1527,"Ġprof":1528,"Ġcloth":1529,"ately":1530,"Ġstarted":1531,"Ġdirect":1532,"Ġtakes":1533,"Ġsle":1534,"Ġpower":1535,"Ġfit":1536,"Ġfact":1537,"Ġdeep":1538,"Ġmind":1539,"Ġones":1540,"aces":1541,"enty":1542,"Ġask":1543,"Ġplastic":1544,"Ġcommon":1545,"Ġbecome":1546,"...":1547,"Ġoppos":1548,"ience":1549,"Ġap":1550,"Ġpair":1551,"Ġwhether":1552,"Ġleast":1553,"ife":1554,"Ġstarting":1555,"Ġwash":1556,"Ġlarge":1557,"Ġbeautiful":1558,"Ġsurface":1559,"ues":1560,"Ġbat":1561,"Ġgener":1562,"Ġfore":1563,"irr":1564,"Ġsol":1565,"Ġsomebody":1566,"Ġclass":1567,"ĠDon":1568,"Ġsmooth":1569,"Ġslightly":1570,"00":1571,"ces":1572,"rect":1573,"lex":1574,"ustom":1575,"Ġdemon":1576,"Ġdrill":1577,"Ġart":1578,"Ġelb":1579,"Ġcareful":1580,"ium":1581,"me":1582,"Ġ5":1583,"Ġwin":1584,"Ġnight":1585,"ession":1586,"Ġneeds":1587,"Ġcorrect":1588,"Ġwrist":1589,"Ġelse":1590,"Ġvehicle":1591,"oe":1592,"outh":1593,"roup":1594,"Ġclay":1595,"Ġconf":1596,"Ġdrink":1597,"Ġagainst":1598,"Ġcards":1599,"Ġdirection":1600,"Ġpossible":1601,"Ġdemonstr":1602,"Ġthumb":1603,"Ġcast":1604,"Ġfam":1605,"Ġfur":1606,"Ġlater":1607,"Ġread":1608,"ĠNot":1609,"Ġtrack":1610,"ield":1611,"Ġimage":1612,"Ġguys":1613,"undred":1614,"Ġbusiness":1615,"ball":1616,"iving":1617,"Ġsides":1618,"Ġcustom":1619,"Ġhoop":1620,"Ġgard":1621,"Ġoften":1622,"Ġglue":1623,"Ġcorner":1624,"Ġsmaller":1625,"Ġmassage":1626,"Ġcondition":1627,"ead":1628,"ng":1629,"Ġhundred":1630,"Ġpunch":1631,"Ġmatter":1632,"Ġheal":1633,"Ġboat":1634,"Ġmuscles":1635,"Ġbreath":1636,"joy":1637,"lish":1638,"Ġtooth":1639,"Ġburn":1640,"Ġcam":1641,"Ġport":1642,"Ġclub":1643,"Ġdifference":1644,"Ġsugar":1645,"cket":1646,"Ġexactly":1647,"cent":1648,"Ġ8":1649,"Ġca":1650,"Ġpay":1651,"ork":1652,"Ġinv":1653,"ved":1654,"Ġbend":1655,"Ġstud":1656,"ĠOn":1657,"Ġclim":1658,"Ġhappen":1659,"Ġveget":1660,"Ġdepending":1661,"Ġwalk":1662,"Ġsingle":1663,"ĠSometimes":1664,"az":1665,"Ġwide":1666,"iting":1667,"uss":1668,"ics":1669,"ices":1670,"ecess":1671,"ĠOK":1672,"Ġspine":1673,"Ġprep":1674,"ĠFr":1675,"Ġslide":1676,"Ġmovement":1677,"ients":1678,"Ġconsider":1679,"Ġslowly":1680,"Ġprotect":1681,"Ġcompletely":1682,"Ġpowder":1683,"io":1684,"Ġsign":1685,"Ġsitting":1686,"Ġgroup":1687,"Ġpour":1688,"Ġfre":1689,"Ġmirr":1690,"ĠWith":1691,"aste":1692,"ully":1693,"Ġenjoy":1694,"\"\"\"":1695,"ffee":1696,"Ġproperly":1697,"Ġinform":1698,"Ġnormal":1699,"line":1700,"ted":1701,"ince":1702,"Ġsound":1703,"Ġben":1704,"Ġmater":1705,"ones":1706,"Ġforth":1707,"Ġpose":1708,"ĠGo":1709,"Ġsub":1710,"Ġproblem":1711,"Ġmaterial":1712,"era":1713,"Ġdouble":1714,"Ġnecess":1715,"imm":1716,"Ġheart":1717,"Ġframe":1718,"Ġstarts":1719,"Ġscr":1720,"Ġsaf":1721,"Ġcomput":1722,"Ġcount":1723,"Ġpainting":1724,"velop":1725,"Ġproducts":1726,"Ġheavy":1727,"Ġtemper":1728,"Ġpitch":1729,"arp":1730,"Ġconn":1731,"Ġdevelop":1732,"Ġblank":1733,"Ġparts":1734,"Ġenerg":1735,"Ġedges":1736,"Ġdidn":1737,"Ġsquee":1738,"Ġexpl":1739,"Ġapart":1740,"cc":1741,"any":1742,"Ġbell":1743,"Ġrock":1744,"Ġant":1745,"Ġnothing":1746,"Ġlead":1747,"Ġtrip":1748,"Ġteach":1749,"Ġteeth":1750,"Ġimpro":1751,"Ġquest":1752,"Ġblend":1753,"Ġtechnique":1754,"ket":1755,"Ġtoes":1756,"Ġcal":1757,"Ġpar":1758,"Ġequ":1759,"aster":1760,"ute":1761,"Ġcoffee":1762,"Ġteam":1763,"Ġbelt":1764,"Ġschool":1765,"Ġinformation":1766,"fully":1767,"oes":1768,"Ġbatter":1769,"Ġgolf":1770,"Ġinhale":1771,"lect":1772,"irl":1773,"room":1774,"Ġknot":1775,"ands":1776,"Ġbrown":1777,"Ġadv":1778,"iew":1779,"Ġswing":1780,"Ġplants":1781,"Ġmotion":1782,"Ġenergy":1783,"Ġfo":1784,"ushing":1785,"ames":1786,"Ġfrie":1787,"ipe":1788,"ĠBr":1789,"quire":1790,"Ġtend":1791,"Ġtwenty":1792,"ieve":1793,"ensive":1794,"Ġgrind":1795,"Ġinches":1796,"Ġproblems":1797,"Ġsteam":1798,"aw":1799,"com":1800,"Ġ'":1801,"Ġwo":1802,"Ġtowel":1803,"Ġfig":1804,"Ġmar":1805,"Ġwee":1806,"veral":1807,"Ġareas":1808,"Ġknife":1809,"Ġpres":1810,"Ġseveral":1811,"Ġkinds":1812,"Ġvide":1813,"Ġdays":1814,"Ġseries":1815,"Ġbalance":1816,"Ġprofession":1817,"Ġmirror":1818,"mb":1819,"oh":1820,"pl":1821,"pr":1822,"Ġ7":1823,"rees":1824,"Ġbul":1825,"Ġbike":1826,"Ġhang":1827,"Ġpat":1828,"Ġret":1829,"Ġblade":1830,"Ġeng":1831,"ĠRem":1832,"Ġtravel":1833,"Ġtraining":1834,"Ġhealth":1835,"Ġsafety":1836,"Ġtemperature":1837,"ear":1838,"oom":1839,"ys":1840,"Ġess":1841,"Ġthread":1842,"ins":1843,"Ġice":1844,"Ġbow":1845,"Ġnose":1846,"Ġrequire":1847,"Ġju":1848,"stand":1849,"Ġmod":1850,"ĠYour":1851,"tern":1852,"olog":1853,"xture":1854,"Ġeasily":1855,"Ġsquare":1856,"Ġelect":1857,"Ġgarden":1858,"Ġblanket":1859,"dr":1860,"just":1861,"inal":1862,"ator":1863,"Ġcra":1864,"Ġmouth":1865,"Ġrelease":1866,"urt":1867,"ables":1868,"aps":1869,"ĠMost":1870,"Ġbasket":1871,"Ġplaying":1872,"Ġwrong":1873,"Ġlocal":1874,"Ġdiscuss":1875,"Ġfigure":1876,"ped":1877,"ware":1878,"Ġpan":1879,"ities":1880,"arily":1881,"icking":1882,"Ġeat":1883,"Ġstone":1884,"Ġstitch":1885,"ĠTake":1886,"Ġring":1887,"ades":1888,"Ġchair":1889,"ocol":1890,"Ġvis":1891,"Ġaccess":1892,"ĠStep":1893,"Ġattach":1894,"Ġcharacter":1895,"Ġfurther":1896,"Ġcustomer":1897,"Ġcamera":1898,"cl":1899,"na":1900,"pect":1901,"wise":1902,"Ġsince":1903,"Ġwine":1904,"Ġtoe":1905,"ery":1906,"led":1907,"Ġstrap":1908,"Ġrout":1909,"Ġjo":1910,"iding":1911,"Ġprevent":1912,"Ġval":1913,"Ġscore":1914,"Ġcontact":1915,"Ġattention":1916,"Ġtools":1917,"Ġlips":1918,"Ġcircle":1919,"Ġentire":1920,"Ġhours":1921,"Ġcontinue":1922,"Ġdemonstrate":1923,"ĠRemember":1924,"iver":1925,"uc":1926,"Ġ(":1927,"Ġthird":1928,"Ġwrap":1929,"Ġhitting":1930,"Ġgently":1931,"ited":1932,"ons":1933,"omen":1934,"irty":1935,"Ġwanted":1936,"oos":1937,"Ġupper":1938,"Ġmoist":1939,"Ġchick":1940,"Ġbutter":1941,"Ġblood":1942,"Ġskill":1943,"Ġcream":1944,"Ġlarger":1945,"Ġdetail":1946,"Ġleaves":1947,"Ġopposite":1948,"Ġpack":1949,"Ġiss":1950,"Ġreach":1951,"ants":1952,"Ġsharp":1953,"Ġkids":1954,"ept":1955,"Ġchain":1956,"Ġchang":1957,"ĠOk":1958,"Ġseat":1959,"Ġlots":1960,"Ġadjust":1961,"Ġeverybody":1962,"Ġslip":1963,"ized":1964,"Ġsciss":1965,"Ġpersonal":1966,"ĠKeep":1967,"Ġinstead":1968,"Ġspecial":1969,"Ġsupport":1970,"Ġspray":1971,"Ġgarlic":1972,"board":1973,"ced":1974,"ey":1975,"fer":1976,"ior":1977,"oss":1978,"yl":1979,"Ġag":1980,"oun":1981,"ounce":1982,"Ġdam":1983,"Ġmat":1984,"Ġmag":1985,"arch":1986,"ĠSh":1987,"Ġrice":1988,"Ġass":1989,"Ġcore":1990,"Ġclock":1991,"Ġworry":1992,"Ġflip":1993,"Ġflavor":1994,"Ġshowing":1995,"Ġcarry":1996,"ĠUn":1997,"resh":1998,"Ġcomputer":1999,".\"\"\"":2000,"au":2001,"Ġtor":2002,"Ġfavor":2003,"Ġfield":2004,"Ġlock":2005,"Ġmic":2006,"Ġnut":2007,"Ġrot":2008,"Ġshop":2009,"Ġchocol":2010,"ify":2011,"Ġworld":2012,"Ġneedle":2013,"Ġactual":2014,"Ġparty":2015,"Ġsmo":2016,"Ġstrip":2017,"Ġpulling":2018,"Ġdrawing":2019,"Ġsitu":2020,"Ġpurp":2021,"Ġmedium":2022,"Ġprofessional":2023,"ngth":2024,"ule":2025,"Ġter":2026,"Ġhol":2027,"Ġpen":2028,"Ġlin":2029,"Ġland":2030,"Ġloose":2031,"Ġbed":2032,"Ġwithin":2033,"Ġabs":2034,"Ġflash":2035,"Ġhandle":2036,"Ġdiffic":2037,"Ġscrew":2038,"Ġquart":2039,"Ġsteps":2040,"Ġcontain":2041,"oga":2042,"Ġpoints":2043,"Ġstrength":2044,"Ġsnow":2045,"Ġinteresting":2046,"Ġinvol":2047,"Ġchicken":2048,"Ġhope":2049,"Ġfat":2050,"Ġflex":2051,"Ġduring":2052,"Ġlist":2053,"let":2054,"Ġorange":2055,"imp":2056,"epar":2057,"Ġcold":2058,"sol":2059,"ĠMay":2060,"Ġturning":2061,"Ġplayers":2062,"Ġswe":2063,"Ġholding":2064,"Ġhigher":2065,"Ġcleaning":2066,"Ġcorn":2067,"Ġinstall":2068,"Ġthinking":2069,"Ġsleep":2070,"Ġbelly":2071,"car":2072,"gan":2073,"light":2074,"uct":2075,"Ġtank":2076,"Ġaud":2077,"ination":2078,"Ġtom":2079,"Ġpal":2080,"Ġdress":2081,"Ġmach":2082,"Ġshr":2083,"Ġhear":2084,"ational":2085,"ĠCl":2086,"ĠEvery":2087,"Ġharder":2088,"Ġstanding":2089,"Ġquickly":2090,"Ġspecific":2091,"Ġcollar":2092,"Ġwaist":2093,"ĠNext":2094,"Ġbenef":2095,"Ġaut":2096,"Ġsepar":2097,"Ġfresh":2098,"Ġmom":2099,"itive":2100,"Ġisn":2101,"Ġegg":2102,"Ġstain":2103,"ases":2104,"ĠAfter":2105,"Ġcost":2106,"Ġanywhere":2107,"Ġsew":2108,"Ġdrive":2109,"ĠRight":2110,"Ġ10":2111,"Ġsetting":2112,"Ġgrip":2113,"Ġdecor":2114,"Ġyear":2115,"Ġfoundation":2116,"Ġavo":2117,"Ġelbow":2118,"Ġwonder":2119,"ex":2120,"man":2121,"tim":2122,"top":2123,"Ġing":2124,"Ġterm":2125,"Ġyard":2126,"Ġbab":2127,"Ġpushing":2128,"Ġfly":2129,"Ġfair":2130,"Ġmet":2131,"ets":2132,"Ġbead":2133,"sel":2134,"Ġtalked":2135,"Ġsave":2136,"Ġfilm":2137,"Ġchildren":2138,"Ġfamily":2139,"Ġclimbing":2140,"Ġchocolate":2141,"Ġholes":2142,"aj":2143,"back":2144,"con":2145,"ny":2146,"uce":2147,"Ġtips":2148,"Ġbro":2149,"Ġgone":2150,"Ġevent":2151,"ooked":2152,"Ġshap":2153,"Ġorig":2154,"ilar":2155,"Ġcho":2156,"Ġallows":2157,"ĠBas":2158,"Ġexc":2159,"Ġproject":2160,"unk":2161,"Ġflu":2162,"Ġself":2163,"Ġunderstand":2164,"Ġguit":2165,"Ġsecure":2166,"Ġextend":2167,"Ġbeginning":2168,"meric":2169,"Ġflowers":2170,"Ġload":2171,"iod":2172,"lier":2173,"Ġtherap":2174,"Ġbunch":2175,"Ġlid":2176,"Ġmention":2177,"Ġgold":2178,"orn":2179,"Ġink":2180,"ĠAmeric":2181,"Ġrod":2182,"Ġwants":2183,"Ġliqu":2184,"Ġank":2185,"Ġorgan":2186,"Ġmold":2187,"Ġnear":2188,"iling":2189,"Ġchop":2190,"Ġdrib":2191,"ĠRe":2192,"Ġplayer":2193,"Ġbigger":2194,"Ġsimilar":2195,"Ġrolling":2196,"ĠUs":2197,"Ġposture":2198,"Ġessent":2199,"rease":2200,"Ġtoile":2201,"Ġyell":2202,"Ġhy":2203,"Ġdish":2204,"Ġdeck":2205,"Ġem":2206,"Ġabove":2207,"ĠHell":2208,"Ġselect":2209,"Ġdead":2210,"Ġballs":2211,"Ġprin":2212,"ĠGet":2213,"ĠEx":2214,"Ġfeels":2215,"Ġcoun":2216,"Ġserve":2217,"Ġcirc":2218,"rench":2219,"Ġdistance":2220,"Ġcommun":2221,"gram":2222,"Ġmodel":2223,"ĠMaybe":2224,"Ġavoid":2225,"ĠHello":2226,"aur":2227,"oves":2228,"Ġ6":2229,"Ġvers":2230,"Ġsil":2231,"atic":2232,"Ġfir":2233,"Ġfaster":2234,"Ġlog":2235,"Ġsteel":2236,"Ġstance":2237,"Ġneg":2238,"Ġmakeup":2239,"Ġplaces":2240,"Ġprogram":2241,"ored":2242,"Ġeveryone":2243,"Ġsmell":2244,"Ġsays":2245,"angle":2246,"Ġbuying":2247,"encil":2248,"imming":2249,"Ġexplain":2250,"Ġfoam":2251,"Ġbaby":2252,"by":2253,"med":2254,"over":2255,"sh":2256,"ina":2257,"Ġwomen":2258,"Ġtot":2259,"Ġbone":2260,"Ġmeth":2261,"Ġrib":2262,"Ġprov":2263,"Ġwouldn":2264,"Ġpartner":2265,"Ġsafe":2266,"Ġwrite":2267,"Ġresult":2268,"ĠAny":2269,"Ġdecide":2270,"ivid":2271,"ency":2272,"Ġfilter":2273,"Ġphotography":2274,"Ġdegree":2275,"Ġnecessarily":2276,"Ġbattery":2277,"Ġjuice":2278,"Ġelectric":2279,"Ġfavorite":2280,"Ġdifficult":2281,"Ġingred":2282,"ĠBasically":2283,"Ġmethod":2284,"lace":2285,"rib":2286,"Ġtension":2287,"Ġhat":2288,"Ġfash":2289,"Ġmess":2290,"Ġmount":2291,"ĠAr":2292,"Ġrather":2293,"Ġsoon":2294,"ilt":2295,"Ġmyself":2296,"Ġplate":2297,"Ġtrim":2298,"Ġflower":2299,"pping":2300,"Ġseen":2301,"ume":2302,"Ġopening":2303,"Ġ20":2304,"Ġminute":2305,"Ġearlier":2306,"Ġintern":2307,"Ġfinished":2308,"Ġdollars":2309,"Ġpurpose":2310,"Ġyellow":2311,"ph":2312,"Ġtiss":2313,"iny":2314,"Ġwent":2315,"Ġocc":2316,"Ġband":2317,"ato":2318,"Ġpencil":2319,"Ġdirt":2320,"ises":2321,"Ġstate":2322,"Ġrece":2323,"ĠSee":2324,"ĠAt":2325,"chan":2326,"Ġshoes":2327,"Ġanim":2328,"Ġsoil":2329,"rodu":2330,"Ġspend":2331,"ability":2332,"Ġsell":2333,"Ġkeeps":2334,"aken":2335,"Ġsaw":2336,"Ġappro":2337,"Ġdefense":2338,"Ġobject":2339,"Ġseconds":2340,"Ġwindow":2341,"Ġmask":2342,"Ġexperience":2343,"Ġpitcher":2344,"Ġweek":2345,"Ġscissors":2346,"cara":2347,"Ġpalm":2348,"Ġmachine":2349,"ajor":2350,"Ġfluid":2351,"Ġguitar":2352,"Ġcounter":2353,"not":2354,"vis":2355,"vir":2356,"Ġtie":2357,"Ġyoga":2358,"Ġdial":2359,"Ġlose":2360,"Ġmist":2361,"ites":2362,"Ġstory":2363,"ution":2364,"ified":2365,"Ġprop":2366,"Ġworth":2367,"Ġmeet":2368,"oli":2369,"ĠLike":2370,"Ġbub":2371,"Ġqual":2372,"Ġoption":2373,"Ġlighter":2374,"Ġends":2375,"Ġservice":2376,"Ġstandard":2377,"Ġresp":2378,"Ġstores":2379,"Ġconsist":2380,"Ġwearing":2381,"Ġbooks":2382,"Ġdepends":2383,"Ġwords":2384,"Ġmonth":2385,"Ġprepare":2386,"Ġequip":2387,"Ġfriends":2388,"Ġbowl":2389,"selves":2390,"br":2391,"nis":2392,"sw":2393,"work":2394,"Ġ-":2395,"Ġ9":2396,"Ġbent":2397,"Ġbath":2398,"Ġgiving":2399,"Ġpast":2400,"Ġfacing":2401,"Ġmajor":2402,"ana":2403,"onent":2404,"onment":2405,"ley":2406,"ots":2407,"Ġshad":2408,"Ġang":2409,"Ġmechan":2410,"ections":2411,"Ġdrain":2412,"aker":2413,"Ġenvir":2414,"Ġbucket":2415,"Ġtypically":2416,"Ġ15":2417,"Ġguide":2418,"Ġthrowing":2419,"Ġindivid":2420,"Ġlayer":2421,"Ġmascara":2422,"Ġspring":2423,"Ġsalt":2424,"Ġdegrees":2425,"Ġskills":2426,"Ġsituation":2427,"Ġmentioned":2428,"Ġenvironment":2429,"fting":2430,"hip":2431,"ler":2432,"view":2433,"ycle":2434,"Ġtree":2435,"Ġthirty":2436,"att":2437,"Ġcame":2438,"Ġdust":2439,"Ġdent":2440,"leas":2441,"Ġwebs":2442,"ĠSp":2443,"Ġkite":2444,"Ġlean":2445,"Ġspread":2446,"Ġclient":2447,"pped":2448,"ĠCan":2449,"Ġletters":2450,"izes":2451,"Ġapplic":2452,"anced":2453,"Ġraw":2454,"Ġrubber":2455,"Ġavail":2456,"Ġeffective":2457,"Ġstroke":2458,"Ġvariety":2459,"Ġvideo":2460,"Ġroute":2461,"Ġjoint":2462,"Ġseparate":2463,"Ġmoment":2464,"aid":2465,"ging":2466,"hand":2467,"lt":2468,"Ġtent":2469,"ream":2470,"Ġce":2471,"Ġhop":2472,"Ġgift":2473,"Ġgirl":2474,"Ġmust":2475,"ony":2476,"isting":2477,"ishing":2478,"Ġrange":2479,"ĠThose":2480,"Ġlive":2481,"Ġoutf":2482,"Ġsomewhere":2483,"Ġbright":2484,"Ġbrake":2485,"agon":2486,"Ġsuc":2487,"Ġlighting":2488,"Ġfeeling":2489,"Ġmusic":2490,"Ġriding":2491,"Ġthought":2492,"Ġpossib":2493,"Ġjeans":2494,"Ġgeneral":2495,"Ġvegetables":2496,"Ġtoilet":2497,"medi":2498,"Ġavailable":2499,"bles":2500,"por":2501,"son":2502,"Ġtap":2503,"Ġtun":2504,"Ġtaken":2505,"Ġtoss":2506,"Ġbol":2507,"Ġpink":2508,"Ġda":2509,"Ġdip":2510,"Ġlap":2511,"Ġmen":2512,"Ġmiss":2513,"Ġitem":2514,"ĠIs":2515,"arning":2516,"aching":2517,"Ġrain":2518,"Ġrough":2519,"Ġheight":2520,"ulation":2521,"iger":2522,"ĠWhich":2523,"Ġnicely":2524,"izz":2525,"Ġskirt":2526,"Ġsaying":2527,"Ġbottle":2528,"Ġphone":2529,"Ġattack":2530,"Ġideas":2531,"Ġcups":2532,"Ġtrail":2533,"welry":2534,"Ġcaus":2535,"Ġconnect":2536,"Ġbulb":2537,"Ġreturn":2538,"Ġdamage":2539,"Ġwonderful":2540,"Ġfairly":2541,"Ġfashion":2542,"Ġequipment":2543,"ean":2544,"gest":2545,"Ġbur":2546,"omp":2547,"Ġbeer":2548,"ĠSw":2549,"idth":2550,"oof":2551,"Ġshamp":2552,"Ġsoc":2553,"iment":2554,"ili":2555,"Ġlemon":2556,"Ġpli":2557,"Ġspark":2558,"ung":2559,"Ġhandy":2560,"Ġvol":2561,"Ġprim":2562,"Ġthroughout":2563,"Ġsugg":2564,"osed":2565,"Ġturns":2566,"ĠEven":2567,"Ġtennis":2568,"Ġcreating":2569,"Ġmarket":2570,"Ġbuilding":2571,"Ġmaintain":2572,"Ġfret":2573,"Ġsqueeze":2574,"Ġhealthy":2575,"Ġmicrow":2576,"Ġsmoke":2577,"Ġquarter":2578,"ĠUsually":2579,"Ġsuggest":2580,"So":2581,"dit":2582,"Ġest":2583,"reme":2584,"Ġther":2585,"Ġtoward":2586,"Ġid":2587,"Ġpeel":2588,"Ġfight":2589,"Ġfix":2590,"ane":2591,"iter":2592,"iced":2593,"asting":2594,"alk":2595,"Ġrace":2596,"Ġaren":2597,"Ġlearning":2598,"Ġcol":2599,"Ġbackwards":2600,"ĠOur":2601,"ĠOther":2602,"Ġtract":2603,"ulate":2604,"Ġexcess":2605,"Ġbecom":2606,"ĠWhere":2607,"Ġbased":2608,"Ġblow":2609,"Ġslice":2610,"\"\",":2611,"\"\".\"":2612,"Ġfeed":2613,"izing":2614,"Ġadding":2615,"Ġguard":2616,"Ġcredit":2617,"Ġhappy":2618,"Ġrecord":2619,"Ġcombination":2620,"Ġnormally":2621,"ĠNew":2622,"Ġrelaxed":2623,"Ġjewelry":2624,"Ġclothes":2625,"Ġquestions":2626,"Ġterms":2627,"Ġfirm":2628,"ground":2629,"iest":2630,"uit":2631,"ym":2632,"Ġtuck":2633,"inse":2634,"Ġsour":2635,"Ġsens":2636,"Ġcow":2637,"Ġcro":2638,"Ġpage":2639,"Ġpound":2640,"Ġfif":2641,"arr":2642,"Ġnin":2643,"Ġham":2644,"ĠAre":2645,"Ġrinse":2646,"ida":2647,"Ġupon":2648,"acket":2649,"odk":2650,"Ġcocon":2651,"Ġtexture":2652,"Ġconcer":2653,"Ġseam":2654,"ocking":2655,"Ġsuit":2656,"ails":2657,"ĠEng":2658,"Ġmovements":2659,"Ġguess":2660,"Ġperiod":2661,"Ġcompet":2662,"udge":2663,"Ġinstr":2664,"Ġpicking":2665,"Ġperform":2666,"Ġdeterm":2667,"Ġwheels":2668,"Ġwalking":2669,"Ġvalue":2670,"Ġnegative":2671,"Ġquality":2672,"Ġmicrowave":2673,"Ġcoconut":2674,"haps":2675,"Ġtar":2676,"Ġaware":2677,"Ġwidth":2678,"Ġhing":2679,"Ġhum":2680,"Ġpub":2681,"Ġdro":2682,"Ġdance":2683,"Ġdang":2684,"orpor":2685,"Ġinner":2686,"Ġemp":2687,"Ġears":2688,"Ġcannot":2689,"Ġkill":2690,"stick":2691,"Ġsod":2692,"eech":2693,"Ġlikely":2694,"thers":2695,"ures":2696,"Ġleather":2697,"Ġspl":2698,"Ġspeech":2699,"Ġvit":2700,"Ġshower":2701,"els":2702,"Ġwriting":2703,"Ġrepe":2704,"Ġrepair":2705,"Ġmuscle":2706,"ances":2707,"Ġpurch":2708,"Ġwatching":2709,"Ġcheese":2710,"Ġclosed":2711,"Ġheels":2712,"Ġgenerally":2713,"ĠFrom":2714,"Ġtripod":2715,"Ġquestion":2716,"Ġautom":2717,"Ġankle":2718,"Ġshampoo":2719,"bers":2720,"Ġ$":2721,"Ġut":2722,"Ġtu":2723,"Ġtrap":2724,"Ġtaste":2725,"Ġaf":2726,"Ġwave":2727,"Ġton":2728,"Ġbid":2729,"Ġhurt":2730,"Ġgra":2731,"Ġfro":2732,"Ġmult":2733,"Ġgoal":2734,"orth":2735,"Ġwedd":2736,"Ġstage":2737,"ght":2738,"Ġrese":2739,"Ġrul":2740,"ustr":2741,"Ġforty":2742,"Ġlifting":2743,"Ġshirt":2744,"Ġaltern":2745,"Ġchem":2746,"Ġchance":2747,"Ġknown":2748,"ĠOh":2749,"Ġteas":2750,"Ġflour":2751,"Ġknows":2752,"Ġvodk":2753,"Ġfeature":2754,"Ġgloss":2755,"Ġapprop":2756,"Ġcompany":2757,"Ġstress":2758,"Ġbreaking":2759,"Ġextreme":2760,"Ġphys":2761,"Ġsticks":2762,"Ġcrack":2763,"Ġinstance":2764,"Ġearly":2765,"Ġincl":2766,"Ġincorpor":2767,"Ġtreatment":2768,"Ġcloser":2769,"ĠHowever":2770,"Ġpresent":2771,"Ġsuccess":2772,"Ġident":2773,"Ġsoda":2774,"Ġappropri":2775,"ender":2776,"iber":2777,"kin":2778,"poon":2779,"sy":2780,"zing":2781,"Ġthous":2782,"Ġsor":2783,"Ġsink":2784,"Ġsections":2785,"Ġothers":2786,"Ġbir":2787,"ering":2788,"Ġhu":2789,"Ġpet":2790,"Ġdig":2791,"orce":2792,"ĠIÃ¢":2793,"ism":2794,"vered":2795,"eter":2796,"etic":2797,"Ġweed":2798,"Ġeff":2799,"allen":2800,"ĠTim":2801,"Ġredu":2802,"Ġchallen":2803,"Ġcovered":2804,"Ġtrue":2805,"Ġsearch":2806,"Ġdel":2807,"ĠLift":2808,"Ġbuilt":2809,"Ġsuper":2810,"ĠPut":2811,"Ġsweep":2812,"Ġcarp":2813,"ude":2814,"Ġhighlight":2815,"Ġcord":2816,"Ġpressing":2817,"Ġshots":2818,"Ġrelations":2819,"Ġelements":2820,"Ġspeaking":2821,"ancing":2822,"Ġopponent":2823,"Ġzone":2824,"Ġcreates":2825,"Ġcreated":2826,"Ġwait":2827,"Ġsched":2828,"Ġexpert":2829,"Ġtechniques":2830,"Ġtransfer":2831,"Ġperfectly":2832,"Ġsolid":2833,"Ġelbows":2834,"Ġwinter":2835,"Ġportion":2836,"solute":2837,"Ġsweet":2838,"time":2839,"Ġliquid":2840,"Ġdribble":2841,"Ġwebsite":2842,"Ġtractor":2843,"Ġconcern":2844,"Ġbirth":2845,"Ġtall":2846,"Ġtough":2847,"Ġage":2848,"rel":2849,"Ġsizes":2850,"Ġwipe":2851,"ĠyouÃ¢":2852,"Ġbor":2853,"ert":2854,"erv":2855,"Ġcake":2856,"Ġpath":2857,"Ġmap":2858,"Ġmax":2859,"aring":2860,"ote":2861,"ĠTr":2862,"Ġrat":2863,"ĠThank":2864,"ided":2865,"Ġur":2866,"Ġforget":2867,"Ġansw":2868,"eeper":2869,"itted":2870,"ctor":2871,"Ġplus":2872,"ĠOf":2873,"Ġsport":2874,"Ġtele":2875,"Ġuses":2876,"Ġflo":2877,"Ġseal":2878,"Ġaction":2879,"ired":2880,"ĠLook":2881,"ĠDr":2882,"Ġboom":2883,"Ġroad":2884,"ĠJoh":2885,"Ġcontr":2886,"Ġsheet":2887,"Ġ18":2888,"Ġperhaps":2889,"Ġbringing":2890,"Ġextension":2891,"Ġimmedi":2892,"Ġbelow":2893,"Ġinterested":2894,"Ġcooking":2895,"ĠBefore":2896,"Ġdirectly":2897,"oosing":2898,"Ġissues":2899,"Ġabsor":2900,"Ġcontainer":2901,"Ġshrimp":2902,"Ġbeads":2903,"Ġoriginal":2904,"Ġhydr":2905,"Ġtissue":2906,"Ġshadow":2907,"Ġpliers":2908,"Ġvodka":2909,"Ġappropriate":2910,"Ġsorry":2911,"AN":2912,"cause":2913,"dy":2914,"gen":2915,"ky":2916,"tions":2917,"Ġoven":2918,"Ġyet":2919,"Ġboot":2920,"Ġcell":2921,"Ġgro":2922,"Ġpages":2923,"Ġfift":2924,"Ġdeeper":2925,"orc":2926,"ette":2927,"Ġnon":2928,"Ġnap":2929,"key":2930,"ĠTry":2931,"Ġrop":2932,"Ġforce":2933,"Ġmoves":2934,"Ġchec":2935,"Ġchord":2936,"Ġclips":2937,"Ġseeing":2938,"Ġflush":2939,"Ġkinda":2940,"aks":2941,"ĠFlor":2942,"ĠLe":2943,"nel":2944,"itional":2945,"Ġremo":2946,"Ġgrass":2947,"Ġdrag":2948,"Ġunless":2949,"Ġsquat":2950,"Ġnumbers":2951,"Ġcoverage":2952,"Ġbelieve":2953,"Ġweights":2954,"Ġmixing":2955,"Ġrais":2956,"Ġaccount":2957,"ĠVery":2958,"Ġplane":2959,"Ġspots":2960,"Ġvegetable":2961,"Ġscratch":2962,"Ġbenefits":2963,"ĠAmerican":2964,"Ġingredients":2965,"Ġoccur":2966,"ĠEnglish":2967,"Ġchemical":2968,"sych":2969,"Ġimmediately":2970,"ĠFlorida":2971,"co":2972,"come":2973,"fact":2974,"iven":2975,"ixture":2976,"lies":2977,"rier":2978,"upp":2979,"vas":2980,"we":2981,"wner":2982,"Ġtiny":2983,"Ġaff":2984,"Ġaffect":2985,"Ġwand":2986,"Ġoper":2987,"Ġoily":2988,"Ġill":2989,"Ġcab":2990,"Ġhur":2991,"Ġpep":2992,"Ġfake":2993,"Ġdim":2994,"Ġdate":2995,"ories":2996,"Ġinj":2997,"Ġnet":2998,"Ġstock":2999,"Ġstamp":3000,"Ġrule":3001,"verse":3002,"Ġshake":3003,"Ġabsolute":3004,"urse":3005,"epend":3006,"Ġspoon":3007,"ortun":3008,"Ġmem":3009,"Ġconst":3010,"Ġbasis":3011,"Ġletting":3012,"aging":3013,"Ġstrings":3014,"Ġstrike":3015,"Ġtook":3016,"Ġadded":3017,"Ġacid":3018,"Ġpercent":3019,"Ġlightly":3020,"Ġcleaner":3021,"ĠAlways":3022,"Ġresist":3023,"ression":3024,"Ġlearned":3025,"Ġcurl":3026,"Ġmixed":3027,"Ġsupply":3028,"hydr":3029,"Ġbreathe":3030,"Ġfoods":3031,"Ġpopular":3032,"Ġdiam":3033,"Ġthicker":3034,"Ġtricks":3035,"Ġmoisture":3036,"Ġmetal":3037,"Ġshapes":3038,"Ġtotally":3039,"Ġapplication":3040,"Ġpossibly":3041,"Ġlaptop":3042,"Ġtarget":3043,"Ġwedding":3044,"Ġfifteen":3045,"bon":3046,"dom":3047,"foli":3048,"ixt":3049,"py":3050,"ral":3051,"rist":3052,"sp":3053,"Ġver":3054,"Ġtread":3055,"Ġthr":3056,"Ġthigh":3057,"Ġbaking":3058,"erous":3059,"Ġgent":3060,"Ġdin":3061,"Ġlate":3062,"Ġliter":3063,"Ġmill":3064,"Ġmixture":3065,"orter":3066,"oms":3067,"icing":3068,"Ġbeat":3069,"Ġbeef":3070,"ĠAct":3071,"ustin":3072,"Ġund":3073,"Ġlim":3074,"ecting":3075,"Ġaside":3076,"Ġaspect":3077,"ode":3078,"Ġalright":3079,"ceal":3080,"ĠNo":3081,"Ġplug":3082,"Ġtri":3083,"Ġtrad":3084,"ĠBy":3085,"Ġintrodu":3086,"abil":3087,"Ġclick":3088,"Ġthemselves":3089,"Ġflav":3090,"Ġconc":3091,"Ġconceal":3092,"Ġdriving":3093,"Ġview":3094,"Ġprice":3095,"Ġenc":3096,"Ġletter":3097,"arent":3098,"Ġshowed":3099,"Ġsauce":3100,"Ġeasiest":3101,"Ġ19":3102,"Ġcourt":3103,"Ġbaseball":3104,"Ġpicked":3105,"Ġsnake":3106,"resso":3107,"Ġapplying":3108,"Ġmaster":3109,"Ġmeaning":3110,"Ġespresso":3111,"Ġvarious":3112,"Ġspinning":3113,"Ġlengthen":3114,"Ġstrokes":3115,"Ġcorrectly":3116,"Ġattached":3117,"ounces":3118,"Ġcommunic":3119,"Ġresults":3120,"Ġninety":3121,"Ġanswer":3122,"Ġgentle":3123,"ci":3124,"fly":3125,"ox":3126,"uis":3127,"ufact":3128,"yle":3129,"ĠZ":3130,"Ġet":3131,"Ġounce":3132,"inate":3133,"Ġsum":3134,"Ġsixt":3135,"Ġowner":3136,"Ġbac":3137,"Ġcamp":3138,"Ġfits":3139,"Ġlamp":3140,"Ġmor":3141,"anch":3142,"Ġonion":3143,"othing":3144,"Ġrad":3145,"Ġrip":3146,"Ġnote":3147,"raid":3148,"Ġchoosing":3149,"ifically":3150,"Ġhowever":3151,"Ġpocket":3152,"Ġmeat":3153,"Ġanyway":3154,"Ġactiv":3155,"ĠGr":3156,"ared":3157,"ĠPl":3158,"ĠInhale":3159,"Ġcontract":3160,"Ġacne":3161,"Ġsets":3162,"Ġlights":3163,"Ġgray":3164,"Ġbreast":3165,"Ġtelling":3166,"ĠStates":3167,"Ġtouching":3168,"ĠUp":3169,"Ġdesig":3170,"Ġstays":3171,"Ġraise":3172,"Ġmotorc":3173,"Ġnaturally":3174,"Ġcertainly":3175,"Ġbirds":3176,"Ġshooting":3177,"Ġdollar":3178,"Ġslee":3179,"Ġclassic":3180,"Ġartist":3181,"Ġengine":3182,"Ġinvolved":3183,"Ġhopefully":3184,"Ġcorners":3185,"Ġdaily":3186,"Ġitems":3187,"iliar":3188,"Ġvitam":3189,"Ġafraid":3190,"aul":3191,"ding":3192,"ged":3193,"ken":3194,"pers":3195,"wood":3196,"ying":3197,"Ġtrop":3198,"oup":3199,"Ġwig":3200,"Ġtone":3201,"Ġbones":3202,"Ġcable":3203,"Ġgym":3204,"Ġped":3205,"Ġpill":3206,"Ġpine":3207,"Ġpsych":3208,"Ġmud":3209,"ĠitÃ¢":3210,"ened":3211,"aced":3212,"ĠAustin":3213,"chet":3214,"Ġkay":3215,"Ġkitch":3216,"Ġoutd":3217,"Ġlitter":3218,"Ġchee":3219,"cell":3220,"iple":3221,"Ġclients":3222,"ateg":3223,"Ġtwel":3224,"Ġprefer":3225,"Ġsend":3226,"Ġbrace":3227,"Ġotherwise":3228,"Ġadult":3229,"ffe":3230,"Ġbud":3231,"aged":3232,"Ġski":3233,"Ġsky":3234,"Ġtopic":3235,"Ġscreen":3236,"Ġcute":3237,"Ġcuts":3238,"Ġswim":3239,"Ġoptions":3240,"ĠKn":3241,"Ġsyn":3242,"Ġimages":3243,"Ġeleven":3244,"Ġopportun":3245,"Ġbags":3246,"Ġzoom":3247,"Ġwooden":3248,"Ġreasons":3249,"Ġbreathing":3250,"Ġexercises":3251,"Ġcollect":3252,"Ġmedical":3253,"Ġdealer":3254,"Ġdirections":3255,"Ġconfid":3256,"Ġimprov":3257,"ĠUnited":3258,"Ġaudition":3259,"Ġeggs":3260,"Ġessentially":3261,"Ġprinting":3262,"Ġoutfit":3263,"Ġhuge":3264,"Ġschedule":3265,"Ġconcealer":3266,"Ġmorning":3267,"Ġtwelve":3268,"form":3269,"ker":3270,"met":3271,"Ġounces":3272,"Ġtrou":3273,"Ġturt":3274,"Ġach":3275,"Ġwing":3276,"Ġwra":3277,"Ġoh":3278,"Ġtown":3279,"Ġcooked":3280,"Ġge":3281,"Ġgain":3282,"Ġgames":3283,"Ġgear":3284,"Ġpants":3285,"Ġfan":3286,"Ġdancing":3287,"Ġloos":3288,"oring":3289,"isk":3290,"omach":3291,"Ġstuck":3292,"Ġsticking":3293,"Ġstomach":3294,"asana":3295,"Ġride":3296,"Ġcanoe":3297,"Ġshoe":3298,"itter":3299,"ĠYork":3300,"Ġbackground":3301,"Ġexfoli":3302,"Ġclamp":3303,"apan":3304,"Ġtends":3305,"Ġpoin":3306,"Ġconcent":3307,"ĠHave":3308,"Ġblades":3309,"Ġsliding":3310,"ĠPaul":3311,"ĠJoe":3312,"ĠJapan":3313,"osing":3314,"rape":3315,"Ġmanufact":3316,"Ġswimming":3317,"Ġbrew":3318,"Ġbread":3319,"Ġ\"\"\"":3320,"Ġdogs":3321,"Ġimag":3322,"Ġcovering":3323,"Ġcurly":3324,"Ġcurling":3325,"Ġ30":3326,"Ġcert":3327,"Ġspecifically":3328,"Ġlipstick":3329,"Ġzip":3330,"Ġgrows":3331,"Ġgrowing":3332,"Ġblocks":3333,"Ġbrand":3334,"Ġcommand":3335,"Ġfalling":3336,"Ġphotographer":3337,"Ġleaf":3338,"Ġstudents":3339,"Ġnecessary":3340,"Ġantib":3341,"Ġimprove":3342,"Ġfriend":3343,"Ġpatient":3344,"Ġissue":3345,"Ġliner":3346,"Ġprovide":3347,"Ġanimal":3348,"Ġbubbles":3349,"Ġmonths":3350,"Ġindividual":3351,"Ġsoccer":3352,"Ġfifty":3353,"Ġpublic":3354,"Ġextremely":3355,"Ġbacon":3356,"Ġkitchen":3357,"Ġbudget":3358,"aze":3359,"bee":3360,"brow":3361,"iec":3362,"more":3363,"ram":3364,"zer":3365,"Ġtre":3366,"Ġtack":3367,"Ġsad":3368,"Ġwider":3369,"Ġtoy":3370,"Ġyes":3371,"Ġbacter":3372,"Ġbounce":3373,"ero":3374,"Ġcand":3375,"Ġcage":3376,"Ġcrab":3377,"Ġfem":3378,"Ġfile":3379,"Ġlat":3380,"Ġinit":3381,"lection":3382,"oman":3383,"alf":3384,"aling":3385,"ĠSec":3386,"ĠAb":3387,"verage":3388,"Ġjab":3389,"Ġmoder":3390,"Ġabdom":3391,"ĠBl":3392,"Ġseems":3393,"Ġtwice":3394,"Ġneeded":3395,"Ġflag":3396,"Ġseed":3397,"ometer":3398,"Ġdrip":3399,"Ġvest":3400,"Ġworkout":3401,"Ġboil":3402,"ĠPro":3403,"Ġstruct":3404,"Ġamaz":3405,"Ġbiggest":3406,"Ġeyel":3407,"Ġgrad":3408,"Ġcompl":3409,"Ġbreed":3410,"Ġexpensive":3411,"Ġeyebrow":3412,"Ġrelative":3413,"Ġyeah":3414,"Ġindic":3415,"Ġindoor":3416,"Ġmeasuring":3417,"Ġwindows":3418,"Ġdetect":3419,"ique":3420,"Ġrestaur":3421,"Ġcircles":3422,"Ġmeasurement":3423,"Ġpaddle":3424,"Ġheavier":3425,"Ġpictures":3426,"Ġpatterns":3427,"Ġcontinu":3428,"Ġopposed":3429,"Ġsounds":3430,"Ġsubject":3431,"Ġmaterials":3432,"Ġscrub":3433,"Ġadvanced":3434,"Ġbulbs":3435,"Ġengage":3436,"Ġtraveling":3437,"Ġcraw":3438,"Ġnutr":3439,"Ġaudience":3440,"Ġessential":3441,"Ġceiling":3442,"Ġbecomes":3443,"Ġrepeat":3444,"Ġutil":3445,"Ġreduce":3446,"cellent":3447,"ON":3448,"bviously":3449,"eah":3450,"fere":3451,"gl":3452,"low":3453,"lied":3454,"nam":3455,"tle":3456,"toms":3457,"val":3458,"zy":3459,"ining":3460,"inals":3461,"Ġcot":3462,"Ġcity":3463,"Ġpatch":3464,"Ġfac":3465,"Ġfence":3466,"Ġlens":3467,"Ġmine":3468,"onge":3469,"Ġinde":3470,"isbee":3471,"arrow":3472,"Ġnarrow":3473,"Ġbeak":3474,"Ġstir":3475,"Ġstem":3476,"Ġstability":3477,"ĠTw":3478,"ĠTex":3479,"ĠSc":3480,"Ġrhy":3481,"Ġlime":3482,"Ġshut":3483,"Ġshorter":3484,"imum":3485,"though":3486,"ĠYes":3487,"ury":3488,"ĠObviously":3489,"ulated":3490,"Ġteles":3491,"Ġanymore":3492,"Ġseason":3493,"Ġdelic":3494,"Ġdevice":3495,"Ġbrid":3496,"ĠMany":3497,"Ġdram":3498,"ĠCity":3499,"Ġvo":3500,"Ġlets":3501,"Ġqueen":3502,"Ġglove":3503,"Ġgloves":3504,"Ġstepping":3505,"ĠRus":3506,"Ġpulled":3507,"Ġperman":3508,"Ġcompan":3509,"ibility":3510,"Ġdefender":3511,"Ġtells":3512,"Ġeduc":3513,"Ġoils":3514,"Ġreplace":3515,"Ġfinal":3516,"Ġjumping":3517,"what":3518,"Ġcompleted":3519,"Ġlaying":3520,"Ġdrops":3521,"Ġinterview":3522,"Ġaccur":3523,"Ġolder":3524,"Ġcontroll":3525,"Ġprotection":3526,"Ġdiet":3527,"Ġbeauty":3528,"Ġdarker":3529,"Ġpads":3530,"Ġloops":3531,"Ġnails":3532,"Ġdealing":3533,"Ġbarrel":3534,"Ġtires":3535,"Ġfamiliar":3536,"Ġrocks":3537,"ĠBring":3538,"Ġchanging":3539,"Ġtomato":3540,"Ġapproach":3541,"Ġtherm":3542,"Ġcolored":3543,"Ġcrochet":3544,"Ġdetermine":3545,"Ġhinge":3546,"Ġresearch":3547,"Ġteaspoon":3548,"Ġrelationship":3549,"Ġurine":3550,"ĠJohn":3551,"Ġgrocer":3552,"Ġabsolutely":3553,"Ġopportunity":3554,"Ġtrouble":3555,"Ġachieve":3556,"Ġconcentr":3557,"Ġmanufacture":3558,"Ġbacteria":3559,"ĠTexas":3560,"Ġrhyth":3561,"Ġtelesc":3562,"AR":3563,"And":3564,"coh":3565,"go":3566,"ikes":3567,"uction":3568,"vices":3569,"you":3570,"Ġer":3571,"Ġtiger":3572,"Ġaid":3573,"reg":3574,"rent":3575,"Ġsense":3576,"Ġok":3577,"Ġtong":3578,"Ġir":3579,"Ġcats":3580,"Ġpump":3581,"Ġpuff":3582,"Ġfiber":3583,"Ġlas":3584,"Ġlad":3585,"Ġnine":3586,"acked":3587,"Ġrect":3588,"Ġrare":3589,"Ġjour":3590,"ster":3591,"Ġouter":3592,"ĠWatch":3593,"Ġheard":3594,"Ġfruit":3595,"Ġspades":3596,"Ġsponge":3597,"Ġtheme":3598,"Ġpores":3599,"Ġconstr":3600,"Ġoffice":3601,"Ġseated":3602,"Ġdem":3603,"istic":3604,"umes":3605,"ĠFrench":3606,"ĠDav":3607,"Ġshouldn":3608,"ĠGive":3609,"Ġens":3610,"Ġbuck":3611,"izer":3612,"ief":3613,"Ġwashing":3614,"Ġarch":3615,"osis":3616,"Ġcleans":3617,"Ġfinding":3618,"Ġshell":3619,"Ġgroo":3620,"Ġbottles":3621,"Ġstraighten":3622,"Ġpersonally":3623,"ĠStart":3624,"Ġrepres":3625,"obby":3626,"Ġfiner":3627,"Ġcrown":3628,"Ġexpect":3629,"olley":3630,"Ġstaying":3631,"Ġpassing":3632,"Ġstretching":3633,"Ġsnap":3634,"Ġhoriz":3635,"Ġsupposed":3636,"Ġcheap":3637,"Ġenter":3638,"Ġdesigned":3639,"Ġthickness":3640,"Ġsalmon":3641,"Ġinsp":3642,"Ġvariation":3643,"Ġclubs":3644,"ĠFrisbee":3645,"Ġcountry":3646,"Ġsqueezing":3647,"ylv":3648,"Ġmagic":3649,"Ġeventually":3650,"Ġmistake":3651,"Ġangry":3652,"Ġcauses":3653,"Ġthousand":3654,"Ġchecking":3655,"Ġpepper":3656,"Ġgrocery":3657,"cohol":3658,".,":3659,"LL":3660,"cing":3661,"col":3662,"gn":3663,"ivers":3664,"lide":3665,"land":3666,"oors":3667,"piec":3668,"sc":3669,"water":3670,"Ġ--":3671,"Ġtur":3672,"Ġtub":3673,"Ġaverage":3674,"Ġthirt":3675,"inf":3676,"Ġox":3677,"Ġyoung":3678,"Ġbic":3679,"Ġcue":3680,"Ġcases":3681,"Ġharn":3682,"Ġfitted":3683,"Ġdur":3684,"Ġdice":3685,"Ġdamp":3686,"Ġdating":3687,"llie":3688,"Ġnorth":3689,"Ġonline":3690,"Ġbeach":3691,"ayer":3692,"asing":3693,"Ġrear":3694,"Ġrocking":3695,"Ġjaw":3696,"oogle":3697,"Ġshark":3698,"Ġkid":3699,"Ġkicking":3700,"Ġasse":3701,"ourage":3702,"thetic":3703,"ĠYeah":3704,"ural":3705,"Ġneat":3706,"Ġneut":3707,"eption":3708,"Ġchin":3709,"Ġchalk":3710,"ĠNice":3711,"ĠdonÃ¢":3712,"Ġknob":3713,"Ġspare":3714,"Ġprog":3715,"apple":3716,"Ġseem":3717,"Ġhanded":3718,"ĠCome":3719,"rought":3720,"Ġeverywhere":3721,"Ġbug":3722,"ĠPull":3723,"Ġpiv":3724,"osure":3725,"Ġturned":3726,"Ġholds":3727,"Ġruns":3728,"Ġhardware":3729,"Ġserious":3730,"Ġproduce":3731,"Ġstands":3732,"Ġfunction":3733,"Ġpainted":3734,"Ġcarefully":3735,"Ġtense":3736,"Ġcurve":3737,"Ġcurrent":3738,"ancy":3739,"Ġinfection":3740,"Ġpotato":3741,"Ġcatching":3742,"Ġincrease":3743,"Ġmarks":3744,"ĠChrist":3745,"Ġlocation":3746,"Ġlocked":3747,"Ġdiagon":3748,"Ġ45":3749,"Ġallowed":3750,"Ġadvant":3751,"Ġhanging":3752,"Ġrequirements":3753,"ology":3754,"Ġchanged":3755,"Ġmagn":3756,"Ġchoice":3757,"Ġtherapist":3758,"Ġgolden":3759,"Ġsilver":3760,"Ġmountain":3761,"Ġreceive":3762,"Ġ90":3763,"Ġdentist":3764,"Ġjoints":3765,"Ġdropping":3766,"Ġdangerous":3767,"Ġsplit":3768,"Ġincorporate":3769,"Ġcarpet":3770,"Ġbirthday":3771,"Ġsports":3772,"Ġ180":3773,"Ġnapkin":3774,"Ġraised":3775,"Ġflavors":3776,"Ġbracelet":3777,"ffeine":3778,"ĠSecond":3779,"Ġcompanies":3780,"Ġrhythm":3781,"Ġensure":3782,"Ġhorizont":3783,"Ġthirteen":3784,"Ġharness":3785,",\"\"":3786,"ae":3787,"aith":3788,"bit":3789,"bal":3790,"bling":3791,"five":3792,"lcome":3793,"off":3794,"tical":3795,"Ġtan":3796,"Ġtick":3797,"ined":3798,"inally":3799,"inary":3800,"Ġsick":3801,"Ġwaste":3802,"Ġbrought":3803,"atoes":3804,"Ġhill":3805,"Ġhist":3806,"Ġhous":3807,"Ġpool":3808,"Ġplease":3809,"Ġfle":3810,"Ġdirty":3811,"Ġlic":3812,"Ġlab":3813,"Ġlav":3814,"Ġlaw":3815,"Ġnames":3816,"Ġhaven":3817,"icle":3818,"icient":3819,"Ġbeans":3820,"Ġweb":3821,"Ġstation":3822,"Ġsteep":3823,"Ġrent":3824,"Ġdoctor":3825,"ĠSal":3826,"ĠAdd":3827,"Ġrow":3828,"Ġrate":3829,"Ġcanvas":3830,"Ġjudge":3831,"sell":3832,"Ġshed":3833,"Ġshift":3834,"Ġsoap":3835,"Ġsoak":3836,"aming":3837,"odies":3838,"Ġalcohol":3839,"Ġleash":3840,"Ġplain":3841,"Ġplenty":3842,"Ġplaced":3843,"ĠOp":3844,"Ġwhenever":3845,"Ġspir":3846,"Ġtrade":3847,"ĠBar":3848,"ulse":3849,"Ġputs":3850,"app":3851,"Ġteaching":3852,"Ġworked":3853,"atever":3854,"ĠHold":3855,"ĠWhatever":3856,"Ġgotten":3857,"Ġdrug":3858,"ĠCar":3859,"ĠCom":3860,"ĠCal":3861,"Ġpend":3862,"ĠFaith":3863,"ĠLiz":3864,"Ġbump":3865,"Ġshows":3866,"Ġscal":3867,"Ġsudd":3868,"ĠPre":3869,"Ġstrips":3870,"ought":3871,"Ġarom":3872,"ensity":3873,"osen":3874,"Ġaddition":3875,"Ġmanage":3876,"Ġopin":3877,"Ġshelf":3878,"Ġbasics":3879,"Ġ100":3880,"Ġapplied":3881,"ups":3882,"Ġcompost":3883,"Ġcrease":3884,"Ġdispl":3885,"Ġreps":3886,"Ġreport":3887,"Ġcentered":3888,"Ġfunny":3889,"uffle":3890,"ressive":3891,"Ġquicker":3892,"Ġsupplies":3893,"Ġmarker":3894,"Ġridge":3895,"ĠHey":3896,"Ġgrowth":3897,"Ġbrakes":3898,"Ġsteady":3899,"Ġtransition":3900,"Ġfrequ":3901,"Ġleader":3902,"Ġcraft":3903,"Ġmoistur":3904,"Ġassist":3905,"Ġrotate":3906,"Ġlisten":3907,"Ġstained":3908,"Ġextended":3909,"shirt":3910,"Ġmomentum":3911,"Ġpounds":3912,"Ġpurchase":3913,"Ġtube":3914,"Ġcontrast":3915,"Ġboots":3916,"Ġconstant":3917,"ĠActually":3918,"Ġpineapple":3919,"Ġcotton":3920,"Ġindex":3921,"Ġvoice":3922,"Ġpermanent":3923,"Ġneutral":3924,"Ġpivot":3925,"Ġhorizontal":3926,"Ġsudden":3927,"20":3928,"ER":3929,"IN":3930,"egr":3931,"fric":3932,"ha":3933,"lo":3934,"lu":3935,"mill":3936,"mble":3937,"nna":3938,"rick":3939,"tor":3940,"Ġtrees":3941,"Ġtau":3942,"Ġaper":3943,"Ġwild":3944,"Ġol":3945,"Ġollie":3946,"Ġbind":3947,"Ġbare":3948,"atically":3949,"atives":3950,"Ġgas":3951,"Ġgrease":3952,"Ġgiven":3953,"Ġpipe":3954,"Ġfut":3955,"Ġdy":3956,"Ġmart":3957,"anut":3958,"Ġgonna":3959,"ister":3960,"Ġwed":3961,"Ġweak":3962,"allel":3963,"acy":3964,"Ġreleas":3965,"Ġreverse":3966,"ĠSe":3967,"ĠSan":3968,"ĠSylv":3969,"ĠAfric":3970,"Ġriver":3971,"Ġracket":3972,"Ġliving":3973,"Ġsha":3974,"Ġanch":3975,"Ġsold":3976,"Ġsock":3977,"itten":3978,"Ġnotch":3979,"Ġalign":3980,"Ġcham":3981,"Ġchamp":3982,"iforn":3983,"ops":3984,"Ġspill":3985,"Ġexting":3986,"Ġexcellent":3987,"Ġproced":3988,"Ġclothing":3989,"Ġtear":3990,"Ġpolish":3991,"Ġanyone":3992,"Ġdehydr":3993,"ument":3994,"umber":3995,"Ġdried":3996,"Ġpeanut":3997,"Ġadvice":3998,"ĠGu":3999,"Ġeveryday":4000,"ished":4001,"Ġscale":4002,"ĠPract":4003,"iesel":4004,"Ġcoloring":4005,"Ġhelping":4006,"Ġglaze":4007,"oses":4008,"rylic":4009,"Ġacrylic":4010,"Ġstraw":4011,"Ġcomplic":4012,"Ġstreet":4013,"....":4014,"Ġcardboard":4015,"Ġrealize":4016,"Ġdecided":4017,"Ġsymp":4018,"Ġcovers":4019,"Ġspeak":4020,"Ġpotent":4021,"Ġtighten":4022,"tenance":4023,"Ġmiles":4024,"Ġpins":4025,"Ġpinch":4026,"Ġdistrib":4027,"Ġjacket":4028,"Ġbarrier":4029,"Ġforehand":4030,"Ġconfus":4031,"ĠNotice":4032,"Ġconditions":4033,"azy":4034,"Ġparallel":4035,"Ġrequires":4036,"Ġclocks":4037,"ĠEverything":4038,"ĠExhale":4039,"Ġcircular":4040,"Ġcommunity":4041,"Ġlogo":4042,"Ġanimals":4043,"brush":4044,"Ġbathroom":4045,"Ġbolts":4046,"Ġsensitive":4047,"Ġhammer":4048,"Ġmultiple":4049,"Ġremoving":4050,"Ġafford":4051,"Ġdinner":4052,"Ġturtle":4053,"Ġamazing":4054,"ĠRussell":4055,"Ġtelescope":4056,"Ġtongue":4057,"Ġlava":4058,"ĠCaliforn":4059,"Ġaperture":4060,"Ġfuture":4061,"ĠSylvia":4062,"ĠCalifornia":4063,").":4064,"Th":4065,"You":4066,"aile":4067,"bra":4068,"cape":4069,"iate":4070,"ming":4071,"ned":4072,"nces":4073,"ober":4074,"set":4075,"ta":4076,"tu":4077,"unt":4078,"xim":4079,"ycles":4080,"zor":4081,"Ġ,":4082,"Ġtact":4083,"Ġaim":4084,"iner":4085,"oud":4086,"Ġwool":4087,"Ġwrench":4088,"Ġwagon":4089,"atform":4090,"Ġhors":4091,"Ġpaid":4092,"Ġpupp":4093,"Ġparent":4094,"Ġfant":4095,"Ġfest":4096,"Ġfail":4097,"Ġdough":4098,"icer":4099,"Ġwhip":4100,"Ġstim":4101,"Ġstable":4102,"Ġstove":4103,"Ġstabil":4104,"acher":4105,"asion":4106,"ĠAm":4107,"ĠApp":4108,"Ġru":4109,"Ġlikes":4110,"enter":4111,"imeter":4112,"roll":4113,"ament":4114,"Ġmode":4115,"illa":4116,"the":4117,"Ġnoticed":4118,"Ġchose":4119,"Ġcopy":4120,"Ġplatform":4121,"Ġtrimming":4122,"ulp":4123,"Ġintegr":4124,"que":4125,"Ġteap":4126,"soci":4127,"Ġflame":4128,"Ġanytime":4129,"Ġconven":4130,"Ġprevious":4131,"ĠWhy":4132,"Ġwherever":4133,"Ġdriver":4134,"ĠDan":4135,"ney":4136,"agne":4137,"ization":4138,"inkle":4139,"Ġbond":4140,"ĠPr":4141,"ĠPat":4142,"ĠPress":4143,"Ġwasn":4144,"Ġhelpful":4145,"ensions":4146,"ĠJack":4147,"ĠEach":4148,"Ġgrain":4149,"Ġposes":4150,"Ġphase":4151,"Ġhappening":4152,"ĠSte":4153,"Ġroller":4154,"Ġsticky":4155,"Ġcrank":4156,"Ġunit":4157,"Ġpracticing":4158,"Ġlifted":4159,"Ġsurv":4160,"Ġfully":4161,"Ġbehav":4162,"Ġkicks":4163,"Ġzero":4164,"Ġincre":4165,"Ġrazor":4166,"Ġbreaks":4167,"Ġphoto":4168,"Ġcheer":4169,"Ġfilling":4170,"Ġpadd":4171,"Ġtails":4172,"Ġrefer":4173,"Ġrefere":4174,"Ġreflect":4175,"Ġbraid":4176,"Ġfalls":4177,"Ġexperiment":4178,"Ġsystems":4179,"Ġfingert":4180,"Ġgarage":4181,"Ġfolded":4182,"Ġrounded":4183,"Ġcharge":4184,"Ġroots":4185,"Ġconditioning":4186,"Ġpunches":4187,"Ġportal":4188,"Ġgroups":4189,"Ġsteaming":4190,"Ġdetails":4191,"imples":4192,"Ġinstalling":4193,"Ġyards":4194,"Ġflying":4195,"Ġbroken":4196,"Ġtherapy":4197,"Ġversus":4198,"vision":4199,"Ġbubble":4200,"Ġangles":4201,"Ġtune":4202,"Ġfighting":4203,"Ġfeatures":4204,"Ġidentify":4205,"weight":4206,"Ġtriangle":4207,"Ġtraditional":4208,"Ġsummer":4209,"Ġcheek":4210,"Ġconfident":4211,"Ġloosen":4212,"Ġcertified":4213,"Ġsaddle":4214,"Ġstructure":4215,"Ġrectangle":4216,"piece":4217,"Ġopinion":4218,"Ġtaught":4219,"ai":4220,"aff":4221,"can":4222,"cut":4223,"cue":4224,"hips":4225,"iet":4226,"oint":4227,"rit":4228,"rom":4229,"rome":4230,"romp":4231,"wall":4232,"Ġtab":4233,"Ġtile":4234,"Ġaw":4235,"Ġath":4236,"Ġsession":4237,"Ġwar":4238,"erry":4239,"Ġcult":4240,"Ġgel":4241,"Ġpee":4242,"Ġpie":4243,"Ġpark":4244,"Ġfol":4245,"Ġfishing":4246,"Ġdest":4247,"lla":4248,"ller":4249,"Ġmood":4250,"Ġmother":4251,"itical":4252,"Ġgoss":4253,"Ġisol":4254,"ict":4255,"ĠweÃ¢":4256,"Ġstar":4257,"ask":4258,"Ġreact":4259,"Ġreel":4260,"ĠSim":4261,"Ġjer":4262,"Ġumb":4263,"Ġforms":4264,"Ġshown":4265,"Ġshine":4266,"Ġshade":4267,"Ġanal":4268,"Ġkil":4269,"rogen":4270,"Ġupside":4271,"Ġmov":4272,"aining":4273,"Ġalone":4274,"ĠNurse":4275,"Ġplacing":4276,"Ġuseful":4277,"ĠBack":4278,"ĠBoom":4279,"ula":4280,"ulum":4281,"abet":4282,"unately":4283,"Ġoffense":4284,"Ġoverall":4285,"Ġoverhead":4286,"Ġsea":4287,"ĠMich":4288,"Ġvolley":4289,"Ġballoon":4290,"Ġadap":4291,"ĠDe":4292,"ĠGener":4293,"Ġencl":4294,"ager":4295,"uel":4296,"Ġscoop":4297,"Ġscream":4298,"Ġsculp":4299,"ĠPe":4300,"Ġcutters":4301,"Ġevening":4302,"ĠJan":4303,"ĠRoll":4304,"Ġaddress":4305,"bell":4306,"Ġopens":4307,"arsh":4308,"Ġwritten":4309,"Ġdefensive":4310,"obson":4311,"ashes":4312,"Ġdryer":4313,"Ġtouches":4314,"Ġobvious":4315,"Ġelev":4316,"Ġcreature":4317,"ĠChina":4318,"ences":4319,"Ġaccent":4320,"Ġstyles":4321,"Ġboxes":4322,"Ġremoved":4323,"Ġmedic":4324,"Ġprote":4325,"Ġbleed":4326,"Ġchew":4327,"Ġmaintenance":4328,"Ġfilled":4329,"Ġflowing":4330,"Ġ40":4331,"Ġgarment":4332,"Ġeffects":4333,"Ġstroller":4334,"000":4335,"Ġreading":4336,"Ġcaffeine":4337,"Ġbench":4338,"pring":4339,"Ġcrazy":4340,"Ġaccessories":4341,"Ġbutterfly":4342,"Ġchanges":4343,"Ġtorso":4344,"Ġshopping":4345,"Ġbedroom":4346,"Ġscrews":4347,"Ġinvolves":4348,"Ġflexibility":4349,"Ġbenefit":4350,"Ġchoices":4351,"Ġexcept":4352,"ĠAmerica":4353,"Ġtotal":4354,"Ġingredient":4355,"Ġinternet":4356,"Ġdialog":4357,"Ġmechanic":4358,"Ġbolt":4359,"Ġfrost":4360,"Ġrules":4361,"Ġphysical":4362,"Ġinclude":4363,"Ġhighlights":4364,"Ġabsorb":4365,"Ġmemory":4366,"Ġresistance":4367,"Ġdiamond":4368,"Ġtreadmill":4369,"Ġliterally":4370,"Ġencourage":4371,"Ġcommunication":4372,"uisher":4373,"Ġdesigner":4374,"Ġmotorcycle":4375,"Ġpillow":4376,"Ġsynthetic":4377,"Ġpointing":4378,"Ġmodern":4379,"Ġmanufacturer":4380,"Ġjourn":4381,"Ġconstruction":4382,"Ġhistory":4383,"Ġscalp":4384,"Ġolive":4385,"Ġextinguisher":4386,"romptu":4387,"Ġathlet":4388,"?\"\"\"":4389,"HE":4390,"OS":4391,"SON":4392,"book":4393,"ege":4394,"hs":4395,"here":4396,"haling":4397,"ias":4398,"par":4399,"port":4400,"rac":4401,"ried":4402,"sion":4403,"tive":4404,"tuce":4405,"ught":4406,"wor":4407,"zard":4408,"ĠX":4409,"Ġagg":4410,"Ġthor":4411,"inch":4412,"Ġsoup":4413,"Ġwarr":4414,"Ġyoy":4415,"Ġbands":4416,"Ġbunk":4417,"Ġcakes":4418,"Ġhon":4419,"Ġhoney":4420,"Ġgre":4421,"Ġgun":4422,"Ġgather":4423,"Ġpest":4424,"Ġpulse":4425,"Ġpimples":4426,"Ġfal":4427,"Ġfra":4428,"Ġfitting":4429,"Ġden":4430,"Ġdiv":4431,"Ġla":4432,"Ġlung":4433,"Ġmul":4434,"Ġmale":4435,"Ġmug":4436,"ene":4437,"arse":4438,"ett":4439,"Ġev":4440,"Ġstap":4441,"Ġstiff":4442,"ĠTyp":4443,"ales":4444,"ĠSqu":4445,"Ġrack":4446,"sey":4447,"entine":4448,"urity":4449,"Ġnotes":4450,"ils":4451,"ilities":4452,"Ġtherefore":4453,"Ġcoach":4454,"Ġcoord":4455,"Ġcoarse":4456,"ĠTheir":4457,"ĠOver":4458,"Ġintensity":4459,"Ġclown":4460,"Ġclap":4461,"ortion":4462,"Ġteacher":4463,"Ġpol":4464,"Ġpole":4465,"ĠHome":4466,"ĠHip":4467,"ĠHalf":4468,"Ġprefere":4469,"Ġbite":4470,"Ġknowing":4471,"Ġdew":4472,"ĠMC":4473,"ĠMass":4474,"ocross":4475,"ĠCL":4476,"ĠCap":4477,"ĠCol":4478,"Ġimpromptu":4479,"Ġpriv":4480,"Ġprior":4481,"ĠGina":4482,"ĠGoogle":4483,"Ġscar":4484,"Ġscrap":4485,"Ġboiling":4486,"Ġwasher":4487,"Ġquiet":4488,"Ġtypical":4489,"ĠInst":4490,"ĠJO":4491,"ĠJe":4492,"ĠRob":4493,"Ġadds":4494,"Ġsale":4495,"ĠEu":4496,"Ġcars":4497,"Ġcarbon":4498,"Ġguest":4499,"Ġhighest":4500,"Ġfinally":4501,"Ġdrying":4502,"Ġcrunch":4503,"Ġvend":4504,"Ġuncom":4505,"Ġsquash":4506,"Ġsits":4507,"Ġdecis":4508,"olly":4509,"fortunately":4510,"Ġsurpr":4511,"Ġearth":4512,"ivity":4513,"Ġboards":4514,"ographer":4515,"Ġbegins":4516,"Ġdefinition":4517,"Ġparticularly":4518,"Ġmotions":4519,"Ġsegments":4520,"Ġpurple":4521,"Ġwalls":4522,"Ġdesigns":4523,"Ġdistract":4524,"Ġbuttons":4525,"ribe":4526,"Ġlesson":4527,"Ġdealers":4528,"Ġleaving":4529,"Ġrecommended":4530,"Ġplanning":4531,"Ġsunsc":4532,"Ġmonit":4533,"Ġmonolog":4534,"Ġtricky":4535,"Ġstronger":4536,"Ġclearly":4537,"Ġfocused":4538,"Ġcommonly":4539,"Ġforearm":4540,"Ġ50":4541,"Ġcaught":4542,"Ġstudio":4543,"Ġprotected":4544,"Ġanti":4545,"Ġcalf":4546,"Ġequal":4547,"Ġknots":4548,"Ġweeks":4549,"Ġbasketball":4550,"Ġstraps":4551,"Ġchains":4552,"Ġcarrying":4553,"augh":4554,"Ġnuts":4555,"Ġtomatoes":4556,"Ġsewing":4557,"Ġevents":4558,"Ġshaped":4559,"Ġankles":4560,"Ġapproxim":4561,"Ġrespons":4562,"Ġconsistent":4563,"Ġprepared":4564,"Ġleaning":4565,"Ġtrailer":4566,"Ġestab":4567,"Ġinstruct":4568,"Ġruler":4569,"Ġinclud":4570,"Ġsuccessful":4571,"Ġefficient":4572,"Ġchallenge":4573,"Ġborder":4574,"Ġtelevision":4575,"Ġropes":4576,"Ġcabin":4577,"Ġthighs":4578,"oxide":4579,"Ġsixteen":4580,"Ġtrophy":4581,"Ġfemale":4582,"Ġnutrients":4583,"glass":4584,"Ġdelicious":4585,"Ġaccurate":4586,"Ġdemo":4587,"Ġadvantage":4588,"Ġaroma":4589,"Ġdisplay":4590,"Ġassistant":4591,"Ġconstantly":4592,"Ġchamber":4593,"Ġchampagne":4594,"Ġhorses":4595,"Ġfestiv":4596,"Ġgossip":4597,"Ġkiln":4598,"Ġvolleyball":4599,"ĠGenerally":4600,"Ġwarrant":4601,"Ġyoyo":4602,"Ġfalse":4603,"Ġsunscreen":4604,"VD":4605,"boy":4606,"cr":4607,"ga":4608,"iat":4609,"like":4610,"mun":4611,"pit":4612,"ring":4613,"ses":4614,"teen":4615,"ued":4616,"uate":4617,"ygen":4618,"Ġtill":4619,"rete":4620,"Ġsus":4621,"Ġwish":4622,"Ġwings":4623,"Ġtold":4624,"Ġbake":4625,"Ġbull":4626,"Ġbodies":4627,"Ġcush":4628,"Ġcateg":4629,"Ġhi":4630,"Ġharsh":4631,"Ġgap":4632,"Ġpace":4633,"Ġpig":4634,"Ġpaste":4635,"Ġfurn":4636,"Ġfancy":4637,"Ġfuel":4638,"Ġdream":4639,"Ġlub":4640,"Ġlosing":4641,"Ġmush":4642,"iture":4643,"enna":4644,"lete":4645,"etch":4646,"icep":4647,"edy":4648,"allon":4649,"allow":4650,"ased":4651,"Ġretain":4652,"ĠSm":4653,"ĠSame":4654,"ĠAM":4655,"Ġrings":4656,"Ġroof":4657,"ime":4658,"Ġaspar":4659,"Ġability":4660,"urance":4661,"Ġheld":4662,"artment":4663,"Ġchip":4664,"Ġchosen":4665,"ifting":4666,"Ġcock":4667,"Ġcoated":4668,"Ġsomewhat":4669,"Ġplank":4670,"Ġtried":4671,"Ġtricep":4672,"Ġcloves":4673,"Ġourselves":4674,"unge":4675,"Ġworse":4676,"Ġtwisting":4677,"Ġmelt":4678,"Ġanybody":4679,"Ġpreviously":4680,"Ġsex":4681,"Ġsevent":4682,"Ġbrain":4683,"Ġbranch":4684,"ĠMart":4685,"ĠMel":4686,"ĠWhile":4687,"uments":4688,"reeze":4689,"Ġdrum":4690,"Ġblot":4691,"ĠCle":4692,"Ġpeach":4693,"Ġvan":4694,"Ġvint":4695,"Ġhairs":4696,"Ġprom":4697,"emy":4698,"ĠDouble":4699,"ĠDepend":4700,"ĠDVD":4701,"Ġslower":4702,"Ġlettuce":4703,"Ġfell":4704,"Ġfelt":4705,"agus":4706,"iel":4707,"Ġtops":4708,"Ġscoring":4709,"Ġboats":4710,"ĠPer":4711,"ĠPet":4712,"ĠPose":4713,"Ġimportance":4714,"Ġstrikes":4715,"ĠIntern":4716,"Ġevenly":4717,"ĠRober":4718,"ryst":4719,"ĠEsp":4720,"ogn":4721,"Ġunderw":4722,"Ġthank":4723,"Ġhighly":4724,"airs":4725,"Ġsecurity":4726,"Ġdefend":4727,"Ġminor":4728,"ĠAsk":4729,"Ġdisapp":4730,"Ġpositions":4731,"amples":4732,"Ġhits":4733,"Ġbrushes":4734,"ĠUt":4735,"Ġelim":4736,"Ġproperty":4737,"ĠForward":4738,"Ġdepth":4739,"Ġstretches":4740,"mostat":4741,"iquette":4742,"Ġlayers":4743,"Ġcreative":4744,"Ġcollege":4745,"Ġjobs":4746,"Ġtired":4747,"Ġloss":4748,"Ġinsulation":4749,"Ġbalanced":4750,"Ġvariations":4751,"Ġfollowing":4752,"Ġsolution":4753,"Ġdrills":4754,"Ġwrists":4755,"Ġdemonstration":4756,"Ġthumbs":4757,"Ġpaying":4758,"Ġcomputers":4759,"Ġconnection":4760,"Ġtriple":4761,"Ġblended":4762,"Ġfoil":4763,"Ġgrinder":4764,"Ġmarked":4765,"Ġvideographer":4766,"Ġtemperatures":4767,"Ġpanel":4768,"Ġvision":4769,"Ġvisual":4770,"Ġsupporting":4771,"Ġago":4772,"Ġmicro":4773,"Ġstripes":4774,"Ġterr":4775,"Ġlined":4776,"Ġsweat":4777,"Ġdecorate":4778,"Ġdecoration":4779,"Ġbroad":4780,"iodiesel":4781,"ĠArt":4782,"phone":4783,"Ġmistakes":4784,"Ġproportion":4785,"Ġconsistency":4786,"Ġdental":4787,"Ġmissing":4788,"Ġconnected":4789,"Ġquarterback":4790,"Ġthermostat":4791,"Ġsource":4792,"Ġsources":4793,"Ġcompetition":4794,"Ġautomatically":4795,"Ġweeds":4796,"Ġeffort":4797,"Ġchallenging":4798,"Ġdeliver":4799,"Ġconcerned":4800,"Ġfloat":4801,"Ġhydrating":4802,"Ġcells":4803,"Ġdimension":4804,"Ġvertical":4805,"Ġetiquette":4806,"Ġvitamin":4807,"Ġpsycholog":4808,"Ġgeograp":4809,"Ġabdominal":4810,"Ġrelatively":4811,"Ġrestaurant":4812,"Ġfacial":4813,"Ġcontrolled":4814,"Ġerr":4815,"Ġladies":4816,"Ġturkey":4817,"Ġoxygen":4818,"Ġdiagonal":4819,"ĠOpen":4820,"ĠAfrican":4821,"Ġshaft":4822,"Ġbehavior":4823,"Ġfingertips":4824,"Ġumbre":4825,"Ġdialogue":4826,"Ġthorough":4827,"ĠInstead":4828,"Ġfurniture":4829,"Ġlubric":4830,"Ġasparagus":4831,"Ġvintage":4832,"ĠEspecially":4833,"CD":4834,"ES":4835,"aving":4836,"bone":4837,"ception":4838,"ded":4839,"gy":4840,"hold":4841,"iam":4842,"loy":4843,"my":4844,"mas":4845,"ners":4846,"pt":4847,"pack":4848,"ration":4849,"zen":4850,"ĠQ":4851,"Ġtables":4852,"inj":4853,"Ġwake":4854,"Ġtox":4855,"inger":4856,"Ġbes":4857,"Ġbound":4858,"Ġbought":4859,"Ġbiodiesel":4860,"Ġcart":4861,"Ġcasting":4862,"Ġhenna":4863,"Ġfist":4864,"Ġdie":4865,"Ġdrew":4866,"Ġled":4867,"Ġlatch":4868,"Ġlying":4869,"Ġlazy":4870,"Ġmaker":4871,"Ġgoals":4872,"onn":4873,"ĠInd":4874,"ĠImp":4875,"ĠthatÃ¢":4876,"Ġinvent":4877,"isp":4878,"Ġnurse":4879,"icy":4880,"Ġbear":4881,"Ġweather":4882,"ays":4883,"Ġeating":4884,"Ġstur":4885,"acle":4886,"ĠTV":4887,"ĠTra":4888,"Ġreaching":4889,"ĠSet":4890,"ĠSund":4891,"ĠSince":4892,"ĠSean":4893,"Ġrim":4894,"Ġrisk":4895,"ĠSol":4896,"Ġshuffle":4897,"Ġkit":4898,"Ġkitt":4899,"ĠWill":4900,"urch":4901,"Ġhem":4902,"ilates":4903,"Ġalthough":4904,"ctions":4905,"Ġcoats":4906,"ĠOff":4907,"Ġtrust":4908,"Ġtrig":4909,"ĠBell":4910,"ĠBobby":4911,"Ġexisting":4912,"ĠItal":4913,"Ġpoles":4914,"Ġmel":4915,"Ġflight":4916,"Ġtiming":4917,"ĠHand":4918,"ĠHope":4919,"ĠHobson":4920,"Ġoffer":4921,"Ġoverl":4922,"Ġknowled":4923,"Ġdelete":4924,"Ġbracket":4925,"ĠMull":4926,"ĠWhether":4927,"irect":4928,"Ġbass":4929,"Ġbloom":4930,"ĠFind":4931,"ache":4932,"Ġpron":4933,"ĠDid":4934,"ĠDra":4935,"ĠGips":4936,"Ġfear":4937,"Ġsmash":4938,"Ġskip":4939,"Ġskate":4940,"Ġquad":4941,"Ġarc":4942,"Ġmanual":4943,"Ġplayed":4944,"Ġpointed":4945,"aled":4946,"arsley":4947,"Ġhardness":4948,"Ġpositive":4949,"Ġextensions":4950,"ĠStud":4951,"Ġrepl":4952,"Ġrept":4953,"Ġcritical":4954,"Ġrecogn":4955,"Ġresid":4956,"Ġrespect":4957,"Ġelastic":4958,"Ġobst":4959,"Ġdecent":4960,"Ġnews":4961,"Ġsurround":4962,"Ġsnug":4963,"Ġelement":4964,"Ġspeaker":4965,"Ġsorts":4966,"Ġindepend":4967,"gged":4968,"string":4969,"Ġaccept":4970,"Ġlevels":4971,"Ġcollection":4972,"Ġfreeze":4973,"riage":4974,"Ġallowing":4975,"Ġtesting":4976,"acterial":4977,"Ġinsert":4978,"Ġcaptain":4979,"ĠSomething":4980,"Ġconflic":4981,"lished":4982,"Ġstudy":4983,"Ġprotects":4984,"Ġsubtle":4985,"Ġdeveloped":4986,"Ġcalc":4987,"Ġparr":4988,"irls":4989,"Ġadvance":4990,"Ġroutine":4991,"Ġagree":4992,"ounced":4993,"Ġmagaz":4994,"ifying":4995,"Ġlanding":4996,"Ġhearing":4997,"Ġauth":4998,"Ġterminal":4999,"Ġmolds":5000,"Ġdribbling":5001,"Ġemail":5002,"Ġversion":5003,"Ġprograms":5004,"Ġribbon":5005,"Ġtissues":5006,"Ġsparkling":5007,"Ġvolcan":5008,"ĠOtherwise":5009,"Ġbecoming":5010,"Ġdropped":5011,"Ġmaximum":5012,"Ġchemicals":5013,"Ġdiameter":5014,"Ġconcrete":5015,"Ġactivities":5016,"Ġsleeve":5017,"Ġvitamins":5018,"Ġoutdoor":5019,"Ġwrapped":5020,"Ġimagine":5021,"Ġantibacterial":5022,"Ġcompliment":5023,"Ġutilizing":5024,"Ġbridge":5025,"Ġdramatic":5026,"Ġthermometer":5027,"Ġlasso":5028,"Ġdurable":5029,"Ġassemble":5030,"ĠChristmas":5031,"Ġflea":5032,"Ġstationary":5033,"Ġfrequently":5034,"Ġwedge":5035,"Ġcomplicated":5036,"Ġsymptoms":5037,"Ġpotential":5038,"ĠSimply":5039,"abetes":5040,"Ġaggressive":5041,"ĠJeff":5042,"Ġmonologue":5043,"Ġcushion":5044,"ĠDepending":5045,"ĠRobert":5046,"ĠUtah":5047,"Ġknowledge":5048,"ĠMuller":5049,"ĠGipson":5050,"But":5051,"RE":5052,"aves":5053,"bie":5054,"bound":5055,"cage":5056,"cribe":5057,"ders":5058,"ebra":5059,"food":5060,"flow":5061,"has":5062,"house":5063,"iot":5064,"lers":5065,"lines":5066,"no":5067,"nia":5068,"pend":5069,"pensive":5070,"riger":5071,"van":5072,"vide":5073,"word":5074,"yes":5075,"Ġ0":5076,"Ġtit":5077,"Ġtaper":5078,"Ġtumb":5079,"ret":5080,"Ġsite":5081,"Ġsample":5082,"Ġsized":5083,"Ġwound":5084,"Ġtoen":5085,"Ġbi":5086,"Ġboo":5087,"eri":5088,"erve":5089,"Ġcryst":5090,"Ġhats":5091,"Ġgrap":5092,"Ġpause":5093,"Ġpap":5094,"Ġpizz":5095,"Ġfund":5096,"Ġdumb":5097,"Ġlust":5098,"Ġluck":5099,"Ġlooked":5100,"Ġlunge":5101,"Ġmild":5102,"anna":5103,"lements":5104,"arant":5105,"Ġnav":5106,"Ġnature":5107,"Ġonions":5108,"icro":5109,"ician":5110,"Ġbee":5111,"Ġwhisk":5112,"Ġstates":5113,"Ġstaff":5114,"asm":5115,"utions":5116,"ĠTe":5117,"Ġreward":5118,"Ġdoors":5119,"ĠSer":5120,"ĠSch":5121,"ĠSouth":5122,"Ġrust":5123,"ighb":5124,"ustry":5125,"idered":5126,"Ġwanting":5127,"Ġshore":5128,"Ġshel":5129,"Ġshred":5130,"Ġshiny":5131,"Ġsofter":5132,"Ġasked":5133,"ĠYoga":5134,"Ġneighb":5135,"Ġhey":5136,"ilies":5137,"inder":5138,"Ġcharm":5139,"Ġchances":5140,"Ġchurch":5141,"Ġlever":5142,"Ġallerg":5143,"ĠNorth":5144,"Ġbutt":5145,"Ġknives":5146,"ĠOut":5147,"Ġtruck":5148,"ĠBel":5149,"ulations":5150,"Ġintim":5151,"Ġdownward":5152,"Ġexam":5153,"Ġclump":5154,"ĠIts":5155,"soft":5156,"Ġmemb":5157,"Ġflick":5158,"Ġflies":5159,"pper":5160,"Ġconvers":5161,"ĠHolly":5162,"Ġprec":5163,"Ġkept":5164,"Ġbron":5165,"ĠMad":5166,"Ġactive":5167,"akie":5168,"Ġblad":5169,"Ġpel":5170,"Ġvin":5171,"Ġvic":5172,"ĠFl":5173,"ĠFive":5174,"ĠFire":5175,"Ġherbal":5176,"ĠLa":5177,"ĠLast":5178,"ĠLaur":5179,"ĠDiff":5180,"ĠDrop":5181,"ĠGreen":5182,"Ġslack":5183,"Ġbuff":5184,"Ġboy":5185,"ĠPAR":5186,"Ġglitter":5187,"Ġpile":5188,"ĠRes":5189,"Ġease":5190,"ĠEn":5191,"Ġsetup":5192,"Ġperoxide":5193,"Ġlineback":5194,"Ġending":5195,"Ġappet":5196,"Ġappear":5197,"Ġgrout":5198,"Ġcouch":5199,"Ġfourth":5200,"Ġfourteen":5201,"ĠWhenever":5202,"Ġstream":5203,"Ġcrew":5204,"Ġminer":5205,"Ġminim":5206,"ĠKind":5207,"Ġdisp":5208,"ĠStar":5209,"Ġrolls":5210,"Ġfinishing":5211,"Ġresin":5212,"Ġrescue":5213,"Ġafterwards":5214,"issa":5215,"Ġcareer":5216,"ressions":5217,"Ġpushed":5218,"ollow":5219,"Ġsymb":5220,"Ġimmun":5221,"Ġconsum":5222,"Ġconserv":5223,"Ġpasses":5224,"Ġpassed":5225,"Ġknew":5226,"Ġinfl":5227,"Ġnecklace":5228,"Ġindustry":5229,"Ġparticip":5230,"Ġwires":5231,"Ġmeasured":5232,"Ġeighty":5233,"Ġhousehold":5234,"Ġfreezer":5235,"Ġrubbing":5236,"Ġexperi":5237,"Ġsalad":5238,"Ġprints":5239,"ĠDoes":5240,"Ġmatches":5241,"Ġjean":5242,"Ġprofile":5243,"Ġdeeply":5244,"Ġwashed":5245,"Ġclasses":5246,"Ġclassroom":5247,"Ġdrinks":5248,"Ġhappened":5249,"Ġpreparing":5250,"Ġapartment":5251,"Ġbatteries":5252,"Ġvideos":5253,"Ġrequired":5254,"clock":5255,"Ġscissor":5256,"Ġclockwise":5257,"Ġtorch":5258,"Ġrotation":5259,"Ġstrengthen":5260,"Ġflexible":5261,"Ġdecorative":5262,"Ġterminals":5263,"Ġsecurely":5264,"Ġorganic":5265,"Ġnearby":5266,"ĠReally":5267,"Ġhyd":5268,"Ġselecting":5269,"Ġprinc":5270,"Ġcirculation":5271,"Ġribcage":5272,"ĠArts":5273,"Ġoccasion":5274,"Ġspending":5275,"Ġmechanics":5276,"ĠCanad":5277,"Ġcaused":5278,"Ġinstrument":5279,"Ġemploy":5280,"Ġtelephone":5281,"Ġroping":5282,"Ġstamps":5283,"Ġthrown":5284,"Ġaspects":5285,"Ġintroduce":5286,"Ġkayak":5287,"Ġadults":5288,"metric":5289,"Ġeyeliner":5290,"Ġeyebrows":5291,"Ġdetector":5292,"ĠDavid":5293,"Ġhouses":5294,"ĠCarol":5295,"Ġbinding":5296,"Ġprocedure":5297,"Ġconfused":5298,"Ġparents":5299,"Ġteapot":5300,"Ġsurvive":5301,"ĠBoomer":5302,"Ġsculpture":5303,"ĠPeople":5304,"Ġathletic":5305,"SONS":5306,"Ġpreference":5307,"ĠJOE":5308,"ĠEurop":5309,"Ġapproximately":5310,"Ġcategory":5311,"ĠMelissa":5312,"ĠInternet":5313,"Ġeliminate":5314,"Ġumbrella":5315,"Ġkitty":5316,"ĠBelly":5317,"Ġskateboard":5318,"Ġvolcano":5319,"video":5320,"Ġmembers":5321,"ĠHollywood":5322,"ĠLaura":5323,"ĠPARSONS":5324,"Ġsymbol":5325,"Ġconservative":5326,"40":5327,"RI":5328,"The":5329,"Wh":5330,"ault":5331,"bed":5332,"bage":5333,"dem":5334,"eight":5335,"hill":5336,"lim":5337,"lock":5338,"min":5339,"mare":5340,"ns":5341,"rup":5342,"ties":5343,"uary":5344,"vity":5345,"zz":5346,"Ġven":5347,"Ġvel":5348,"Ġtin":5349,"Ġtour":5350,"Ġtied":5351,"Ġax":5352,"Ġaqu":5353,"ino":5354,"inking":5355,"inated":5356,"oul":5357,"retch":5358,"Ġsen":5359,"Ġwife":5360,"Ġwoman":5361,"Ġodd":5362,"Ġyouth":5363,"ndar":5364,"Ġba":5365,"Ġbars":5366,"Ġborn":5367,"Ġcas":5368,"Ġcoo":5369,"Ġcale":5370,"Ġcode":5371,"Ġhose":5372,"Ġhood":5373,"Ġgage":5374,"Ġpure":5375,"Ġpist":5376,"Ġpong":5377,"Ġpale":5378,"Ġdull":5379,"Ġdue":5380,"Ġdise":5381,"Ġlink":5382,"Ġlady":5383,"Ġlump":5384,"Ġlob":5385,"Ġlunch":5386,"Ġlands":5387,"Ġlaid":5388,"Ġmur":5389,"Ġmail":5390,"Ġmature":5391,"itives":5392,"onse":5393,"Ġinex":5394,"uses":5395,"usion":5396,"arms":5397,"arian":5398,"omnia":5399,"icial":5400,"icular":5401,"iction":5402,"Ġyours":5403,"Ġwhit":5404,"Ġep":5405,"Ġstones":5406,"Ġstunt":5407,"uty":5408,"uted":5409,"utch":5410,"ĠTeri":5411,"Ġrender":5412,"Ġreview":5413,"Ġrebound":5414,"outher":5415,"erent":5416,"antic":5417,"ĠAd":5418,"Ġrum":5419,"Ġrag":5420,"Ġrise":5421,"Ġracing":5422,"ĠThink":5423,"ĠThings":5424,"Ġjud":5425,"chil":5426,"Ġlives":5427,"Ġship":5428,"Ġshare":5429,"Ġshaking":5430,"Ġshield":5431,"Ġasking":5432,"illed":5433,"ources":5434,"Ġoutline":5435,"ĠWor":5436,"Ġfrizz":5437,"ĠNever":5438,"ĠNumber":5439,"ĠNinj":5440,"terior":5441,"Ġbackside":5442,"opard":5443,"Ġwilling":5444,"Ġknock":5445,"ĠOCD":5446,"Ġtrimm":5447,"ĠBot":5448,"ĠBill":5449,"ulty":5450,"Ġmeal":5451,"Ġmeant":5452,"ĠWelcome":5453,"Ġflaming":5454,"amele":5455,"Ġsequ":5456,"Ġsewn":5457,"Ġseats":5458,"Ġbrief":5459,"ĠMar":5460,"ĠMore":5461,"ĠMicro":5462,"Ġacts":5463,"Ġblows":5464,"ĠCo":5465,"ĠComp":5466,"Ġpeg":5467,"Ġpear":5468,"Ġvary":5469,"ĠFe":5470,"Ġimpact":5471,"Ġimposs":5472,"Ġimpression":5473,"ĠDep":5474,"ĠDown":5475,"ĠDean":5476,"Ġenf":5477,"Ġslices":5478,"berry":5479,"inkles":5480,"ypt":5481,"Ġsketch":5482,"Ġscall":5483,"ĠPush":5484,"Ġstrain":5485,"Ġstrange":5486,"Ġstrateg":5487,"Ġroast":5488,"Ġarts":5489,"enses":5490,"osaur":5491,"ĠRich":5492,"ĠEither":5493,"Ġplays":5494,"Ġswamp":5495,"Ġwhoever":5496,"Ġmostly":5497,"Ġ12":5498,"Ġguarant":5499,"Ġperception":5500,"Ġperpend":5501,"Ġended":5502,"Ġplacement":5503,"Ġholder":5504,"Ġcompass":5505,"Ġfootball":5506,"ĠAlmost":5507,"Ġhandspring":5508,"elle":5509,"Ġmini":5510,"Ġminus":5511,"ĠAsh":5512,"Ġdrawn":5513,"Ġdisks":5514,"Ġserp":5515,"Ġserving":5516,"Ġserves":5517,"Ġrepet":5518,"Ġdrywall":5519,"Ġrealistic":5520,"Ġ25":5521,"ĠAnn":5522,"Ġunique":5523,"ĠUse":5524,"Ġexpand":5525,"Ġflatten":5526,"fortable":5527,"Ġconsidered":5528,"Ġhomework":5529,"Ġpotty":5530,"Ġindoors":5531,"ercial":5532,"Ġmasking":5533,"ording":5534,"Ġresting":5535,"Ġincome":5536,"Ġairpl":5537,"Ġmarkers":5538,"Ġlocking":5539,"Ġmotocross":5540,"Ġtrainer":5541,"Ġblender":5542,"Ġgrabbing":5543,"Ġwaiting":5544,"Ġcookie":5545,"Ġrefriger":5546,"ĠTodd":5547,"Ġtreating":5548,"ĠBeaut":5549,"Ġprinted":5550,"Ġshooter":5551,"Ġbusy":5552,"Ġcooling":5553,"Ġrelaxing":5554,"Ġpowerful":5555,"Ġforehead":5556,"Ġsolutions":5557,"Ġcustomers":5558,"Ġbreaths":5559,"Ġsigns":5560,"ccoli":5561,"Ġmarriage":5562,"Ġ720":5563,"Ġthreads":5564,"ternal":5565,"Ġelectron":5566,"Ġmouthpiece":5567,"Ġvisit":5568,"Ġentirely":5569,"Ġpackage":5570,"Ġagent":5571,"Ġlocks":5572,"Ġsituations":5573,"Ġpurposes":5574,"Ġlining":5575,"Ġinstalled":5576,"Ġcostume":5577,"ĠReal":5578,"ĠUsing":5579,"Ġemot":5580,"Ġmounting":5581,"Ġinternal":5582,"Ġinternational":5583,"Ġstatement":5584,"Ġobjects":5585,"Ġrespond":5586,"Ġresponse":5587,"Ġvolt":5588,"Ġprimer":5589,"Ġprimarily":5590,"Ġcowboy":5591,"Ġfifth":5592,"Ġseams":5593,"Ġhinges":5594,"Ġgrand":5595,"Ġalternative":5596,"Ġthousands":5597,"orcement":5598,"Ġillustr":5599,"Ġinjury":5600,"Ġmillimeter":5601,"abilities":5602,"Ġsixty":5603,"Ġbreasts":5604,"Ġdesigning":5605,"ĠKnow":5606,"Ġcandle":5607,"Ġseeds":5608,"ĠProbably":5609,"Ġcontinuing":5610,"ĠTwo":5611,"Ġrarely":5612,"Ġgroove":5613,"Ġgrooves":5614,"Ġrepresent":5615,"Ġrepresents":5616,"Ġprogress":5617,"ĠComing":5618,"Ġpendulum":5619,"Ġdynam":5620,"Ġreleasing":5621,"Ġanchor":5622,"Ġdehydrated":5623,"ĠJackie":5624,"Ġtailslide":5625,"ĠMichelle":5626,"Ġenclosure":5627,"Ġjournals":5628,"Ġbunker":5629,"Ġhonest":5630,"Ġmulch":5631,"ĠMCG":5632,"Ġprivate":5633,"Ġmonitor":5634,"Ġwarranty":5635,"crip":5636,"Ġsturdy":5637,"ĠSundae":5638,"ĠSolution":5639,"Ġtrigger":5640,"ĠItalian":5641,"Ġpronounced":5642,"ĠStudio":5643,"Ġreptile":5644,"Ġconflict":5645,"Ġauthor":5646,"Ġtoenails":5647,"Ġfundament":5648,"Ġshredded":5649,"ĠDifferent":5650,"demo":5651,"Ġcalendar":5652,"Ġinexpensive":5653,"outhern":5654,"chilad":5655,"ĠNinja":5656,"ĠMicrosoft":5657,"Ġimpossible":5658,"Ġperpendicular":5659,"Ġairplane":5660,".\"\"":5661,"?\"":5662,"EN":5663,"EHE":5664,"ST":5665,"Yes":5666,"bre":5667,"crow":5668,"four":5669,"fire":5670,"gee":5671,"gypt":5672,"ius":5673,"lain":5674,"mi":5675,"mail":5676,"non":5677,"pies":5678,"ris":5679,"sing":5680,"vals":5681,"win":5682,"Ġtast":5683,"Ġtug":5684,"Ġthreat":5685,"ini":5686,"inese":5687,"rest":5688,"Ġsatur":5689,"Ġwip":5690,"Ġwines":5691,"Ġod":5692,"atory":5693,"erly":5694,"Ġcact":5695,"Ġcass":5696,"Ġcel":5697,"Ġcuff":5698,"Ġcyl":5699,"Ġhyp":5700,"Ġhorm":5701,"Ġgave":5702,"Ġgallon":5703,"Ġpers":5704,"Ġpony":5705,"Ġporce":5706,"Ġparsley":5707,"Ġfaces":5708,"Ġfleas":5709,"Ġfakie":5710,"Ġding":5711,"Ġdot":5712,"Ġded":5713,"Ġdump":5714,"lly":5715,"Ġloud":5716,"Ġmats":5717,"itrogen":5718,"esh":5719,"esome":5720,"onents":5721,"orage":5722,"orous":5723,"usb":5724,"user":5725,"lement":5726,"lets":5727,"ising":5728,"arge":5729,"Ġnood":5730,"Ġnunch":5731,"Ġbean":5732,"Ġbevel":5733,"Ġweap":5734,"Ġemer":5735,"Ġemb":5736,"Ġstorage":5737,"acqu":5738,"acock":5739,"ĠTurn":5740,"ĠSu":5741,"ĠAL":5742,"Ġrich":5743,"Ġrating":5744,"Ġrows":5745,"vert":5746,"Ġjog":5747,"iday":5748,"Ġuh":5749,"Ġlizard":5750,"Ġshin":5751,"Ġking":5752,"Ġkings":5753,"Ġkits":5754,"ental":5755,"roc":5756,"roy":5757,"Ġupgr":5758,"eem":5759,"eeze":5760,"amic":5761,"amily":5762,"Ġassoci":5763,"ĠWalk":5764,"ĠWoman":5765,"uries":5766,"Ġheating":5767,"Ġchap":5768,"Ġleopard":5769,"ĠNational":5770,"ookah":5771,"iform":5772,"ifreeze":5773,"Ġcopper":5774,"Ġbacking":5775,"Ġbackpack":5776,"geon":5777,"geous":5778,"Ġtrace":5779,"ĠBase":5780,"ĠBoth":5781,"ĠBaile":5782,"Ġexterior":5783,"Ġexternal":5784,"Ġclas":5785,"Ġtender":5786,"Ġpoker":5787,"Ġflute":5788,"estyle":5789,"Ġcone":5790,"ĠHer":5791,"ĠHale":5792,"ĠHair":5793,"ĠHookah":5794,"amel":5795,"Ġpret":5796,"Ġsealed":5797,"ĠMaking":5798,"ĠMiam":5799,"umin":5800,"Ġdifferences":5801,"Ġgotta":5802,"Ġdries":5803,"Ġdrinking":5804,"aky":5805,"Ġbash":5806,"Ġblah":5807,"ĠCenter":5808,"Ġsideways":5809,"Ġvent":5810,"Ġvase":5811,"Ġvib":5812,"ĠFamily":5813,"Ġdifferently":5814,"Ġprone":5815,"Ġherbs":5816,"ĠLES":5817,"ĠDes":5818,"ĠDance":5819,"ĠGib":5820,"ĠGerm":5821,"ĠGirls":5822,"Ġenemy":5823,"Ġenchilad":5824,"Ġsling":5825,"Ġfeather":5826,"Ġskull":5827,"Ġscroll":5828,"Ġsuck":5829,"Ġboss":5830,"Ġbonds":5831,"ĠPlace":5832,"Ġarr":5833,"ĠJump":5834,"Ġconte":5835,"Ġcontent":5836,"ĠRep":5837,"ĠRel":5838,"ĠEaster":5839,"ĠEgypt":5840,"Ġcouldn":5841,"Ġcarrier":5842,"Ġpulls":5843,"Ġlighten":5844,"Ġapple":5845,"Ġcomprom":5846,"Ġbrings":5847,"Ġnobody":5848,"Ġcleaned":5849,"Ġpresses":5850,"Ġwrinkles":5851,"Ġbreve":5852,"elling":5853,"Ġminimum":5854,"ĠKle":5855,"Ġhimself":5856,"Ġdisinf":5857,"Ġbottoms":5858,"Ġbuyer":5859,"Ġthrows":5860,"Ġproduction":5861,"Ġcrisp":5862,"Ġrecre":5863,"Ġresume":5864,"Ġglasses":5865,"Ġfung":5866,"Ġunf":5867,"Ġunfortunately":5868,"Ġuniform":5869,"Ġtouched":5870,"Ġdecoup":5871,"Ġrelated":5872,"Ġnewsp":5873,"Ġconsult":5874,"Ġfuller":5875,"Ġpicks":5876,"Ġclosely":5877,"Ġinfant":5878,"Ġindirect":5879,"strings":5880,"Ġmixer":5881,"Ġzebra":5882,"Ġincred":5883,"ĠChinese":5884,"Ġaccum":5885,"Ġaccording":5886,"Ġstyl":5887,"ĠHead":5888,"Ġwalks":5889,"Ġmedia":5890,"Ġtrainers":5891,"Ġthinner":5892,"Ġwarming":5893,"Ġspins":5894,"Ġstuffed":5895,"Ġmainly":5896,"Ġentr":5897,"Ġsurfaces":5898,"Ġirons":5899,"Ġcookies":5900,"Ġcontrols":5901,"Ġcommercial":5902,"Ġphotographing":5903,"Ġphotographic":5904,"Ġtreats":5905,"Ġclosing":5906,"Ġclosest":5907,"Ġinspect":5908,"Ġinsomnia":5909,"ification":5910,"Ġstrongly":5911,"Ġfocusing":5912,"box":5913,"Ġsmoothly":5914,"Ġdrilling":5915,"ĠNothing":5916,"Ġgardening":5917,"Ġtoothbrush":5918,"Ġburning":5919,"Ġbending":5920,"immy":5921,"Ġconnecting":5922,"Ġdeveloper":5923,"Ġsqueegee":5924,"Ġantifreeze":5925,"Ġcalm":5926,"Ġparking":5927,"Ġmarking":5928,"plant":5929,"Ġdiscussed":5930,"Ġjoin":5931,"Ġvalve":5932,"Ġcreamy":5933,"Ġsharpening":5934,"Ġdamaged":5935,"Ġassess":5936,"Ġtorque":5937,"Ġdifficulty":5938,"Ġcontainers":5939,"Ġstrengthening":5940,"Ġshrug":5941,"ĠEverybody":5942,"Ġsewer":5943,"Ġbroccoli":5944,"Ġoriginally":5945,"Ġchoke":5946,"Ġexcuse":5947,"Ġexciting":5948,"Ġchopped":5949,"Ġversat":5950,"Ġsmells":5951,"Ġexplained":5952,"Ġprovides":5953,"ĠAnything":5954,"Ġelectrical":5955,"Ġmessage":5956,"ĠSwitch":5957,"Ġsparks":5958,"Ġvolume":5959,"Ġmaintaining":5960,"Ġfeeding":5961,"Ġrecords":5962,"Ġhuman":5963,"Ġhumid":5964,"Ġempty":5965,"Ġemphas":5966,"Ġdigit":5967,"Ġrelationships":5968,"Ġconcerns":5969,"upply":5970,"Ġmember":5971,"Ġdinosaur":5972,"Ġunders":5973,"Ġconcept":5974,"Ġsleeves":5975,"Ġwiggle":5976,"Ġoutdoors":5977,"Ġwrapping":5978,"Ġexfoliate":5979,"ĠAbout":5980,"Ġabdominals":5981,"Ġrestaurants":5982,"Ġcrawl":5983,"Ġcrawling":5984,"Ġutilize":5985,"Ġeducation":5986,"Ġirrit":5987,"Ġbuckle":5988,"Ġcleansing":5989,"color":5990,"Ġbugs":5991,"Ġticks":5992,"Ġlicense":5993,"Ġrenting":5994,"Ġspirit":5995,"ĠPretty":5996,"load":5997,"ĠPractition":5998,"Ġpuppy":5999,"Ġfantastic":6000,"Ġruin":6001,"Ġconvenient":6002,"ĠDaniel":6003,"Ġpaddling":6004,"Ġawesome":6005,"Ġfolks":6006,"Ġjersey":6007,"Ġanaly":6008,"Ġmovie":6009,"Ġadaptive":6010,"Ġprotein":6011,"Ġlungs":6012,"ĠTypically":6013,"ĠSqueeze":6014,"ĠCaptain":6015,"Ġvendors":6016,"Ġuncomfortable":6017,"Ġdecision":6018,"Ġinstructor":6019,"Ġcabinet":6020,"Ġbullet":6021,"Ġcockpit":6022,"Ġseventy":6023,"ĠMartial":6024,"Ġvanilla":6025,"Ġgeography":6026,"Ġtablespoon":6027,"Ġresidue":6028,"Ġpizza":6029,"ĠSchool":6030,"Ġneighbor":6031,"Ġintimid":6032,"What":6033,"ĠBottoms":6034,"Ġenforcement":6035,"Ġserpentine":6036,"Ġrefrigerator":6037,"Ġdynamic":6038,"ĠMCGEHE":6039,"cription":6040,"ĠSolutionz":6041,"Ġcactus":6042,"Ġcelery":6043,"Ġporcelain":6044,"Ġnunchuck":6045,"Ġupgrade":6046,"ĠBailey":6047,"ĠMiami":6048,"ĠGibson":6049,"Ġdisinfect":6050,"Ġdecoupage":6051,"ĠMCGEHEE":6052,"AT":6053,"DA":6054,"OC":6055,"To":6056,"aire":6057,"ael":6058,"bur":6059,"cular":6060,"cept":6061,"corn":6062,"eu":6063,"field":6064,"gency":6065,"ham":6066,"ik":6067,"ltim":6068,"mar":6069,"mails":6070,"nut":6071,"noon":6072,"ois":6073,"pressions":6074,"rate":6075,"rud":6076,"tail":6077,"uage":6078,"uable":6079,"uals":6080,"wart":6081,"xed":6082,"yond":6083,"ÃĤ":6084,"Ġtut":6085,"Ġtag":6086,"Ġtuc":6087,"Ġtask":6088,"Ġamp":6089,"Ġsake":6090,"Ġsail":6091,"Ġwat":6092,"Ġyank":6093,"Ġyarn":6094,"ndrome":6095,"ingle":6096,"Ġbang":6097,"eras":6098,"erole":6099,"Ġcure":6100,"Ġcil":6101,"Ġcrop":6102,"Ġhide":6103,"Ġhost":6104,"Ġhusb":6105,"Ġgum":6106,"Ġgeck":6107,"Ġgau":6108,"Ġgels":6109,"Ġgrape":6110,"Ġpy":6111,"Ġpleas":6112,"Ġfarm":6113,"Ġdat":6114,"Ġdab":6115,"Ġlack":6116,"Ġlost":6117,"Ġlang":6118,"Ġlats":6119,"Ġlashes":6120,"Ġmer":6121,"Ġmis":6122,"Ġmort":6123,"Ġmath":6124,"Ġmouse":6125,"Ġmaps":6126,"annel":6127,"itude":6128,"itivity":6129,"ona":6130,"orrow":6131,"orary":6132,"ĠIg":6133,"leep":6134,"isher":6135,"eties":6136,"Ġnerv":6137,"Ġnicer":6138,"Ġhabit":6139,"kew":6140,"ico":6141,"icles":6142,"Ġwelcome":6143,"aying":6144,"Ġeaves":6145,"Ġstirr":6146,"acity":6147,"utter":6148,"ĠTom":6149,"Ġrehe":6150,"Ġdoc":6151,"antro":6152,"ĠAc":6153,"ĠApr":6154,"Ġratch":6155,"Ġratt":6156,"ĠThai":6157,"Ġjar":6158,"Ġforg":6159,"lderly":6160,"ional":6161,"Ġshim":6162,"Ġshock":6163,"Ġshifting":6164,"Ġann":6165,"ado":6166,"adays":6167,"Ġorient":6168,"stream":6169,"iments":6170,"rol":6171,"Ġupwards":6172,"amm":6173,"Ġmos":6174,"three":6175,"thony":6176,"ĠWind":6177,"aint":6178,"Ġalt":6179,"Ġchamele":6180,"Ġfrustr":6181,"Ġfriction":6182,"cean":6183,"ĠNatur":6184,"ipt":6185,"iper":6186,"ifier":6187,"Ġbacksw":6188,"ĠOld":6189,"ĠOft":6190,"Ġspa":6191,"Ġspo":6192,"Ġtray":6193,"Ġtrash":6194,"ules":6195,"Ġintake":6196,"Ġintense":6197,"Ġexit":6198,"Ġclues":6199,"ĠItÃ¢":6200,"Ġtext":6201,"Ġworn":6202,"Ġpoor":6203,"Ġneedles":6204,"Ġflatter":6205,"Ġconcl":6206,"Ġhandling":6207,"Ġpregn":6208,"Ġoffset":6209,"Ġsemi":6210,"Ġdev":6211,"anda":6212,"Ġbrow":6213,"ĠMr":6214,"ĠMan":6215,"ĠMot":6216,"ummy":6217,"Ġkeeper":6218,"Ġblond":6219,"ĠCause":6220,"ĠCroc":6221,"Ġhasn":6222,"Ġvine":6223,"ĠFu":6224,"ĠFour":6225,"ĠFlex":6226,"ĠFinally":6227,"Ġparting":6228,"Ġprices":6229,"ĠLow":6230,"ĠDa":6231,"ĠDating":6232,"ĠGreg":6233,"Ġslop":6234,"agn":6235,"ishes":6236,"Ġscare":6237,"Ġscrape":6238,"Ġscene":6239,"Ġsuff":6240,"ĠPilates":6241,"Ġglow":6242,"Ġarg":6243,"Ġcontour":6244,"Ġclew":6245,"raps":6246,"ĠRuss":6247,"Ġadditional":6248,"Ġadditives":6249,"Ġbetting":6250,"Ġmanip":6251,"Ġmaneu":6252,"iled":6253,"Ġremaining":6254,"Ġunderco":6255,"Ġsheets":6256,"Ġmoved":6257,"Ġ11":6258,"Ġcarr":6259,"Ġcarbo":6260,"Ġperm":6261,"Ġheads":6262,"Ġcomponents":6263,"Ġfootage":6264,"Ġfootwork":6265,"Ġsimpl":6266,"Ġnoise":6267,"ĠAlthough":6268,"ĠKick":6269,"ĠKung":6270,"Ġdrawer":6271,"Ġdrawings":6272,"Ġhalfway":6273,"Ġservices":6274,"ĠStay":6275,"ĠStill":6276,"Ġreprodu":6277,"Ġrolled":6278,"tainment":6279,"Ġcardio":6280,"Ġcentury":6281,"Ġcran":6282,"Ġcrust":6283,"Ġcriss":6284,"Ġrecipe":6285,"ĠAnthony":6286,"Ġfunnel":6287,"Ġplanting":6288,"Ġplanted":6289,"Ġpaints":6290,"Ġafternoon":6291,"Ġexposure":6292,"Ġdecrease":6293,"Ġdesire":6294,"Ġdesired":6295,"Ġsyndrome":6296,"Ġjumps":6297,"Ġsnout":6298,"Ġsnack":6299,"Ġeleg":6300,"while":6301,"Ġregulations":6302,"Ġcomplex":6303,"Ġcomfortably":6304,"Ġspecies":6305,"Ġindustr":6306,"Ġzop":6307,"Ġtighter":6308,"ĠMyrick":6309,"Ġinterior":6310,"Ġintervals":6311,"Ġraft":6312,"Ġboxing":6313,"Ġmeasurements":6314,"Ġtrained":6315,"Ġsprings":6316,"Ġtabletop":6317,"Ġdiving":6318,"Ġdiabetes":6319,"Ġeighteen":6320,"Ġcheat":6321,"Ġentry":6322,"Ġformal":6323,"Ġwaves":6324,"Ġdistin":6325,"Ġbrands":6326,"rior":6327,"Ġphotograph":6328,"Ġmassaging":6329,"ĠDoctor":6330,"Ġrounds":6331,"Ġtranslu":6332,"Ġcoolant":6333,"Ġvehicles":6334,"Ġvarieties":6335,"Ġfabrics":6336,"Ġforest":6337,"Ġconditioner":6338,"Ġtoothp":6339,"Ġcameras":6340,"Ġfreestyle":6341,"Ġmirrors":6342,"ĠGoing":6343,"Ġblending":6344,"Ġcalves":6345,"Ġteams":6346,"Ġgrinding":6347,"Ġwok":6348,"pray":6349,"Ġhanger":6350,"Ġvisible":6351,"Ġvaluable":6352,"omenade":6353,"Ġspecialty":6354,"Ġmatte":6355,"Ġassign":6356,"Ġsmoking":6357,"Ġabscess":6358,"Ġfatig":6359,"Ġsleeping":6360,"Ġtomorrow":6361,"ĠClose":6362,"Ġstainless":6363,"Ġcostumes":6364,"Ġunderstanding":6365,"Ġloaded":6366,"Ġliquor":6367,"Ġtoilets":6368,"ĠExpressions":6369,"Ġfiring":6370,"Ġsafely":6371,"Ġmethods":6372,"Ġguideline":6373,"Ġindividually":6374,"Ġindividuals":6375,"Ġwebsites":6376,"Ġgirls":6377,"Ġsocial":6378,"Ġprimary":6379,"Ġesteem":6380,"Ġsensitivity":6381,"Ġhamstrings":6382,"Ġcompete":6383,"Ġcompetitive":6384,"Ġkilled":6385,"Ġrepeats":6386,"Ġpurchasing":6387,"Ġautomatic":6388,"Ġfrozen":6389,"Ġmulti":6390,"Ġphysician":6391,"ĠThanks":6392,"ĠJohanna":6393,"Ġhydrated":6394,"Ġoccurs":6395,"Ġinjuries":6396,"Ġmillion":6397,"Ġlimit":6398,"Ġlimited":6399,"Ġviewer":6400,"Ġcampfire":6401,"Ġradio":6402,"Ġcheeks":6403,"ĠKnee":6404,"Ġconfidence":6405,"Ġbrewing":6406,"Ġimaginary":6407,"Ġinitiate":6408,"ĠBlack":6409,"Ġflags":6410,"Ġgraduate":6411,"Ġconcentrate":6412,"Ġlaser":6413,"Ġinspired":6414,"Ġsharks":6415,"ĠBarbie":6416,"Ġpendant":6417,"Ġmartial":6418,"Ġmartini":6419,"Ġsocks":6420,"Ġstimulate":6421,"ĠPromenade":6422,"ĠStewart":6423,"Ġreference":6424,"Ġdestroy":6425,"Ġseafood":6426,"Ġscreaming":6427,"Ġbleeding":6428,"Ġfragr":6429,"ĠMassage":6430,"Ġscarf":6431,"Ġguests":6432,"Ġfestivals":6433,"ĠClear":6434,"Ġfellow":6435,"Ġunderwear":6436,"Ġpsychologist":6437,"Ġerror":6438,"ĠHopefully":6439,"Ġoverlap":6440,"ĠDraw":6441,"Ġindependent":6442,"Ġmagazines":6443,"Ġtitle":6444,"Ġdumbbell":6445,"asmosis":6446,"Ġpelvis":6447,"Ġvinyl":6448,"Ġvictim":6449,"Ġminimize":6450,"Ġimmune":6451,"Ġexperienc":6452,"Ġprincip":6453,"ĠCanadian":6454,"ĠEurope":6455,"Ġrepetition":6456,"ĠBeautiful":6457,"Ġsaturated":6458,"Ġcasserole":6459,"Ġdedic":6460,"ĠHeadstand":6461,"Ġversatile":6462,"Ġunderside":6463,"Ġcilantro":6464,"Ġlanguage":6465,"Ġnervous":6466,"ĠApril":6467,"Ġratchet":6468,"Ġbackswing":6469,"Ġundercoat":6470,"Ġcarbohydr":6471,"Ġtranslucent":6472,"11":6473,"50":6474,"AU":6475,"CY":6476,"ED":6477,"How":6478,"If":6479,"RA":6480,"bl":6481,"born":6482,"cro":6483,"den":6484,"dere":6485,"down":6486,"eed":6487,"ears":6488,"hin":6489,"hood":6490,"hical":6491,"ians":6492,"kn":6493,"li":6494,"lose":6495,"lass":6496,"lantic":6497,"lasmosis":6498,"ma":6499,"mend":6500,"nic":6501,"nail":6502,"nosis":6503,"rum":6504,"rie":6505,"rase":6506,"rings":6507,"uzz":6508,"vest":6509,"yc":6510,"yer":6511,"yard":6512,"ycl":6513,"Ġted":6514,"Ġtaut":6515,"Ġtarp":6516,"Ġace":6517,"Ġthro":6518,"inations":6519,"ounder":6520,"Ġtheory":6521,"Ġsan":6522,"Ġsight":6523,"Ġsill":6524,"Ġsne":6525,"Ġwest":6526,"Ġwise":6527,"Ġwatt":6528,"Ġocean":6529,"Ġtoys":6530,"Ġyol":6531,"Ġicon":6532,"inge":6533,"Ġban":6534,"Ġbust":6535,"Ġbart":6536,"Ġbun":6537,"Ġcav":6538,"Ġcycle":6539,"Ġcraps":6540,"Ġhoc":6541,"Ġhire":6542,"Ġhint":6543,"Ġharm":6544,"Ġhollow":6545,"Ġgaps":6546,"Ġply":6547,"Ġpup":6548,"Ġfib":6549,"Ġfool":6550,"Ġfives":6551,"Ġdad":6552,"Ġdors":6553,"Ġduck":6554,"Ġduty":6555,"Ġmast":6556,"Ġmuff":6557,"itas":6558,"Ġgor":6559,"esus":6560,"org":6561,"Ġinver":6562,"Ġinse":6563,"lec":6564,"lebr":6565,"ison":6566,"isco":6567,"ario":6568,"eteen":6569,"Ġnil":6570,"Ġnip":6571,"Ġnative":6572,"Ġnational":6573,"Ġhay":6574,"Ġhalo":6575,"icked":6576,"icycle":6577,"Ġbeyond":6578,"otch":6579,"otive":6580,"Ġweigh":6581,"Ġeval":6582,"Ġster":6583,"Ġstack":6584,"Ġstars":6585,"Ġstacked":6586,"Ġstairs":6587,"alley":6588,"asive":6589,"ashing":6590,"uth":6591,"ĠTri":6592,"ĠTrib":6593,"Ġrely":6594,"Ġreap":6595,"Ġresol":6596,"alty":6597,"ĠSlow":6598,"ĠAh":6599,"ĠAlex":6600,"Ġrug":6601,"Ġracqu":6602,"Ġcanal":6603,"ĠThree":6604,"Ġjunk":6605,"ident":6606,"Ġultim":6607,"Ġforced":6608,"seur":6609,"iring":6610,"change":6611,"lymp":6612,"Ġlie":6613,"Ġshout":6614,"Ġshallow":6615,"Ġshimmy":6616,"ading":6617,"stop":6618,"Ġsore":6619,"Ġsoothing":6620,"rosion":6621,"Ġupward":6622,"Ġmoon":6623,"Ġmolec":6624,"ittle":6625,"Ġoutward":6626,"Ġabstr":6627,"ured":6628,"uren":6629,"Ġalumin":6630,"Ġchron":6631,"Ġchunk":6632,"Ġcherry":6633,"Ġchannel":6634,"Ġleak":6635,"ceed":6636,"ĠNick":6637,"ĠNitrogen":6638,"Ġbacks":6639,"Ġbackward":6640,"oplasmosis":6641,"ĠOreg":6642,"Ġspider":6643,"ĠBu":6644,"ĠBen":6645,"ĠBul":6646,"ĠBud":6647,"ulous":6648,"ulating":6649,"Ġintest":6650,"Ġintention":6651,"abol":6652,"Ġexec":6653,"Ġexamples":6654,"Ġpros":6655,"Ġclove":6656,"Ġbecame":6657,"icks":6658,"uni":6659,"Ġworms":6660,"Ġpoly":6661,"Ġuser":6662,"Ġflop":6663,"Ġtimer":6664,"ĠHaving":6665,"Ġoverp":6666,"Ġovercome":6667,"Ġoverflow":6668,"Ġdebr":6669,"ĠMc":6670,"ĠMor":6671,"ĠMix":6672,"ĠMove":6673,"ĠMark":6674,"ĠMatt":6675,"Ġactions":6676,"Ġnowadays":6677,"Ġdrives":6678,"Ġbases":6679,"action":6680,"Ġblush":6681,"ola":6682,"ĠCD":6683,"ĠChe":6684,"Ġvac":6685,"Ġimplement":6686,"Ġproof":6687,"Ġhero":6688,"ĠLin":6689,"ĠLake":6690,"ĠLare":6691,"ĠLittle":6692,"ĠDet":6693,"ĠGot":6694,"ĠGod":6695,"ĠGrab":6696,"Ġenh":6697,"Ġenl":6698,"Ġslot":6699,"Ġslab":6700,"Ġslap":6701,"Ġslides":6702,"Ġbudd":6703,"ague":6704,"Ġsmart":6705,"Ġsuits":6706,"Ġboa":6707,"Ġwatering":6708,"itionally":6709,"rows":6710,"elcro":6711,"Ġrob":6712,"Ġglued":6713,"Ġcalling":6714,"ĠJesus":6715,"Ġlegal":6716,"osition":6717,"raph":6718,"ĠRum":6719,"ĠROS":6720,"ended":6721,"Ġmanually":6722,"Ġsaved":6723,"Ġremote":6724,"Ġswab":6725,"Ġswirl":6726,"Ġshears":6727,"Ġ13":6728,"Ġsettle":6729,"Ġendurance":6730,"Ġheadsh":6731,"Ġgrid":6732,"Ġgrill":6733,"Ġgrade":6734,"Ġstrand":6735,"Ġcompact":6736,"Ġcompared":6737,"ersonal":6738,"Ġhighway":6739,"Ġcleanse":6740,"Ġstraightening":6741,"ibly":6742,"Ġcoral":6743,"Ġcorrosion":6744,"ĠKen":6745,"ĠKar":6746,"ĠKell":6747,"ĠKyle":6748,"ĠAssoci":6749,"Ġextract":6750,"Ġedible":6751,"Ġdrawback":6752,"Ġdisabilities":6753,"Ġserved":6754,"Ġfins":6755,"Ġfinanc":6756,"Ġproducer":6757,"Ġcenters":6758,"Ġrealtor":6759,"Ġ28":6760,"Ġfunctions":6761,"Ġunicycle":6762,"Ġobl":6763,"Ġexpress":6764,"Ġexposed":6765,"Ġexposing":6766,"Ġproperties":6767,"Ġdescribe":6768,"Ġattract":6769,"Ġsym":6770,"Ġpassword":6771,"Ġlastly":6772,"Ġregard":6773,"Ġregist":6774,"Ġceramic":6775,"Ġcompleting":6776,"Ġmiddleweight":6777,"Ġinfuser":6778,"Ġpotting":6779,"Ġperfume":6780,"gging":6781,"Ġlayout":6782,"Ġzap":6783,"Ġzones":6784,"Ġlocated":6785,"Ġfilt":6786,"Ġfiles":6787,"Ġaccomp":6788,"ĠVelcro":6789,"Ġcombine":6790,"Ġstops":6791,"Ġpurs":6792,"Ġcollars":6793,"Ġthoughts":6794,"Ġtechnical":6795,"Ġtechnically":6796,"Ġbuildup":6797,"Ġpops":6798,"Ġpopcorn":6799,"undry":6800,"Ġblem":6801,"Ġbleach":6802,"Ġeighth":6803,"Ġwarmer":6804,"Ġgrabs":6805,"Ġstuffing":6806,"Ġgreenery":6807,"Ġfills":6808,"Ġloved":6809,"Ġregularly":6810,"Ġcooker":6811,"Ġreflection":6812,"Ġamounts":6813,"Ġcommands":6814,"Ġdoorkn":6815,"ĠShelly":6816,"Ġjacks":6817,"Ġsalon":6818,"Ġsalary":6819,"Ġfabulous":6820,"Ġtransport":6821,"Ġloves":6822,"Ġcharms":6823,"garia":6824,"Ġsunglass":6825,"Ġstrobe":6826,"Ġmatching":6827,"ificant":6828,"Ġcapit":6829,"Ġfactor":6830,"Ġpairing":6831,"Ġforeground":6832,"Ġhooping":6833,"Ġburns":6834,"Ġinvest":6835,"Ġstudent":6836,"Ġclimate":6837,"Ġconsideration":6838,"Ġsignificant":6839,"ĠGoTo":6840,"Ġsubmer":6841,"Ġcounts":6842,"Ġconnois":6843,"Ġdevelopment":6844,"Ġleading":6845,"Ġimprovis":6846,"Ġcaliper":6847,"ĠBrad":6848,"Ġtendency":6849,"Ġtowels":6850,"proof":6851,"Ġhangover":6852,"Ġessay":6853,"Ġessence":6854,"Ġdiscussing":6855,"Ġstitches":6856,"Ġaccessory":6857,"Ġcontacts":6858,"Ġsharpen":6859,"Ġslipper":6860,"ĠSha":6861,"Ġflipping":6862,"ĠUno":6863,"Ġtorn":6864,"Ġfavorites":6865,"Ġcontains":6866,"Ġlistening":6867,"Ġsweater":6868,"Ġpalms":6869,"Ġdressing":6870,"Ġmachines":6871,"ĠClock":6872,"ĠClub":6873,"Ġbeneficial":6874,"Ġseparated":6875,"Ġdecorating":6876,"Ġmetabol":6877,"Ġexcited":6878,"Ġprojects":6879,"Ġextending":6880,"ĠReady":6881,"Ġpostures":6882,"Ġcircuit":6883,"Ġmodeling":6884,"Ġsilent":6885,"overing":6886,"ĠAnyway":6887,"Ġpencils":6888,"Ġreceiver":6889,"ĠAtlantic":6890,"Ġshadows":6891,"Ġmechanical":6892,"Ġeffectively":6893,"Ġcelebr":6894,"Ġpossibilities":6895,"Ġtunnel":6896,"Ġmissed":6897,"Ġburnt":6898,"ĠSwiss":6899,"Ġestate":6900,"Ġnineteen":6901,"Ġhumor":6902,"Ġsplash":6903,"Ġvital":6904,"Ġrepairs":6905,"Ġtuxed":6906,"Ġtonight":6907,"Ġgravity":6908,"Ġfrog":6909,"Ġalternatives":6910,"Ġglossy":6911,"Ġcracker":6912,"Ġidentified":6913,"Ġcarpenter":6914,"Ġpathway":6915,"Ġfloating":6916,"ANCY":6917,"Ġchecked":6918,"Ġraising":6919,"vascular":6920,"Ġaffects":6921,"Ġcabbage":6922,"Ġhurts":6923,"Ġpeppers":6924,"Ġdimin":6925,"Ġconstric":6926,"Ġthrust":6927,"Ġintroduction":6928,"Ġflavored":6929,"Ġcommunicate":6930,"Ġactivity":6931,"Ġmotorcycles":6932,"Ġartists":6933,"Ġtropical":6934,"ĠJapanese":6935,"Ġbreading":6936,"Ġzipper":6937,"ramid":6938,"Ġtreble":6939,"Ġtremend":6940,"Ġtackle":6941,"Ġgradually":6942,"Ġcompliments":6943,"Ġlenses":6944,"Ġpuffiness":6945,"Ġcleanser":6946,"iversity":6947,"Ġbicycle":6948,"Ġassemb":6949,"Ġcurrently":6950,"Ġmountains":6951,"ĠSecondly":6952,"Ġhousing":6953,"Ġsteeping":6954,"Ġshedding":6955,"Ġbumps":6956,"Ġmoisturizer":6957,"Ġreleased":6958,"ĠGuide":6959,"ĠPractice":6960,"Ġdistribution":6961,"Ġaffordable":6962,"ailed":6963,"Ġfailure":6964,"Ġstabilized":6965,"ĠApply":6966,"Ġconvenience":6967,"Ġmanufacturers":6968,"worms":6969,"Ġlawn":6970,"Ġstapler":6971,"ĠCLANCY":6972,"iatrist":6973,"Ġsusp":6974,"Ġbaked":6975,"Ġmushroom":6976,"Ġterrible":6977,"Ġthoroughly":6978,"Ġledge":6979,"Ġinvented":6980,"Ġparrots":6981,"Ġcrystal":6982,"Ġnavig":6983,"ĠService":6984,"Ġallergic":6985,"Ġbronzer":6986,"Ġbladder":6987,"ĠLauren":6988,"Ġlinebackers":6989,"Ġappetite":6990,"Ġminerals":6991,"clockwise":6992,"ĠCarolina":6993,"Ġveloc":6994,"Ġlinks":6995,"Ġmurdere":6996,"Ġtrimmed":6997,"Ġscallops":6998,"ĠAshley":6999,"Ġhypnosis":7000,"Ġnoodles":7001,"Ġemergency":7002,"Ġassociated":7003,"ĠDesign":7004,"ĠRelax":7005,"Ġrecreational":7006,"Ġfungus":7007,"Ġnewspaper":7008,"Ġincredibly":7009,"Ġentrance":7010,"ĠPractitioner":7011,"Ġgecko":7012,"Ġdata":7013,"Ġmortg":7014,"Ġstirring":7015,"Ġrattle":7016,"Ġforgot":7017,"Ġpregnant":7018,"Ġscarecrow":7019,"Ġmaneuver":7020,"Ġcardiovascular":7021,"Ġelegant":7022,"Ġdistinct":7023,"ĠClearwater":7024,"Ġexperienced":7025,"Ġcarbohydrates":7026,"Ġthroat":7027,"Ġyolk":7028,"Ġbartender":7029,"Ġhockey":7030,"Ġmuffin":7031,"Ġinsect":7032,"ĠTribal":7033,"Ġreapply":7034,"Ġracquet":7035,"Ġabstract":7036,"Ġaluminum":7037,"ĠOregon":7038,"ĠBulgaria":7039,"Ġdebris":7040,"ĠLarew":7041,"ĠROSE":7042,"ĠAssociation":7043,"Ġfinancial":7044,"Ġdoorknob":7045,"Ġconnoisseur":7046,"Ġtremendous":7047,"Ġmurderer":7048,"25":7049,"60":7050,"Hey":7051,"IL":7052,"Night":7053,"OU":7054,"We":7055,"aired":7056,"bow":7057,"cap":7058,"cast":7059,"cross":7060,"eat":7061,"eur":7062,"equ":7063,"fl":7064,"fers":7065,"fect":7066,"fish":7067,"gly":7068,"gars":7069,"hou":7070,"how":7071,"ien":7072,"ige":7073,"iol":7074,"lifier":7075,"mit":7076,"mond":7077,"nes":7078,"night":7079,"onder":7080,"put":7081,"pond":7082,"point":7083,"rs":7084,"rish":7085,"sso":7086,"tz":7087,"ugged":7088,"vine":7089,"vable":7090,"ww":7091,"well":7092,"ya":7093,"yn":7094,"Ġ.":7095,"Ġought":7096,"Ġtil":7097,"Ġtint":7098,"Ġtax":7099,"Ġtang":7100,"Ġtilt":7101,"Ġtatt":7102,"Ġtasting":7103,"Ġages":7104,"Ġthus":7105,"innam":7106,"oust":7107,"oured":7108,"rem":7109,"Ġtheater":7110,"Ġsouth":7111,"Ġsizz":7112,"Ġsamples":7113,"Ġsouthern":7114,"Ġskew":7115,"Ġwarn":7116,"Ġwww":7117,"Ġbout":7118,"Ġbats":7119,"Ġboun":7120,"atis":7121,"erap":7122,"Ġcrow":7123,"Ġcub":7124,"Ġcape":7125,"Ġhar":7126,"Ġhom":7127,"Ġhung":7128,"Ġgen":7129,"Ġgad":7130,"Ġgest":7131,"Ġpant":7132,"Ġpork":7133,"Ġfet":7134,"Ġfert":7135,"Ġfault":7136,"Ġfoul":7137,"Ġfisher":7138,"Ġdart":7139,"Ġdive":7140,"Ġdied":7141,"Ġlace":7142,"Ġlint":7143,"Ġlane":7144,"Ġmac":7145,"Ġmad":7146,"Ġmile":7147,"Ġmural":7148,"itaire":7149,"Ġgogg":7150,"Ġgobo":7151,"onia":7152,"ĠIrish":7153,"isy":7154,"ised":7155,"arger":7156,"etry":7157,"Ġnone":7158,"Ġnyl":7159,"Ġnerve":7160,"keep":7161,"Ġbends":7162,"Ġwhites":7163,"Ġwears":7164,"edies":7165,"Ġelderly":7166,"Ġstat":7167,"Ġstakes":7168,"Ġstorm":7169,"acc":7170,"acting":7171,"acles":7172,"ghett":7173,"utes":7174,"ĠTen":7175,"Ġreinf":7176,"alking":7177,"Ġdosing":7178,"outs":7179,"ĠSil":7180,"ĠSuch":7181,"ĠSlide":7182,"ĠSupply":7183,"Ġran":7184,"Ġrake":7185,"Ġrand":7186,"Ġrail":7187,"Ġrang":7188,"Ġrats":7189,"Ġraces":7190,"Ġrins":7191,"Ġcanes":7192,"ĠTherap":7193,"Ġjig":7194,"Ġjail":7195,"idge":7196,"idence":7197,"idants":7198,"ighten":7199,"Ġfort":7200,"Ġjustify":7201,"Ġlif":7202,"Ġshades":7203,"Ġkites":7204,"aden":7205,"entimes":7206,"sters":7207,"Ġsocket":7208,"imb":7209,"Ġupright":7210,"Ġupkeep":7211,"amb":7212,"ams":7213,"amas":7214,"ĠAndrew":7215,"ĠWing":7216,"ĠWould":7217,"odile":7218,"ura":7219,"Ġalter":7220,"eps":7221,"Ġchun":7222,"Ġchase":7223,"Ġchrome":7224,"Ġframes":7225,"ctors":7226,"Ġallig":7227,"Ġatte":7228,"ifully":7229,"Ġcoars":7230,"Ġcogn":7231,"Ġbackhand":7232,"Ġplatter":7233,"Ġplumb":7234,"Ġplumber":7235,"Ġknuck":7236,"Ġspice":7237,"Ġspect":7238,"Ġspong":7239,"Ġspaces":7240,"Ġspicy":7241,"Ġtries":7242,"Ġtruth":7243,"ĠBow":7244,"ĠBall":7245,"ĠBart":7246,"ulf":7247,"Ġintell":7248,"Ġexh":7249,"Ġexhaling":7250,"Ġclog":7251,"ivel":7252,"Ġworst":7253,"Ġworried":7254,"Ġpoetry":7255,"Ġflesh":7256,"Ġflounder":7257,"ĠHol":7258,"ĠHeel":7259,"Ġhandles":7260,"Ġoffensive":7261,"Ġofficer":7262,"Ġselection":7263,"Ġdement":7264,"Ġdevices":7265,"ected":7266,"ĠMo":7267,"uming":7268,"ires":7269,"akers":7270,"Ġblind":7271,"Ġblocking":7272,"ĠCur":7273,"ĠCross":7274,"ĠComm":7275,"Ġpeak":7276,"Ġpeacock":7277,"Ġvia":7278,"ĠFin":7279,"ĠFre":7280,"ĠFit":7281,"ĠFeel":7282,"Ġadmin":7283,"Ġadequ":7284,"Ġimper":7285,"Ġprun":7286,"Ġprayer":7287,"ĠLots":7288,"ĠDi":7289,"ĠDave":7290,"ĠDef":7291,"ĠGre":7292,"ĠGreat":7293,"Ġenamel":7294,"Ġslant":7295,"Ġslick":7296,"Ġslate":7297,"Ġslope":7298,"izers":7299,"Ġsmith":7300,"Ġsmoot":7301,"Ġscen":7302,"Ġscoot":7303,"Ġscient":7304,"Ġscary":7305,"Ġsugars":7306,"Ġquit":7307,"Ġwaterproof":7308,"Ġcolorful":7309,"Ġrole":7310,"Ġrobe":7311,"ĠJim":7312,"ĠJab":7313,"ĠJones":7314,"Ġfinds":7315,"ĠRach":7316,"ĠRead":7317,"Ġmanner":7318,"Ġmanager":7319,"beat":7320,"bean":7321,"Ġsauc":7322,"Ġacoust":7323,"Ġremain":7324,"Ġremedies":7325,"Ġ14":7326,"Ġ16":7327,"avy":7328,"Ġgrown":7329,"Ġcompare":7330,"ibles":7331,"Ġcorres":7332,"Ġcreme":7333,"Ġcrevices":7334,"Ġwrote":7335,"Ġwrinkle":7336,"ĠKry":7337,"Ġphob":7338,"Ġphones":7339,"Ġdisk":7340,"Ġdissol":7341,"ĠStand":7342,"Ġpositioned":7343,"Ġclipper":7344,"Ġclippers":7345,"Ġ24":7346,"Ġbrushed":7347,"Ġveter":7348,"Ġunlike":7349,"Ġpaintbrush":7350,"ĠUS":7351,"Ġexpression":7352,"Ġexpenses":7353,"Ġrelieve":7354,"Ġnewer":7355,"ĠFord":7356,"Ġsurger":7357,"Ġcenterpiece":7358,"Ġdepartment":7359,"Ġcurved":7360,"Ġideal":7361,"Ġideally":7362,"Ġbehalf":7363,"Ġfarther":7364,"Ġlargest":7365,"glect":7366,"Ġinflu":7367,"Ġneckline":7368,"Ġbelie":7369,"Ġweighted":7370,"Ġdeterg":7371,"Ġdetailed":7372,"Ġsupplements":7373,"Ġcreativity":7374,"Ġstringer":7375,"Ġmasks":7376,"Ġwheelch":7377,"Ġrestric":7378,"Ġwireless":7379,"Ġbeginner":7380,"Ġinterp":7381,"Ġinterfere":7382,"Ġairport":7383,"ĠChild":7384,"ĠChris":7385,"Ġescape":7386,"Ġfiling":7387,"Ġfilters":7388,"Ġrafting":7389,"Ġriders":7390,"Ġstyling":7391,"ĠVI":7392,"ĠVOC":7393,"Ġcombing":7394,"Ġcombinations":7395,"Ġboxer":7396,"Ġboxers":7397,"Ġtrapped":7398,"Ġmeasures":7399,"Ġsanding":7400,"Ġbuilds":7401,"ommy":7402,"Ġspinal":7403,"ermaid":7404,"Ġchef":7405,"Ġformation":7406,"Ġpadding":7407,"Ġhooks":7408,"Ġhooking":7409,"Ġrefract":7410,"Ġreflex":7411,"river":7412,"riers":7413,"Ġphotographs":7414,"Ġfollows":7415,"Ġjacking":7416,"Ġfingernail":7417,"Ġallowance":7418,"ĠBeing":7419,"ĠBeak":7420,"Ġtests":7421,"Ġtemporary":7422,"Ġfolds":7423,"Ġloving":7424,"Ġsunny":7425,"Ġfastest":7426,"Ġbalancing":7427,"ificial":7428,"Ġcapacity":7429,"Ġpowered":7430,"Ġkeys":7431,"Ġdirectors":7432,"Ġfitness":7433,"Ġfactors":7434,"Ġforemost":7435,"Ġsolvent":7436,"Ġartificial":7437,"meal":7438,"Ġwins":7439,"Ġcorrecting":7440,"Ġfamilies":7441,"Ġhundreds":7442,"Ġpunching":7443,"Ġburner":7444,"Ġburned":7445,"Ġportra":7446,"Ġportions":7447,"Ġ80":7448,"Ġinvite":7449,"iox":7450,"Ġenjoying":7451,"Ġsubt":7452,"Ġsubst":7453,"Ġhearts":7454,"Ġscram":7455,"Ġpitchers":7456,"Ġexplod":7457,"Ġleads":7458,"ĠBruni":7459,"Ġjuices":7460,"Ġmodify":7461,"ological":7462,"Ġbaskets":7463,"Ġpanels":7464,"Ġstitching":7465,"Ġchairs":7466,"Ġaccessible":7467,"Ġprevention":7468,"Ġpacking":7469,"Ġadjustment":7470,"Ġadjustable":7471,"Ġpersonality":7472,"ĠKeeping":7473,"Ġspecialize":7474,"ounter":7475,"Ġmatting":7476,"ĠShould":7477,"ĠShuffle":7478,"Ġsmoky":7479,"Ġloosely":7480,"Ġbeds":7481,"Ġinvolve":7482,"Ġinvolving":7483,"Ġeggplant":7484,"Ġstains":7485,"Ġcosts":7486,"Ġsettings":7487,"Ġmeter":7488,"Ġshaping":7489,"Ġguitars":7490,"Ġloads":7491,"Ġtherapies":7492,"Ġorganiz":7493,"Ġorganization":7494,"Ġnearly":7495,"Ġdishes":7496,"Ġdecks":7497,"Ġemails":7498,"Ġselected":7499,"Ġprincess":7500,"Ġ60":7501,"Ġsilhou":7502,"Ġnegatives":7503,"Ġexplaining":7504,"Ġproviding":7505,"Ġfashions":7506,"roduction":7507,"Ġcounterclockwise":7508,"Ġmeeting":7509,"Ġconsistently":7510,"Ġmechanism":7511,"Ġdrainage":7512,"Ġenvironmental":7513,"ĠSpa":7514,"Ġcement":7515,"Ġoutfitter":7516,"Ġtuning":7517,"Ġpinkie":7518,"Ġdipping":7519,"Ġrains":7520,"Ġrougher":7521,"Ġattacker":7522,"Ġburpies":7523,"ĠSweep":7524,"Ġpliable":7525,"Ġpeeling":7526,"Ġblowing":7527,"Ġcrosso":7528,"Ġperformance":7529,"Ġdetermining":7530,"Ġdanger":7531,"Ġautomotive":7532,"Ġafro":7533,"Ġtons":7534,"Ġalternate":7535,"Ġalternating":7536,"Ġstressed":7537,"Ġincorporated":7538,"eringue":7539,"Ġpetals":7540,"Ġboring":7541,"Ġratio":7542,"Ġfloats":7543,"Ġcontrasting":7544,"ĠLeft":7545,"ĠLeather":7546,"Ġremoval":7547,"Ġdragon":7548,"Ġdragons":7549,"Ġscratching":7550,"iveness":7551,"Ġaffili":7552,"Ġillness":7553,"Ġhurric":7554,"Ġhurdle":7555,"Ġspoons":7556,"Ġundo":7557,"Ġetc":7558,"ĠPlay":7559,"Ġpedal":7560,"Ġpsychology":7561,"Ġkayaks":7562,"Ġskiing":7563,"Ġlooser":7564,"Ġcanoeing":7565,"Ġexfoliating":7566,"Ġpointer":7567,"Ġcandy":7568,"Ġfilet":7569,"Ġinitial":7570,"ĠProper":7571,"Ġeyelash":7572,"Ġindicates":7573,"Ġdetectors":7574,"Ġcontinuous":7575,"Ġcontrolling":7576,"Ġconcentrated":7577,"Ġbucks":7578,"coln":7579,"Ġtubing":7580,"Ġbicycles":7581,"Ġprogression":7582,"Ġmagnet":7583,"Ġtanning":7584,"Ġlabel":7585,"ĠSalt":7586,"Ġmanagement":7587,"Ġmanageable":7588,"Ġbarely":7589,"Ġsoldering":7590,"This":7591,"Ġfantas":7592,"Ġintegrate":7593,"Ġintegrated":7594,"Ġincreases":7595,"ointed":7596,"Ġtabs":7597,"Ġreaction":7598,"Ġjerk":7599,"Ġelevation":7600,"Ġmedicine":7601,"Ġproteins":7602,"Ġdivorce":7603,"Ġlaundry":7604,"Ġsurprise":7605,"Ġdistractions":7606,"Ġdealership":7607,"aughter":7608,"Ġestablish":7609,"Ġestablished":7610,"Ġfestival":7611,"Ġtriceps":7612,"ĠPerfect":7613,"Ġdimensional":7614,"ĠQu":7615,"Ġtoxoplasmosis":7616,"Ġbeside":7617,"Ġbesides":7618,"ĠImpro":7619,"Ġrecognize":7620,"Ġobstacle":7621,"Ġobstacles":7622,"Ġacceptable":7623,"Ġcalculate":7624,"Ġtumbling":7625,"Ġconversation":7626,"Ġprecise":7627,"Ġparticipant":7628,"Ġhydrogen":7629,"Ġoccasionally":7630,"Ġaxle":7631,"Ġbait":7632,"Ġcooled":7633,"Ġlandscape":7634,"Ġrebounding":7635,"ĠWorking":7636,"Ġflamingo":7637,"Ġsequence":7638,"Ġpearl":7639,"ĠFeet":7640,"ĠDepot":7641,"Ġstrainer":7642,"ĠRichard":7643,"Ġguarantee":7644,"Ġelectronics":7645,"Ġemotions":7646,"Ġfundamental":7647,"breaker":7648,"Ġodor":7649,"Ġcylinder":7650,"Ġhormone":7651,"Ġweapon":7652,"Ġcontext":7653,"ĠEgyptian":7654,"Ġcompromise":7655,"ĠKlein":7656,"Ġemphasize":7657,"Ġdigital":7658,"Ġanalyze":7659,"Ġdisinfectant":7660,"burg":7661,"marine":7662,"Ġamplifier":7663,"Ġhusband":7664,"Ġgauge":7665,"ĠNatural":7666,"ĠOften":7667,"Ġdevil":7668,"ĠCrocodile":7669,"Ġsimpler":7670,"Ġcranberry":7671,"Ġindustrial":7672,"Ġtoothpaste":7673,"Ġmastered":7674,"Ġgorgeous":7675,"Ġinverted":7676,"Ġmolecules":7677,"ĠBudd":7678,"ĠLincoln":7679,"Ġheadshot":7680,"ĠKarie":7681,"Ġsymmetric":7682,"Ġregistered":7683,"Ġsunglasses":7684,"Ġcapitals":7685,"Ġmetabolism":7686,"Ġtuxedo":7687,"Ġdiminished":7688,"Ġthrusts":7689,"Ġassembly":7690,"Ġsuspension":7691,"Ġvelocity":7692,"Nightmare":7693,"Ġtattoo":7694,"innamon":7695,"Ġgadget":7696,"Ġgoggles":7697,"Ġnylon":7698,"ghetti":7699,"Ġrandom":7700,"ĠAndrews":7701,"Ġchunks":7702,"Ġalligator":7703,"Ġattemp":7704,"ĠHolga":7705,"Ġdementia":7706,"Ġacoustic":7707,"Ġcorrespond":7708,"Ġdetergent":7709,"Ġcrossover":7710,"!!":7711,"',":7712,".?":7713,"99":7714,"AI":7715,"AM":7716,"DH":7717,"EX":7718,"Google":7719,"GER":7720,"IE":7721,"ILL":7722,"LA":7723,"Now":7724,"OR":7725,"OY":7726,"Oh":7727,"One":7728,"Okay":7729,"RY":7730,"Volley":7731,"Xing":7732,"af":7733,"aic":7734,"aven":7735,"bum":7736,"case":7737,"cious":7738,"crib":7739,"driver":7740,"eut":7741,"eled":7742,"for":7743,"gund":7744,"gae":7745,"hes":7746,"hone":7747,"hole":7748,"iac":7749,"iking":7750,"ios":7751,"iency":7752,"iXing":7753,"lon":7754,"look":7755,"lids":7756,"made":7757,"neck":7758,"nger":7759,"of":7760,"oke":7761,"obe":7762,"pet":7763,"page":7764,"ples":7765,"paper":7766,"parent":7767,"ru":7768,"ries":7769,"uly":7770,"vation":7771,"wo":7772,"with":7773,"west":7774,"wich":7775,"yan":7776,"zes":7777,"Ġ[":7778,"Ġtas":7779,"Ġtee":7780,"Ġtens":7781,"Ġawhile":7782,"inant":7783,"inst":7784,"initely":7785,"inology":7786,"Ġsent":7787,"Ġsab":7788,"Ġsift":7789,"Ġsided":7790,"Ġsatis":7791,"Ġward":7792,"Ġware":7793,"Ġwond":7794,"Ġwavy":7795,"Ġoas":7796,"Ġtoner":7797,"Ġya":7798,"Ġign":7799,"ĠiGoogle":7800,"Ġyounger":7801,"nding":7802,"Ġbin":7803,"Ġbank":7804,"Ġbids":7805,"ators":7806,"atula":7807,"erk":7808,"eral":7809,"erable":7810,"erms":7811,"Ġcues":7812,"Ġcinnamon":7813,"Ġhid":7814,"Ġhooked":7815,"Ġhobby":7816,"Ġgan":7817,"Ġgir":7818,"Ġgarn":7819,"Ġgroom":7820,"Ġgerms":7821,"Ġpit":7822,"Ġpod":7823,"Ġpip":7824,"Ġpun":7825,"Ġpeep":7826,"Ġplex":7827,"Ġpoured":7828,"Ġfid":7829,"Ġfec":7830,"Ġfenc":7831,"Ġfumes":7832,"Ġdou":7833,"Ġdom":7834,"Ġdunk":7835,"Ġdots":7836,"Ġdizz":7837,"llo":7838,"Ġlu":7839,"Ġloses":7840,"Ġmal":7841,"Ġmales":7842,"Ġmermaid":7843,"Ġmeringue":7844,"anes":7845,"anas":7846,"anish":7847,"itate":7848,"itation":7849,"enn":7850,"eno":7851,"eness":7852,"onies":7853,"oral":7854,"orize":7855,"ĠIm":7856,"Ġinh":7857,"Ġinks":7858,"leton":7859,"arth":7860,"aration":7861,"arium":7862,"veen":7863,"omy":7864,"Ġnest":7865,"Ġhairst":7866,"Ġhazard":7867,"icip":7868,"icable":7869,"iciency":7870,"Ġbearing":7871,"aya":7872,"Ġeast":7873,"Ġsting":7874,"Ġstair":7875,"Ġstool":7876,"Ġstages":7877,"Ġstatic":7878,"asure":7879,"ĠTor":7880,"ĠTide":7881,"ĠTop":7882,"ĠTaking":7883,"ĠTalk":7884,"Ġrele":7885,"Ġreinst":7886,"alo":7887,"alth":7888,"ĠSl":7889,"ĠSar":7890,"ĠSay":7891,"ĠSide":7892,"ĠSif":7893,"ĠSky":7894,"ĠSpring":7895,"ĠSonia":7896,"ĠAround":7897,"ĠADH":7898,"Ġrap":7899,"Ġrose":7900,"Ġrivers":7901,"Ġcans":7902,"ĠThumb":7903,"iders":7904,"Ġugly":7905,"Ġfork":7906,"irop":7907,"irling":7908,"aked":7909,"charge":7910,"Ġkicked":7911,"ads":7912,"adow":7913,"Ġord":7914,"step":7915,"Ġsole":7916,"imon":7917,"imus":7918,"robe":7919,"amed":7920,"Ġmob":7921,"Ġasym":7922,"ills":7923,"this":7924,"thest":7925,"Ġabr":7926,"ĠWil":7927,"ĠWash":7928,"ainted":7929,"ĠYiXing":7930,"urs":7931,"Ġheated":7932,"ĠtheyÃ¢":7933,"Ġalive":7934,"Ġalto":7935,"Ġalmond":7936,"Ġchis":7937,"Ġchlor":7938,"Ġchips":7939,"Ġframing":7940,"Ġfringe":7941,"ĠNor":7942,"ifer":7943,"Ġcoating":7944,"Ġbackbone":7945,"Ġbackyard":7946,"Ġplaster":7947,"opes":7948,"Ġkneel":7949,"Ġcomics":7950,"ĠOcc":7951,"ĠOaks":7952,"Ġspind":7953,"Ġspike":7954,"Ġspacing":7955,"Ġspatula":7956,"Ġtrunk":7957,"ersburg":7958,"ĠBre":7959,"ĠBand":7960,"ĠBub":7961,"ĠBoy":7962,"uling":7963,"ulking":7964,"ulsion":7965,"Ġintric":7966,"Ġintended":7967,"Ġdownhill":7968,"Ġexist":7969,"Ġclin":7970,"Ġcloud":7971,"ortment":7972,"Ġputt":7973,"apers":7974,"quit":7975,"quis":7976,"icket":7977,"essor":7978,"Ġtwinkle":7979,"Ġflound":7980,"Ġfluff":7981,"Ġflicking":7982,"Ġcongest":7983,"ĠHis":7984,"ĠHar":7985,"tingu":7986,"Ġprepping":7987,"Ġbits":7988,"Ġbites":7989,"igur":7990,"Ġoffers":7991,"Ġovernight":7992,"Ġsebum":7993,"Ġstarter":7994,"Ġdeet":7995,"Ġdeuce":7996,"Ġdebit":7997,"andasana":7998,"Ġbras":7999,"Ġbrows":8000,"Ġbrushing":8001,"Ġbrayer":8002,"ĠMA":8003,"ĠMe":8004,"ĠMen":8005,"ĠMed":8006,"ĠMac":8007,"ĠMid":8008,"ĠMee":8009,"ĠMax":8010,"ĠMex":8011,"Ġactors":8012,"ichlids":8013,"Ġwhereas":8014,"Ġbasin":8015,"actions":8016,"olor":8017,"ĠCer":8018,"ĠCon":8019,"ĠCall":8020,"ĠCare":8021,"ĠCont":8022,"ĠCool":8023,"ĠCichlids":8024,"Ġpeony":8025,"ĠFall":8026,"Ġparties":8027,"Ġadhere":8028,"Ġherself":8029,"ĠLind":8030,"ĠLars":8031,"ĠLife":8032,"ĠDem":8033,"ĠDuring":8034,"ĠDental":8035,"ĠGl":8036,"ĠGold":8037,"ĠGroup":8038,"hea":8039,"Ġsliced":8040,"ffic":8041,"Ġfevers":8042,"Ġsmile":8043,"Ġsmear":8044,"Ġskis":8045,"Ġscent":8046,"Ġsuction":8047,"Ġsubs":8048,"Ġboas":8049,"Ġboast":8050,"ĠPour":8051,"ĠPort":8052,"ĠPink":8053,"ĠPark":8054,"Ġcutter":8055,"Ġcuticle":8056,"Ġquote":8057,"Ġtalks":8058,"Ġstrict":8059,"Ġimportantly":8060,"Ġbother":8061,"Ġglob":8062,"Ġglaz":8063,"Ġglute":8064,"ĠInter":8065,"ĠInhaling":8066,"ensed":8067,"ensils":8068,"Ġpierc":8069,"Ġpigeon":8070,"Ġcallig":8071,"Ġstepped":8072,"ĠJo":8073,"ĠJason":8074,"Ġcontam":8075,"Ġcontrib":8076,"osity":8077,"ĠRef":8078,"Ġaces":8079,"ĠEl":8080,"ĠEm":8081,"ĠEast":8082,"ĠEvan":8083,"Ġremind":8084,"Ġremoves":8085,"Ġremover":8086,"Ġremedy":8087,"Ġreminder":8088,"ogy":8089,"ogen":8090,"Ġswirling":8091,"Ġshear":8092,"Ġ17":8093,"Ġcarb":8094,"Ġcarve":8095,"Ġcarved":8096,"Ġguides":8097,"Ġamate":8098,"Ġamicable":8099,"Ġgreatest":8100,"Ġperimeter":8101,"Ġheadache":8102,"Ġapplies":8103,"Ġfeelings":8104,"ubr":8105,"Ġgran":8106,"Ġgrit":8107,"Ġgras":8108,"Ġcompress":8109,"Ġcomponent":8110,"Ġcompartment":8111,"udes":8112,"Ġsimmer":8113,"ibbean":8114,"Ġcork":8115,"Ġrunner":8116,"Ġcreep":8117,"Ġpressed":8118,"Ġopened":8119,"Ġhardest":8120,"Ġsecret":8121,"ango":8122,"ĠdoesnÃ¢":8123,"Ġdeflection":8124,"Ġdeficiency":8125,"ellent":8126,"ĠKe":8127,"ĠKne":8128,"ĠKiss":8129,"Ġextrud":8130,"athon":8131,"Ġphrase":8132,"Ġdistingu":8133,"ricia":8134,"ĠStan":8135,"ĠStars":8136,"ĠStretch":8137,"Ġpositioning":8138,"Ġrepaired":8139,"Ġrepellent":8140,"Ġrollers":8141,"taining":8142,"Ġproduced":8143,"Ġcentral":8144,"Ġcourses":8145,"Ġstickers":8146,"Ġ200":8147,"Ġcrush":8148,"Ġcrump":8149,"Ġcrash":8150,"Ġcruc":8151,"Ġcruis":8152,"Ġcracked":8153,"Ġcricket":8154,"Ġresources":8155,"Ġsquish":8156,"Ġtouchdown":8157,"issimus":8158,"ountain":8159,"Ġnumerous":8160,"Ġlifts":8161,"Ġweren":8162,"Ġeyeball":8163,"Ġdesk":8164,"Ġrelate":8165,"Ġrelie":8166,"Ġsyrup":8167,"Ġstored":8168,"Ġsurve":8169,"Ġbasement":8170,"Ġpicnic":8171,"Ġrooms":8172,"ival":8173,"Ġsnatch":8174,"Ġsnakes":8175,"Ġcurled":8176,"Ġhomepage":8177,"Ġbehave":8178,"ancake":8179,"Ġcupc":8180,"Ġgrounded":8181,"Ġinfections":8182,"Ġperfumes":8183,"iques":8184,"ĠSomeone":8185,"Ġcreatures":8186,"Ġmasse":8187,"Ġrestless":8188,"Ġcatches":8189,"Ġintermedi":8190,"ĠChest":8191,"ĠCheck":8192,"encies":8193,"ucky":8194,"Ġrider":8195,"ĠVe":8196,"Ġpinning":8197,"Ġstopping":8198,"Ġhorseback":8199,"Ġpurse":8200,"Ġprotecting":8201,"Ġsandy":8202,"Ġdiscip":8203,"Ġdisconn":8204,"Ġdisclose":8205,"Ġdiscolor":8206,"Ġdiaper":8207,"Ġdiarr":8208,"Ġeighths":8209,"Ġwarmed":8210,"Ġwarmth":8211,"Ġbeautifully":8212,"Ġcheaper":8213,"Ġformat":8214,"Ġswitching":8215,"Ġlengthening":8216,"Ġlooping":8217,"Ġschem":8218,"Ġangled":8219,"Ġtailored":8220,"Ġtailbone":8221,"Ġcommit":8222,"Ġtreatments":8223,"Ġshorts":8224,"Ġshortstop":8225,"Ġdealt":8226,"Ġtempo":8227,"Ġfolding":8228,"Ġshoots":8229,"Ġtransl":8230,"Ġtransaction":8231,"Ġcloset":8232,"Ġsunlight":8233,"Ġcooler":8234,"Ġmonkey":8235,"Ġinser":8236,"Ġinsurance":8237,"Ġbalm":8238,"Ġspotting":8239,"Ġrooting":8240,"Ġclearance":8241,"Ġdolls":8242,"Ġrelaxation":8243,"Ġpowders":8244,"Ġdirector":8245,"Ġforearms":8246,"Ġsolar":8247,"Ġsolitaire":8248,"Ġarticles":8249,"Ġwinner":8250,"Ġconfigur":8251,"Ġreadily":8252,"Ġtracks":8253,"Ġhealing":8254,"Ġportable":8255,"ĠOnly":8256,"Ġclimb":8257,"Ġvegetarian":8258,"ĠOKay":8259,"Ġpreparation":8260,"ĠFriday":8261,"Ġsignature":8262,"ĠGolf":8263,"Ġsubmarine":8264,"Ġscrunch":8265,"Ġsafer":8266,"Ġcounting":8267,"Ġpaintings":8268,"Ġdeveloping":8269,"Ġexplode":8270,"Ġbells":8271,"Ġantique":8272,"Ġantiox":8273,"Ġteachers":8274,"Ġparas":8275,"Ġequals":8276,"Ġschools":8277,"Ġschooling":8278,"Ġgolfer":8279,"Ġbrowns":8280,"Ġswinging":8281,"ĠBrush":8282,"Ġsteamer":8283,"Ġmarble":8284,"Ġmarried":8285,"Ġmarathon":8286,"Ġweeke":8287,"place":8288,"print":8289,"Ġ70":8290,"Ġengaging":8291,"Ġicebreaker":8292,"Ġsquared":8293,"Ġsquares":8294,"Ġblankets":8295,"Ġdiscussion":8296,"Ġvisually":8297,"Ġattaches":8298,"pective":8299,"Ġprevents":8300,"Ġscored":8301,"Ġpackages":8302,"Ġreaches":8303,"Ġadjusting":8304,"Ġslipping":8305,"Ġslippers":8306,"Ġspecialized":8307,"Ġagents":8308,"Ġassortment":8309,"ĠUnion":8310,"ĠUnfortunately":8311,"ĠUniversity":8312,"Ġfields":8313,"Ġrotations":8314,"Ġshops":8315,"Ġpenet":8316,"Ġpenalty":8317,"Ġscrewdriver":8318,"Ġquarters":8319,"Ġsnowman":8320,"solut":8321,"Ġtanks":8322,"Ġauto":8323,"Ġtherapeut":8324,"Ġliqueur":8325,"Ġorganized":8326,"Ġchopping":8327,"ĠReach":8328,"Ġembell":8329,"ĠExcellent":8330,"Ġsilk":8331,"Ġlogs":8332,"Ġnegot":8333,"Ġsmelling":8334,"Ġprovided":8335,"ribly":8336,"Ġtensioner":8337,"Ġmessages":8338,"ĠArms":8339,"Ġflowering":8340,"Ġinternally":8341,"phere":8342,"Ġreceipt":8343,"Ġprops":8344,"Ġrespir":8345,"Ġmajority":8346,"Ġbuckets":8347,"Ġlayering":8348,"Ġspreading":8349,"Ġapplications":8350,"Ġhops":8351,"Ġtapping":8352,"Ġmenu":8353,"Ġcausing":8354,"Ġconnects":8355,"Ġfashioned":8356,"Ġburrow":8357,"Ġfeedback":8358,"Ġfirmly":8359,"Ġpageant":8360,"Ġinstruments":8361,"Ġperformed":8362,"Ġcoconuts":8363,"Ġtarleton":8364,"Ġkiller":8365,"Ġtripods":8366,"Ġutensils":8367,"Ġtraps":8368,"Ġtones":8369,"Ġgoalie":8370,"Ġphysically":8371,"Ġcracks":8372,"Ġsuccessfully":8373,"Ġtougher":8374,"Ġmaxim":8375,"ĠLooks":8376,"ANDA":8377,"Ġchords":8378,"Ġscratches":8379,"Ġoperation":8380,"Ġoperating":8381,"Ġhurting":8382,"Ġinjured":8383,"Ġverte":8384,"Ġlimits":8385,"Ġlimbs":8386,"Ġtriath":8387,"Ġ197":8388,"Ġcamping":8389,"Ġcampus":8390,"Ġlamps":8391,"Ġradial":8392,"Ġripped":8393,"Ġactivate":8394,"ĠGrind":8395,"ĠPlant":8396,"Ġgymn":8397,"Ġpeddle":8398,"Ġpediat":8399,"Ġpsychiatrist":8400,"Ġkayaking":8401,"Ġbracelets":8402,"metics":8403,"Ġantibodies":8404,"Ġfriendly":8405,"Ġlatte":8406,"Ġlatissimus":8407,"Ġiniti":8408,"ĠAbsolut":8409,"Ġmoderate":8410,"Ġdripping":8411,"Ġamazed":8412,"Ġbreeds":8413,"Ġindicator":8414,"Ġfacility":8415,"ĠTwist":8416,"ĠScr":8417,"Ġshutter":8418,"Ġdelicate":8419,"Ġdrama":8420,"Ġeducational":8421,"Ġaccuracy":8422,"Ġcrocheting":8423,"Ġfiberglass":8424,"Ġjourney":8425,"ĠDavis":8426,"Ġkidney":8427,"Ġseriously":8428,"Ġfunctional":8429,"ĠChristian":8430,"Ġadvantages":8431,"Ġlicensed":8432,"Ġlabeled":8433,"ĠSalon":8434,"ĠCaribbean":8435,"Ġmoisturizing":8436,"IND":8437,"Ġgasket":8438,"Ġaligned":8439,"Ġalignment":8440,"Ġprocedures":8441,"Ġstraws":8442,"Ġpotentially":8443,"Ġconfusing":8444,"mington":8445,"Ġaiming":8446,"Ġteapots":8447,"ĠPatricia":8448,"Ġincreasing":8449,"Ġawful":8450,"Ġwarrior":8451,"Ġculture":8452,"Ġpeeled":8453,"Ġmovies":8454,"ĠMichael":8455,"Ġmedication":8456,"Ġfrosting":8457,"Ġjournal":8458,"racting":8459,"works":8460,"Ġbandsaw":8461,"Ġgreens":8462,"Ġdenim":8463,"ĠType":8464,"Ġracks":8465,"entinel":8466,"Ġcoordinate":8467,"Ġdewy":8468,"ĠCLAI":8469,"Ġuncommon":8470,"Ġdecisions":8471,"Ġdealerships":8472,"Ġresponsible":8473,"Ġinstructions":8474,"Ġincludes":8475,"Ġincluded":8476,"Ġpigment":8477,"Ġdreams":8478,"Ġmushy":8479,"ĠAMANDA":8480,"Ġhairspray":8481,"Ġpromin":8482,"ĠPetersburg":8483,"Ġdisappear":8484,"Ġpsychological":8485,"Ġmelted":8486,"ĠHandler":8487,"Ġcalcium":8488,"Ġcomplimentary":8489,"Ġcushioning":8490,"Ġwounds":8491,"Ġgraphic":8492,"Ġlucky":8493,"Ġshelves":8494,"ĠOutlook":8495,"ĠBelieve":8496,"Ġclumps":8497,"ĠFirefly":8498,"ĠLastly":8499,"ĠResources":8500,"Ġappearance":8501,"Ġconsumer":8502,"ĠDoesn":8503,"Ġtouring":8504,"Ġaquarium":8505,"Ġdiseases":8506,"Ġwhitening":8507,"Ġstrategies":8508,"Ġflattened":8509,"ĠRealtor":8510,"Ġvoltage":8511,"Ġillustrate":8512,"Ġwiping":8513,"Ġjogging":8514,"Ġlizards":8515,"Ġchapped":8516,"Ġclasped":8517,"Ġpretend":8518,"Ġvibrate":8519,"ĠGerman":8520,"Ġenchiladas":8521,"Ġarrange":8522,"ĠRepeat":8523,"Ġaccumulated":8524,"Ġstylist":8525,"Ġhumidity":8526,"Ġirritate":8527,"Ġspiritual":8528,"Ġnunchucks":8529,"Ġtutor":8530,"Ġpyramid":8531,"Ġrehears":8532,"Ġshimmer":8533,"rology":8534,"Ġspaghetti":8535,"Ġvinegar":8536,"ĠDaily":8537,"Ġsloping":8538,"Ġsnacks":8539,"Ġfatigue":8540,"Ġprinciples":8541,"Ġrepetitions":8542,"ycling":8543,"Ġteddy":8544,"Ġsanit":8545,"Ġsneaky":8546,"Ġcavity":8547,"Ġfibers":8548,"Ġdorsi":8549,"Ġevalu":8550,"lympic":8551,"Ġenhance":8552,"Ġenlarger":8553,"ĠKelli":8554,"Ġextraction":8555,"Ġobliques":8556,"Ġaccomplish":8557,"Ġblemishes":8558,"Ġmortgage":8559,"Ġinsects":8560,"Ġbouncing":8561,"Ġcubes":8562,"Ġharvest":8563,"Ġhomes":8564,"Ġhungry":8565,"Ġfertil":8566,"ĠSilver":8567,"ĠTherapy":8568,"Ġplumbing":8569,"Ġintellig":8570,"ĠKryny":8571,"Ġphobia":8572,"Ġsurgery":8573,"Ġinfluence":8574,"Ġsubtract":8575,"Ġsilhouette":8576,"Ġmagnetism":8577,"Ġfantasies":8578,"Ġwardrobe":8579,"Ġoasis":8580,"Ġhidden":8581,"Ġganache":8582,"Ġdizzy":8583,"Ġreinstall":8584,"ĠSifu":8585,"ĠADHD":8586,"iropract":8587,"Ġasymmetric":8588,"ĠWilmington":8589,"Ġaltogether":8590,"Ġflounders":8591,"Ġextruder":8592,"Ġcrucial":8593,"Ġintermediate":8594,"Ġdiarrhea":8595,"Ġantioxidants":8596,"Ġpediatric":8597,"ĠCLAIRE":8598,"%.":8599,"'.":8600,"100":8601,"500":8602,"Add":8603,"EAU":8604,"Go":8605,"He":8606,"HAN":8607,"HRI":8608,"KE":8609,"ND":8610,"OP":8611,"PD":8612,"TC":8613,"VE":8614,"VIN":8615,"aim":8616,"affeine":8617,"aque":8618,"ban":8619,"bul":8620,"bine":8621,"burn":8622,"based":8623,"biot":8624,"cy":8625,"care":8626,"dess":8627,"ev":8628,"ees":8629,"foot":8630,"fiber":8631,"gment":8632,"gile":8633,"gling":8634,"gster":8635,"hus":8636,"hee":8637,"hite":8638,"hasana":8639,"iers":8640,"iable":8641,"iors":8642,"khasana":8643,"lance":8644,"lishing":8645,"mm":8646,"mint":8647,"mother":8648,"mix":8649,"miss":8650,"mates":8651,"matic":8652,"nine":8653,"overy":8654,"pe":8655,"pace":8656,"pose":8657,"pass":8658,"pole":8659,"rd":8660,"ray":8661,"rich":8662,"rimp":8663,"riment":8664,"su":8665,"six":8666,"tes":8667,"tom":8668,"till":8669,"tte":8670,"telling":8671,"tentimes":8672,"uing":8673,"uer":8674,"uan":8675,"uity":8676,"uenc":8677,"von":8678,"vage":8679,"watch":8680,"wear":8681,"xels":8682,"yal":8683,"yms":8684,"Â´":8685,"Ġ&":8686,"Ġx":8687,"ĠÃĤ":8688,"Ġtines":8689,"Ġtents":8690,"Ġaward":8691,"inc":8692,"inine":8693,"inating":8694,"inator":8695,"inarian":8696,"oudy":8697,"reet":8698,"reci":8699,"Ġsac":8700,"Ġsip":8701,"Ġsong":8702,"Ġsals":8703,"Ġsallow":8704,"Ġwiring":8705,"Ġolympic":8706,"Ġtoast":8707,"Ġyog":8708,"Ġyummy":8709,"Ġbon":8710,"Ġbould":8711,"Ġbush":8712,"Ġbail":8713,"Ġbooth":8714,"Ġbikes":8715,"Ġbamb":8716,"atics":8717,"erment":8718,"erves":8719,"Ġcere":8720,"Ġcaut":8721,"Ġcables":8722,"Ġhate":8723,"Ġhatch":8724,"Ġhos":8725,"Ġhunch":8726,"Ġgour":8727,"Ġgrew":8728,"Ġginger":8729,"Ġgyms":8730,"Ġpens":8731,"Ġpuck":8732,"Ġpits":8733,"Ġpets":8734,"Ġpilates":8735,"Ġpancake":8736,"Ġfakes":8737,"Ġfres":8738,"Ġfudge":8739,"Ġferment":8740,"Ġdrap":8741,"Ġdips":8742,"Ġdash":8743,"Ġdates":8744,"Ġdrape":8745,"Ġdensity":8746,"Ġdiesel":8747,"Ġdict":8748,"Ġdaughter":8749,"Ġloll":8750,"Ġlately":8751,"Ġlaugh":8752,"Ġment":8753,"Ġmim":8754,"Ġmitt":8755,"Ġmash":8756,"ano":8757,"anel":8758,"itect":8759,"itzer":8760,"Ġoftentimes":8761,"Ġgoog":8762,"esan":8763,"estern":8764,"esthetic":8765,"ench":8766,"orge":8767,"order":8768,"orph":8769,"orrac":8770,"ĠII":8771,"ĠInt":8772,"ĠIvan":8773,"Ġine":8774,"Ġinward":8775,"Ġinject":8776,"Ġinput":8777,"uset":8778,"used":8779,"lea":8780,"leave":8781,"isa":8782,"isible":8783,"isode":8784,"aries":8785,"veal":8786,"eters":8787,"omile":8788,"Ġnic":8789,"Ġnur":8790,"Ġnast":8791,"Ġnude":8792,"Ġnamed":8793,"Ġhall":8794,"Ġhaired":8795,"keys":8796,"ica":8797,"icier":8798,"icious":8799,"Ġbears":8800,"oted":8801,"otation":8802,"otection":8803,"Ġwhist":8804,"Ġweird":8805,"Ġweaken":8806,"edian":8807,"Ġearn":8808,"Ġeats":8809,"Ġecon":8810,"Ġstub":8811,"Ġstaring":8812,"acard":8813,"acific":8814,"asy":8815,"utt":8816,"ĠTur":8817,"ĠTul":8818,"ĠTell":8819,"ĠTouch":8820,"ĠTiger":8821,"ĠTommy":8822,"ĠTango":8823,"Ġreuse":8824,"Ġrevers":8825,"Ġreef":8826,"Ġreveal":8827,"ald":8828,"alon":8829,"alite":8830,"ĠSun":8831,"ĠSand":8832,"ĠSkin":8833,"ĠSayer":8834,"ĠSouthern":8835,"ĠSingle":8836,"ĠSleep":8837,"ĠAA":8838,"ĠALL":8839,"ĠAvon":8840,"Ġrind":8841,"Ġrush":8842,"Ġruff":8843,"Ġrises":8844,"verine":8845,"Ġcane":8846,"Ġcannon":8847,"ĠThail":8848,"Ġjam":8849,"Ġjoy":8850,"Ġjug":8851,"ustible":8852,"idized":8853,"Ġforces":8854,"iration":8855,"iraz":8856,"ching":8857,"ches":8858,"Ġlily":8859,"Ġlimp":8860,"Ġliber":8861,"Ġshove":8862,"Ġanc":8863,"adill":8864,"addle":8865,"Ġorbit":8866,"state":8867,"stage":8868,"stone":8869,"storm":8870,"style":8871,"Ġsoy":8872,"Ġupbeat":8873,"eeley":8874,"ama":8875,"amiliar":8876,"Ġmoss":8877,"Ġasks":8878,"Ġasleep":8879,"Ġasyn":8880,"ille":8881,"iller":8882,"Ġoutboard":8883,"that":8884,"there":8885,"throw":8886,"they":8887,"ĠWow":8888,"ĠWar":8889,"ĠWound":8890,"ĠWild":8891,"urpose":8892,"Ġneglect":8893,"Ġhel":8894,"Ġhems":8895,"Ġheats":8896,"arts":8897,"artments":8898,"ila":8899,"Ġalph":8900,"raise":8901,"ĠhereÃ¢":8902,"Ġchat":8903,"Ġchoo":8904,"Ġchuck":8905,"Ġchrom":8906,"Ġfroth":8907,"Ġfried":8908,"ctuary":8909,"cel":8910,"roud":8911,"rous":8912,"ipops":8913,"ifter":8914,"Ġsomehow":8915,"Ġplum":8916,"Ġplates":8917,"Ġpluck":8918,"opy":8919,"Ġknit":8920,"Ġcomic":8921,"Ġcomedy":8922,"Ġcomedian":8923,"ĠOm":8924,"Ġspade":8925,"Ġspouse":8926,"Ġspiced":8927,"Ġspiders":8928,"Ġtracing":8929,"Ġtruly":8930,"ĠBer":8931,"ĠBad":8932,"ĠBra":8933,"ĠBig":8934,"ĠBreat":8935,"ĠBoot":8936,"ĠBend":8937,"ĠBik":8938,"ĠBacard":8939,"ulin":8940,"Ġintent":8941,"Ġdownload":8942,"Ġproceed":8943,"Ġclicking":8944,"Ġclutch":8945,"Ġcloudy":8946,"ively":8947,"Ġputty":8948,"apula":8949,"essica":8950,"Ġmeals":8951,"Ġneeding":8952,"ĠWeb":8953,"ĠWeiss":8954,"Ġflows":8955,"Ġfloss":8956,"Ġflutter":8957,"Ġfloral":8958,"Ġflotation":8959,"Ġtimed":8960,"Ġconvent":8961,"ĠHam":8962,"ĠHands":8963,"Ġhandled":8964,"Ġprepped":8965,"acement":8966,"igs":8967,"Ġoffstage":8968,"Ġoverview":8969,"Ġseas":8970,"Ġseating":8971,"Ġdeath":8972,"ander":8973,"iffin":8974,"Ġbrass":8975,"ĠMon":8976,"ĠMain":8977,"ĠMag":8978,"ĠMother":8979,"ĠMike":8980,"ĠMallon":8981,"ĠMountain":8982,"istr":8983,"ists":8984,"istics":8985,"Ġactor":8986,"umer":8987,"umble":8988,"ocked":8989,"reek":8990,"Ġnowhere":8991,"fts":8992,"Ġdrips":8993,"Ġdrunk":8994,"Ġdriven":8995,"Ġbasem":8996,"active":8997,"Ġblast":8998,"ongs":8999,"oles":9000,"olong":9001,"olverine":9002,"ĠCail":9003,"ĠCos":9004,"ĠCock":9005,"ĠCase":9006,"ĠColl":9007,"ĠCert":9008,"ĠCHRI":9009,"ĠCaffeine":9010,"ĠCuenc":9011,"uchin":9012,"Ġsideburn":9013,"Ġpeonies":9014,"Ġvice":9015,"Ġvirt":9016,"Ġviol":9017,"ĠFed":9018,"ĠFace":9019,"aches":9020,"achuset":9021,"Ġpartners":9022,"Ġadop":9023,"Ġadhes":9024,"Ġimpress":9025,"ĠLay":9026,"ĠLight":9027,"ĠLater":9028,"ĠLazy":9029,"ĠLifting":9030,"ĠLilies":9031,"ĠLimon":9032,"emark":9033,"ĠDJ":9034,"ĠDow":9035,"ĠDay":9036,"ĠDec":9037,"ĠDry":9038,"ĠDeep":9039,"ĠDED":9040,"ĠDandasana":9041,"ĠGe":9042,"ĠGar":9043,"ĠGary":9044,"ĠGretch":9045,"ĠGmail":9046,"hey":9047,"heat":9048,"Ġenables":9049,"Ġenrich":9050,"Ġslips":9051,"\"\".":9052,"ĠletÃ¢":9053,"aren":9054,"arer":9055,"aret":9056,"Ġfever":9057,"agger":9058,"agram":9059,"berg":9060,"izona":9061,"Ġsmudge":9062,"Ġskim":9063,"Ġscience":9064,"Ġscapula":9065,"ĠPH":9066,"ĠPay":9067,"ĠPart":9068,"ĠPass":9069,"ĠParm":9070,"ĠPlease":9071,"ĠPsych":9072,"ĠPaint":9073,"ĠPersonal":9074,"ĠPacific":9075,"Ġquilt":9076,"Ġcoloration":9077,"Ġtyping":9078,"Ġimported":9079,"Ġstriking":9080,"eline":9081,"elia":9082,"Ġroyal":9083,"Ġhelped":9084,"Ġglide":9085,"ĠInside":9086,"ĠIncl":9087,"Ġarter":9088,"Ġpixels":9089,"ĠJill":9090,"ĠJose":9091,"ĠJames":9092,"ĠJared":9093,"ĠJenn":9094,"ĠJuan":9095,"ĠJessica":9096,"Ġlegally":9097,"ĠRed":9098,"ĠRock":9099,"ĠRiv":9100,"Ġbeta":9101,"ĠTherefore":9102,"Ġmana":9103,"Ġmanna":9104,"Ġmango":9105,"ĠEric":9106,"ĠEasy":9107,"heads":9108,"Ġswoop":9109,"Ġleftover":9110,"Ġcarn":9111,"Ġcarving":9112,"Ġcarriers":9113,"Ġperalite":9114,"Ġlightening":9115,"Ġheaded":9116,"Ġheadaches":9117,"Ġappreci":9118,"ublic":9119,"Ġthinks":9120,"Ġholdem":9121,"Ġstrands":9122,"Ġcompartments":9123,"Ġcouples":9124,"Ġskinny":9125,"Ġpains":9126,"Ġpainter":9127,"Ġnoises":9128,"veling":9129,"Ġfrontside":9130,"Ġpersons":9131,"Ġrunners":9132,"Ġsmallest":9133,"Ġforwards":9134,"Ġwrit":9135,"Ġhardy":9136,"Ġhardly":9137,"Ġdefine":9138,"ropyl":9139,"ĠKing":9140,"ĠKey":9141,"ĠKeeley":9142,"Ġextensive":9143,"Ġedited":9144,"athy":9145,"Ġphases":9146,"Ġdisl":9147,"Ġdischarge":9148,"rical":9149,"riculum":9150,"ĠStrings":9151,"Ġclipped":9152,"Ġreality":9153,"Ġrealities":9154,"Ġcrumb":9155,"Ġcrooked":9156,"Ġrecept":9157,"Ġvet":9158,"Ġfunky":9159,"Ġunc":9160,"Ġunn":9161,"Ġunp":9162,"Ġunable":9163,"Ġuncle":9164,"Ġunpl":9165,"Ġsquirt":9166,"Ġpractical":9167,"Ġpractices":9168,"Ġinstant":9169,"Ġexpans":9170,"Ġdecade":9171,"Ġdeciding":9172,"Ġpushes":9173,"Ġrelation":9174,"irds":9175,"Ġconsume":9176,"Ġconscious":9177,"Ġcentering":9178,"Ġearring":9179,"Ġjumped":9180,"Ġdepos":9181,"Ġstretchy":9182,"Ġcurves":9183,"Ġcurriculum":9184,"Ġsixes":9185,"Ġ35":9186,"Ġfarthest":9187,"Ġspeaks":9188,"Ġquickest":9189,"Ġcompletion":9190,"Ġgrounding":9191,"Ġinfected":9192,"Ġperfor":9193,"Ġbelay":9194,"Ġbelts":9195,"Ġwindy":9196,"Ġdetach":9197,"Ġdetriment":9198,"Ġmixes":9199,"Ġsuppose":9200,"Ġtightening":9201,"Ġtightened":9202,"Ġstringing":9203,"Ġlowered":9204,"Ġcatcher":9205,"Ġincline":9206,"Ġinterchange":9207,"ĠMakeup":9208,"Ġwaxing":9209,"Ġprocessing":9210,"Ġprocesses":9211,"Ġflooring":9212,"ĠChoo":9213,"ĠChap":9214,"ĠChocol":9215,"ĠChanel":9216,"Ġlocate":9217,"Ġlocations":9218,"Ġaccident":9219,"Ġbreakup":9220,"Ġmotiv":9221,"Ġridges":9222,"ĠHealth":9223,"ĠVer":9224,"ĠValley":9225,"ĠVorrac":9226,"Ġcombining":9227,"Ġcombustible":9228,"Ġblackheads":9229,"Ġwalnut":9230,"Ġstopper":9231,"Ġtraum":9232,"Ġtraffic":9233,"Ġpurses":9234,"Ġcollecting":9235,"Ġlowering":9236,"astics":9237,"Ġsandwich":9238,"Ġsprint":9239,"Ġsprinkle":9240,"Ġthinning":9241,"Ġpopping":9242,"Ġpopulation":9243,"Ġfinely":9244,"Ġdiscourage":9245,"Ġblends":9246,"Ġhotel":9247,"Ġdiagram":9248,"Ġfired":9249,"Ġfireworks":9250,"Ġgreenish":9251,"Ġformulated":9252,"Ġdesignated":9253,"Ġswitches":9254,"Ġfreelance":9255,"Ġdistur":9256,"Ġdistracting":9257,"Ġposter":9258,"Ġrubbed":9259,"Ġtailor":9260,"Ġreform":9261,"Ġthicken":9262,"Ġcommode":9263,"Ġtreated":9264,"Ġfollicle":9265,"Ġsteak":9266,"Ġbarb":9267,"Ġrecommendation":9268,"Ġrecommendations":9269,"Ġtempl":9270,"idson":9271,"Ġcrossing":9272,"Ġloan":9273,"Ġplaner":9274,"Ġplanet":9275,"Ġplanned":9276,"garine":9277,"Ġfasten":9278,"Ġmonkeys":9279,"Ġmatched":9280,"ificate":9281,"Ġstrongest":9282,"Ġcuttings":9283,"Ġsoften":9284,"Ġsoftening":9285,"Ġkeyboard":9286,"Ġprofessor":9287,"Ġcloths":9288,"Ġfacts":9289,"Ġpairs":9290,"Ġclassical":9291,"meg":9292,"Ġconfir":9293,"Ġconfuse":9294,"Ġdemonstrated":9295,"Ġlateral":9296,"Ġbusinesses":9297,"Ġhoophouse":9298,"Ġinvisible":9299,"Ġstudies":9300,"Ġstudied":9301,"Ġclimber":9302,"azz":9303,"Ġprepaid":9304,"ĠFrames":9305,"Ġconsiderably":9306,"Ġpowdery":9307,"Ġenjoyable":9308,"Ġpitching":9309,"Ġdevelops":9310,"Ġexplore":9311,"Ġexplos":9312,"Ġimproving":9313,"Ġimproved":9314,"Ġparag":9315,"Ġgolfers":9316,"Ġgrinds":9317,"Ġmargarine":9318,"Ġpresence":9319,"Ġprescription":9320,"Ġprofessionally":9321,"mbles":9322,"Ġ75":9323,"Ġpatience":9324,"Ġpatients":9325,"Ġretire":9326,"Ġretail":9327,"Ġretouch":9328,"Ġengaged":9329,"Ġtravels":9330,"Ġvisiting":9331,"Ġcharacteristic":9332,"Ġcharacteristics":9333,"Ġstrapless":9334,"onsense":9335,"Ġdetailing":9336,"Ġadjustments":9337,"Ġsprays":9338,"eye":9339,"yler":9340,"Ġagility":9341,"Ġmatt":9342,"ĠShiraz":9343,"ĠUnless":9344,"Ġtortill":9345,"Ġnutmeg":9346,"Ġrotating":9347,"Ġsmoked":9348,"Ġstripper":9349,"Ġterribly":9350,"Ġholiday":9351,"Ġcontained":9352,"Ġsnowboard":9353,"Ġflexed":9354,"Ġlistener":9355,"Ġcornmeal":9356,"Ġinstallation":9357,"lights":9358,"Ġaudio":9359,"Ġdresses":9360,"ĠClass":9361,"ĠClimb":9362,"ĠEveryone":9363,"Ġmoments":9364,"Ġdecorations":9365,"Ġavoiding":9366,"Ġterminology":9367,"Ġbabies":9368,"Ġfairway":9369,"Ġbroker":9370,"Ġsecured":9371,"Ġorganize":9372,"Ġchopstick":9373,"Ġdribbles":9374,"Ġemulsion":9375,"ĠExpl":9376,"Ġmodels":9377,"Ġversa":9378,"Ġsilic":9379,"Ġribs":9380,"Ġelectricity":9381,"Ġmessing":9382,"ĠArizona":9383,"Ġreceivers":9384,"Ġselling":9385,"Ġsaws":9386,"Ġpalming":9387,"Ġproponent":9388,"Ġmeetings":9389,"Ġoptional":9390,"Ġmonthly":9391,"Ġequipped":9392,"Ġpasta":9393,"Ġpastry":9394,"Ġdrained":9395,"ĠSpanish":9396,"ltra":9397,"Ġhoping":9398,"Ġhopping":9399,"Ġbrighten":9400,"Ġbrightness":9401,"Ġtaped":9402,"Ġtuner":9403,"Ġtossing":9404,"Ġbolster":9405,"Ġroughly":9406,"Ġtrails":9407,"ĠSwitzer":9408,"Ġlemons":9409,"Ġsuggestion":9410,"Ġestim":9411,"Ġfixed":9412,"aneous":9413,"Ġcolander":9414,"ĠWhereas":9415,"Ġguards":9416,"Ġclothesp":9417,"arring":9418,"idae":9419,"ĠEngland":9420,"Ġperiods":9421,"Ġperforming":9422,"Ġpublished":9423,"Ġdangling":9424,"Ġautomob":9425,"Ġbidding":9426,"Ġgraham":9427,"Ġweddings":9428,"Ġresembles":9429,"Ġidentical":9430,"Ġhunt":9431,"Ġpetal":9432,"Ġdigest":9433,"Ġreduction":9434,"Ġscheduling":9435,"Ġsweetness":9436,"Ġtoughness":9437,"Ġboric":9438,"ĠTrack":9439,"ĠTraining":9440,"Ġurn":9441,"Ġsporting":9442,"Ġabsorbs":9443,"Ġabsorbing":9444,"ĠLeague":9445,"Ġremovable":9446,"Ġoperate":9447,"Ġoperations":9448,"Ġoperates":9449,"Ġillusion":9450,"Ġdimensions":9451,"Ġnetwork":9452,"Ġpopularity":9453,"Ġbeaten":9454,"Ġtrademark":9455,"Ġencounter":9456,"Ġ198":9457,"ĠZach":9458,"Ġcampuses":9459,"Ġradi":9460,"Ġradius":9461,"Ġpockets":9462,"ĠGraden":9463,"Ġartistic":9464,"Ġswims":9465,"Ġsync":9466,"Ġsynch":9467,"Ġcollector":9468,"Ġgeomet":9469,"Ġcertification":9470,"Ġtreasure":9471,"Ġfemales":9472,"Ġfeminine":9473,"Ġeyelashes":9474,"Ġbreeding":9475,"Ġsubjective":9476,"Ġscrubbing":9477,"ĠTwin":9478,"Ġseasoning":9479,"Ġbridle":9480,"ĠRussel":9481,"Ġreplacement":9482,"Ġconcentrating":9483,"Ġmanufactured":9484,"Ġtelescopes":9485,"Ġrectang":9486,"ĠDavidson":9487,"Ġarchitect":9488,"Ġentertainment":9489,"Ġinspires":9490,"Ġbiceps":9491,"Ġduration":9492,"Ġjawfish":9493,"Ġdiagonally":9494,"Ġmagnetic":9495,"Ġreceived":9496,"ĠAdditionally":9497,"Ġdrugs":9498,"Ġbumper":9499,"Ġdisplacement":9500,"Ġtransitions":9501,"Ġsuddenly":9502,"INA":9503,"ĠSelection":9504,"ĠAfrica":9505,"Ġsolder":9506,"Ġnotched":9507,"Ġdehydration":9508,"ĠGuys":9509,"Ġacrylics":9510,"Ġcomplications":9511,"Then":9512,"Ġtactics":9513,"Ġpuppies":9514,"Ġwhipping":9515,"asionally":9516,"ĠAmelia":9517,"rolling":9518,"Ġcopyright":9519,"Ġintegrity":9520,"ĠPatrick":9521,"Ġreferred":9522,"Ġreferee":9523,"Ġreferences":9524,"Ġexperimenting":9525,"Ġcultures":9526,"Ġparka":9527,"Ġdestination":9528,"Ġisolate":9529,"Ġisolated":9530,"Ġreactions":9531,"Ġadapt":9532,"Ġenclosed":9533,"Ġscoops":9534,"Ġelevate":9535,"Ġdiamonds":9536,"Ġathletes":9537,"Ġhonor":9538,"Ġgreet":9539,"Ġfragile":9540,"Ġdeny":9541,"Ġdenial":9542,"Ġdivide":9543,"Ġmulberry":9544,"Ġevil":9545,"Ġstaple":9546,"ĠSquat":9547,"Ġcoordination":9548,"Ġpolice":9549,"ĠMassachuset":9550,"ĠCapuchin":9551,"ĠColubr":9552,"Ġcrunchy":9553,"Ġcrunches":9554,"Ġvending":9555,"Ġsurprised":9556,"Ġdistracted":9557,"Ġresponsibility":9558,"Ġincluding":9559,"ĠAMA":9560,"Ġcocktail":9561,"Ġbrainstorm":9562,"Ġbranches":9563,"Ġblotting":9564,"Ġpeaches":9565,"ĠDVDs":9566,"Ġunderwire":9567,"Ġdisappointed":9568,"Ġvisualize":9569,"Ġmicrofiber":9570,"Ġterrain":9571,"Ġbroadcast":9572,"Ġeffortless":9573,"Ġdelivering":9574,"Ġgeographical":9575,"Ġerrors":9576,"Ġbehavioral":9577,"Ġboundaries":9578,"Ġcarton":9579,"icylic":9580,"ĠTravis":9581,"ĠTraveling":9582,"ĠOffice":9583,"ĠDragster":9584,"Ġreplacing":9585,"Ġelementary":9586,"stringent":9587,"Ġagreement":9588,"Ġmagazine":9589,"Ġcrystals":9590,"Ġgraphite":9591,"Ġpapaya":9592,"Ġwhiskers":9593,"ĠTechn":9594,"Ġrewarding":9595,"ĠSeries":9596,"Ġshelter":9597,"Ġconversations":9598,"ĠMadar":9599,"ĠFlat":9600,"Ġlinebacker":9601,"Ġmineral":9602,"Ġdispos":9603,"Ġinflamm":9604,"Ġparticipate":9605,"Ġsymbols":9606,"Ġvenom":9607,"Ġaquatic":9608,"Ġsenile":9609,"Ġbaiting":9610,"Ġcasual":9611,"Ġcooper":9612,"Ġpistol":9613,"Ġpalette":9614,"Ġdisease":9615,"Ġmailbox":9616,"Ġepisode":9617,"Ġstunts":9618,"Ġjudgment":9619,"ĠWorld":9620,"ĠCoach":9621,"Ġstrategy":9622,"Ġswamps":9623,"Ġguaranteed":9624,"Ġexpanding":9625,"Ġgrandmother":9626,"Ġillustrator":9627,"Ġfundamentals":9628,"Ġtasty":9629,"Ġtastes":9630,"Ġperspective":9631,"Ġembro":9632,"ĠSuper":9633,"ĠSukhasana":9634,"ĠALEX":9635,"ĠALVIN":9636,"Ġenchilada":9637,"Ġunfamiliar":9638,"Ġaccordingly":9639,"Ġassessment":9640,"Ġintimidating":9641,"Ġtags":9642,"Ġtucking":9643,"Ġtucked":9644,"Ġwatered":9645,"Ġcrops":9646,"Ġgums":9647,"Ġdocument":9648,"Ġdocuments":9649,"ĠAccess":9650,"Ġoriented":9651,"Ġorientation":9652,"Ġmosaic":9653,"Ġmosquit":9654,"Ġchameleon":9655,"Ġchameleons":9656,"Ġfrustrated":9657,"Ġfrustrating":9658,"Ġspoken":9659,"Ġpoorly":9660,"Ġconcludes":9661,"ĠMotocross":9662,"Ġarguments":9663,"Ġmanipulate":9664,"Ġcarrot":9665,"Ġcarrots":9666,"Ġreproductions":9667,"Ġcomplexion":9668,"Ġphotographers":9669,"Ġassigned":9670,"Ġfragrant":9671,"Ġdedicated":9672,"lasses":9673,"uzzle":9674,"Ġsilly":9675,"Ġbunny":9676,"Ġplywood":9677,"ĠTriangle":9678,"Ġultimately":9679,"Ġintestines":9680,"Ġoverpower":9681,"ĠGoddess":9682,"Ġbuddy":9683,"Ġfiltration":9684,"Ġpursue":9685,"Ġsubmerged":9686,"Ġslippery":9687,"ĠShaun":9688,"ĠClockwork":9689,"Ġmushrooms":9690,"tzky":9691,"Ġtinted":9692,"Ġsizzling":9693,"Ġmacro":9694,"Ġstatus":9695,"Ġreinforce":9696,"Ġcoarser":9697,"Ġsponges":9698,"ĠBowler":9699,"ĠBarton":9700,"Ġexhales":9701,"ĠMoving":9702,"ĠFinish":9703,"Ġadministr":9704,"Ġimperative":9705,"ĠDiabetes":9706,"ĠDefinitely":9707,"ĠGreys":9708,"Ġsmoother":9709,"ĠJonesy":9710,"ĠReading":9711,"Ġsaucers":9712,"ĠStanding":9713,"Ġveterinarian":9714,"Ġwheelchair":9715,"Ġinterpret":9716,"ĠVIP":9717,"Ġrefractometer":9718,"Ġaffiliation":9719,"Ġillnesses":9720,"Ġhurricane":9721,"ĠQuick":9722,"Ġsymmetrical":9723,"Ġgadgets":9724,"Ġsabre":9725,"Ġsatisf":9726,"Ġwondered":9727,"Ġgarnish":9728,"Ġfencing":9729,"Ġhairstyle":9730,"ĠSkyy":9731,"Ġrapid":9732,"Ġordinary":9733,"Ġkneeling":9734,"ĠOccasionally":9735,"Ġintricate":9736,"ĠHarley":9737,"ĠMexico":9738,"ĠCertain":9739,"ĠContin":9740,"Ġstrictly":9741,"Ġpiercing":9742,"Ġcalligrap":9743,"Ġcontribute":9744,"ĠElbow":9745,"ĠEmily":9746,"ĠKeith":9747,"ĠKnees":9748,"Ġdistinguished":9749,"Ġsurvey":9750,"Ġscheme":9751,"Ġconfiguration":9752,"Ġparasites":9753,"Ġtherapeutic":9754,"Ġnegoti":9755,"Ġvertebra":9756,"Ġtriathlon":9757,"Ġprominent":9758,"Ġrehearsals":9759,"Ġintelligent":9760,"ĠKrynytzky":9761,"Ġpediatrician":9762,"Addario":9763,"EAUX":9764,"Ġsalsa":9765,"Ġbamboo":9766,"Ġhospit":9767,"Ġgourmet":9768,"Ġlollipops":9769,"Ġmimic":9770,"esthetician":9771,"Ġearned":9772,"Ġstubborn":9773,"ĠThailand":9774,"Ġasynch":9775,"ĠBikram":9776,"ĠBacardi":9777,"Ġconventional":9778,"ĠCocktail":9779,"ĠCuenco":9780,"Ġsideburns":9781,"Ġvirtually":9782,"Ġadhesive":9783,"ĠDEDEAUX":9784,"ĠGretchen":9785,"ĠParmesan":9786,"ĠJennifer":9787,"ĠRivas":9788,"ĠChocolate":9789,"ĠFramesi":9790,"Ġtortillas":9791,"ĠSwitzerland":9792,"ĠMassachusetts":9793,"ĠColubridae":9794,"!\"\"\"":9795,"%,":9796,"),":9797,"30":9798,"53":9799,"90":9800,"97":9801,"AL":9802,"As":9803,"Bobby":9804,"CH":9805,"CI":9806,"Do":9807,"EM":9808,"EGER":9809,"Fre":9810,"FOR":9811,"HN":9812,"HER":9813,"ID":9814,"IM":9815,"IS":9816,"In":9817,"It":9818,"IKE":9819,"KER":9820,"MON":9821,"NED":9822,"PR":9823,"Tip":9824,"Two":9825,"ULL":9826,"Well":9827,"ait":9828,"avel":9829,"bac":9830,"bly":9831,"bro":9832,"bread":9833,"bits":9834,"brew":9835,"bench":9836,"cour":9837,"cook":9838,"cotch":9839,"do":9840,"don":9841,"dge":9842,"dles":9843,"duty":9844,"dalon":9845,"eam":9846,"frie":9847,"gs":9848,"gin":9849,"gard":9850,"gence":9851,"goes":9852,"graph":9853,"hh":9854,"hi":9855,"hon":9856,"hot":9857,"hies":9858,"hony":9859,"hism":9860,"iw":9861,"iy":9862,"iences":9863,"kon":9864,"kers":9865,"klor":9866,"kins":9867,"len":9868,"length":9869,"life":9870,"lining":9871,"laugh":9872,"mat":9873,"mate":9874,"mation":9875,"mans":9876,"mark":9877,"mitted":9878,"net":9879,"nate":9880,"nah":9881,"niest":9882,"noff":9883,"oir":9884,"oly":9885,"oel":9886,"okay":9887,"oise":9888,"overs":9889,"ps":9890,"pat":9891,"part":9892,"pong":9893,"ption":9894,"rot":9895,"ras":9896,"rant":9897,"rig":9898,"rong":9899,"ront":9900,"scar":9901,"tc":9902,"tw":9903,"turn":9904,"tend":9905,"tious":9906,"tors":9907,"uv":9908,"uble":9909,"ube":9910,"uise":9911,"vi":9912,"vic":9913,"vant":9914,"vior":9915,"vado":9916,"wrap":9917,"wash":9918,"width":9919,"xop":9920,"yman":9921,"yote":9922,"ysters":9923,"zpat":9924,"Â½":9925,"Ġera":9926,"Ġtrench":9927,"Ġtangle":9928,"Ġtingle":9929,"Ġaer":9930,"Ġastringent":9931,"Ġaesthetician":9932,"Ġthirst":9933,"Ġthresh":9934,"Ġthief":9935,"inis":9936,"inance":9937,"inity":9938,"ouffee":9939,"real":9940,"reate":9941,"rene":9942,"rence":9943,"Ġsust":9944,"Ġsack":9945,"Ġsister":9946,"Ġsentinel":9947,"Ġwob":9948,"Ġwestern":9949,"Ġwolverine":9950,"Ġoom":9951,"Ġoint":9952,"Ġoval":9953,"Ġoolong":9954,"Ġoysters":9955,"Ġtow":9956,"Ġtopping":9957,"Ġtoler":9958,"Ġtobac":9959,"Ġicing":9960,"Ġbou":9961,"Ġbom":9962,"Ġbill":9963,"Ġbod":9964,"Ġberm":9965,"Ġbounces":9966,"Ġbanch":9967,"Ġbitter":9968,"atal":9969,"atra":9970,"aturn":9971,"erb":9972,"erget":9973,"erri":9974,"Ġcit":9975,"Ġcod":9976,"Ġcul":9977,"Ġcum":9978,"Ġciv":9979,"Ġcuc":9980,"Ġcycles":9981,"Ġcinch":9982,"Ġcycl":9983,"Ġhed":9984,"Ġhick":9985,"Ġhitch":9986,"Ġholl":9987,"Ġhike":9988,"Ġhoe":9989,"Ġhiding":9990,"Ġgh":9991,"Ġgust":9992,"Ġgross":9993,"Ġgerm":9994,"Ġgaze":9995,"Ġgicle":9996,"Ġping":9997,"Ġpall":9998,"Ġpam":9999,"Ġpud":10000,"Ġpouch":10001,"Ġpacing":10002,"Ġpaster":10003,"Ġpiling":10004,"Ġpacked":10005,"Ġporous":10006,"Ġpanda":10007,"Ġpraise":10008,"Ġfad":10009,"Ġfee":10010,"Ġfanc":10011,"Ġfather":10012,"Ġfaj":10013,"Ġfrench":10014,"Ġferry":10015,"Ġdand":10016,"Ġdich":10017,"Ġdup":10018,"Ġdorm":10019,"Ġdanc":10020,"Ġdread":10021,"Ġdah":10022,"Ġdues":10023,"Ġduct":10024,"Ġdivid":10025,"llis":10026,"lliot":10027,"Ġlb":10028,"Ġly":10029,"Ġlam":10030,"Ġlure":10031,"Ġlact":10032,"Ġlag":10033,"Ġlash":10034,"Ġloy":10035,"Ġlbs":10036,"Ġlisting":10037,"Ġlasting":10038,"Ġlager":10039,"Ġmall":10040,"Ġmate":10041,"Ġmand":10042,"Ġmating":10043,"Ġmites":10044,"Ġmesh":10045,"Ġmental":10046,"Ġmakers":10047,"Ġmuzzle":10048,"anked":10049,"ania":10050,"anana":10051,"annon":10052,"anveen":10053,"annah":10054,"itor":10055,"itors":10056,"itary":10057,"itute":10058,"itution":10059,"Ġgod":10060,"Ġgover":10061,"Ġital":10062,"ĠitÃĤ":10063,"eng":10064,"enex":10065,"enns":10066,"enius":10067,"oness":10068,"onstr":10069,"orate":10070,"orney":10071,"ĠIde":10072,"Ġinboard":10073,"Ġinhaling":10074,"Ġinno":10075,"usions":10076,"leve":10077,"leur":10078,"left":10079,"Ġisop":10080,"Ġisland":10081,"isc":10082,"isable":10083,"isole":10084,"isphere":10085,"ara":10086,"ari":10087,"arate":10088,"veled":10089,"etically":10090,"etics":10091,"etera":10092,"etime":10093,"Ġnour":10094,"Ġnation":10095,"Ġnape":10096,"Ġnarr":10097,"Ġnicks":10098,"Ġnonsense":10099,"Ġnavel":10100,"Ġhal":10101,"Ġhav":10102,"kel":10103,"icure":10104,"icating":10105,"icia":10106,"icature":10107,"Ġbeater":10108,"Ġbeating":10109,"Ġbeats":10110,"Ġbeaks":10111,"ott":10112,"Ġwhir":10113,"Ġwhose":10114,"edom":10115,"ednes":10116,"Ġstings":10117,"Ġstoves":10118,"Ġstencil":10119,"Ġstaker":10120,"Ġstories":10121,"Ġstinger":10122,"Ġstagn":10123,"alli":10124,"allery":10125,"aco":10126,"acerb":10127,"ascar":10128,"utation":10129,"ĠTO":10130,"ĠTy":10131,"ĠTan":10132,"ĠTar":10133,"ĠTip":10134,"ĠTong":10135,"ĠTighten":10136,"alg":10137,"alation":10138,"alwood":10139,"Ġdose":10140,"Ġdoctors":10141,"Ġdodge":10142,"anted":10143,"ĠSU":10144,"ĠSk":10145,"ĠSn":10146,"ĠSy":10147,"ĠSty":10148,"ĠSatur":10149,"ĠSOS":10150,"ĠSaturn":10151,"ĠAir":10152,"ĠAcc":10153,"ĠAustr":10154,"Ġris":10155,"Ġrom":10156,"Ġric":10157,"Ġramp":10158,"Ġrushing":10159,"Ġranch":10160,"Ġrhin":10161,"verbal":10162,"ĠcanÃ¢":10163,"Ġcancer":10164,"Ġcanola":10165,"ĠThin":10166,"Ġjet":10167,"Ġjets":10168,"Ġjacked":10169,"idents":10170,"ights":10171,"Ġune":10172,"Ġultra":10173,"Ġforcing":10174,"secut":10175,"iran":10176,"irnoff":10177,"cha":10178,"char":10179,"chant":10180,"chief":10181,"ionate":10182,"ooley":10183,"ĠSoy":10184,"Ġliver":10185,"Ġliking":10186,"Ġshy":10187,"Ġshakes":10188,"Ġshins":10189,"Ġshoel":10190,"Ġker":10191,"Ġkink":10192,"Ġkoh":10193,"Ġkiw":10194,"Ġkarate":10195,"Ġoral":10196,"Ġorang":10197,"Ġornam":10198,"enth":10199,"entially":10200,"store":10201,"stress":10202,"stands":10203,"stairs":10204,"ece":10205,"ecord":10206,"Ġsores":10207,"imeters":10208,"rog":10209,"roic":10210,"rost":10211,"roved":10212,"Ġupd":10213,"Ġups":10214,"Ġupset":10215,"eely":10216,"amass":10217,"Ġmolasses":10218,"ĠAndover":10219,"ource":10220,"itters":10221,"Ġliked":10222,"Ġlikeli":10223,"Ġouts":10224,"Ġabilities":10225,"ĠWere":10226,"ĠWard":10227,"ĠWave":10228,"ĠWomen":10229,"ĠWashing":10230,"ĠWonder":10231,"ĠWalking":10232,"ĠWrong":10233,"ĠWednes":10234,"aints":10235,"odak":10236,"odel":10237,"odged":10238,"ĠYol":10239,"urable":10240,"urities":10241,"urray":10242,"Ġneop":10243,"Ġhemp":10244,"Ġnoticing":10245,"ilk":10246,"ilm":10247,"iles":10248,"ilian":10249,"indrical":10250,"Ġalot":10251,"Ġalarm":10252,"Ġalgae":10253,"raw":10254,"raul":10255,"raper":10256,"ravel":10257,"epts":10258,"Ġcha":10259,"Ġchi":10260,"Ġchill":10261,"Ġchart":10262,"Ġchiropract":10263,"Ġfru":10264,"Ġfry":10265,"Ġfryer":10266,"Ġfridge":10267,"cture":10268,"ctober":10269,"Ġleaks":10270,"Ġleveled":10271,"Ġallev":10272,"ĠNorm":10273,"ĠNord":10274,"ĠNige":10275,"ĠNeely":10276,"ipes":10277,"Ġcoins":10278,"Ġcopies":10279,"Ġcoyote":10280,"Ġbackfield":10281,"Ġbackcour":10282,"Ġsomeplace":10283,"Ġplacket":10284,"Ġplugged":10285,"oples":10286,"opoly":10287,"opatra":10288,"ĠOscar":10289,"ĠOctober":10290,"Ġspout":10291,"Ġspent":10292,"Ġspell":10293,"Ġspool":10294,"Ġsparring":10295,"ershey":10296,"ĠBo":10297,"ĠBook":10298,"ĠBatter":10299,"ĠBob":10300,"ĠBAN":10301,"ĠBox":10302,"ĠBILL":10303,"ĠBOY":10304,"ĠBanana":10305,"ulk":10306,"uls":10307,"ulative":10308,"ulatory":10309,"Ġintr":10310,"Ġintu":10311,"Ġexchange":10312,"Ġexacerb":10313,"Ġprobe":10314,"Ġclar":10315,"Ġclutter":10316,"ortant":10317,"ived":10318,"ivered":10319,"Ġthemed":10320,"apse":10321,"ques":10322,"quart":10323,"Ġtearing":10324,"mpit":10325,"unter":10326,"unate":10327,"unette":10328,"unias":10329,"unicating":10330,"Ġpond":10331,"essive":10332,"Ġseek":10333,"inema":10334,"Ġusers":10335,"Ġusage":10336,"Ġusual":10337,"ĠWeÃ¢":10338,"Ġflare":10339,"Ġflock":10340,"Ġflushing":10341,"Ġflames":10342,"Ġflask":10343,"ssing":10344,"ssentially":10345,"estones":10346,"Ġconver":10347,"Ġconvert":10348,"Ġconsecut":10349,"ĠHI":10350,"ĠHit":10351,"ĠHigh":10352,"ĠHors":10353,"ĠHitting":10354,"ĠHaw":10355,"ĠHAR":10356,"ĠHannah":10357,"ĠHershey":10358,"ĠHulk":10359,"ĠHunter":10360,"Ġhandful":10361,"Ġhandker":10362,"Ġprey":10363,"Ġprefers":10364,"Ġbiting":10365,"acelet":10366,"igning":10367,"Ġoffic":10368,"Ġoverly":10369,"Ġoverweight":10370,"Ġkindling":10371,"thern":10372,"Ġdelt":10373,"orer":10374,"Ġbrie":10375,"Ġbrother":10376,"Ġbruis":10377,"Ġbrunette":10378,"ĠMS":10379,"ĠMas":10380,"ĠMatch":10381,"ĠMult":10382,"ĠMoon":10383,"ĠMaster":10384,"ĠMean":10385,"ĠMAN":10386,"ĠMask":10387,"ĠMurray":10388,"Ġacting":10389,"ĠWhite":10390,"astr":10391,"Ġdiffer":10392,"ocular":10393,"ocado":10394,"ometers":10395,"ometimes":10396,"venue":10397,"Ġdrown":10398,"Ġdrier":10399,"Ġdrift":10400,"Ġbasil":10401,"Ġblues":10402,"Ġbloss":10403,"Ġblunt":10404,"ĠCr":10405,"ĠCow":10406,"ĠCount":10407,"ĠCons":10408,"ĠCreme":10409,"ĠCode":10410,"ĠCamel":10411,"ĠCIND":10412,"ĠCPR":10413,"ĠCreate":10414,"Ġsidewall":10415,"Ġsidelines":10416,"Ġpeoples":10417,"Ġvalley":10418,"ĠFood":10419,"ĠFold":10420,"ĠFel":10421,"ĠFair":10422,"ĠFortun":10423,"ĠFollow":10424,"Ġadvent":10425,"Ġadvert":10426,"Ġadmit":10427,"Ġimplements":10428,"Ġimpurities":10429,"Ġhairy":10430,"Ġhairline":10431,"Ġherb":10432,"ĠLA":10433,"ĠLou":10434,"ĠLes":10435,"ĠLust":10436,"ĠLess":10437,"ĠLong":10438,"ĠListing":10439,"ĠLaying":10440,"ĠLAU":10441,"ĠLucky":10442,"ĠDI":10443,"ĠDO":10444,"ĠDR":10445,"ĠDot":10446,"ĠDog":10447,"ĠDian":10448,"ĠDutch":10449,"ĠDrem":10450,"ĠDooley":10451,"Ġworkst":10452,"Ġworkbench":10453,"ĠGra":10454,"ĠGard":10455,"ĠGames":10456,"ĠGrape":10457,"ĠGulf":10458,"ĠGINA":10459,"ĠGenius":10460,"heet":10461,"onella":10462,"xtend":10463,"Ġenorm":10464,"Ġenzy":10465,"Ġenerget":10466,"Ġslim":10467,"Ġslash":10468,"Ġslings":10469,"Ġsludge":10470,"Ġslicing":10471,"Ġbugg":10472,"Ġfees":10473,"inks":10474,"lord":10475,"ishment":10476,"ype":10477,"Ġskips":10478,"Ġskating":10479,"Ġskimming":10480,"ĠThatÃ¢":10481,"Ġtopical":10482,"Ġtopics":10483,"Ġscuff":10484,"Ġsciences":10485,"Ġscraper":10486,"Ġsuited":10487,"Ġbold":10488,"ĠPar":10489,"ĠPill":10490,"ĠPunch":10491,"ĠPoss":10492,"ĠParsley":10493,"ĠPhill":10494,"ĠPAT":10495,"ĠPurpose":10496,"ĠPenns":10497,"ĠPiran":10498,"Ġquo":10499,"Ġquot":10500,"Ġquil":10501,"Ġwatercolor":10502,"Ġimports":10503,"Ġstripe":10504,"ailor":10505,"Ġroasting":10506,"Ġgloom":10507,"Ġgliding":10508,"Ġglutes":10509,"ĠInc":10510,"Ġarrest":10511,"Ġarrows":10512,"Ġarmpit":10513,"ensation":10514,"Ġevened":10515,"Ġcalls":10516,"ĠJK":10517,"ĠJon":10518,"ĠJul":10519,"ĠJean":10520,"osm":10521,"ĠRet":10522,"ĠRun":10523,"ĠRest":10524,"ĠRud":10525,"ĠRept":10526,"ĠRanch":10527,"ĠRecord":10528,"Ġturnout":10529,"Ġmanaged":10530,"Ġmangoes":10531,"Ġsavior":10532,"Ġsaxop":10533,"Ġacup":10534,"ĠEM":10535,"ĠEar":10536,"ĠEqu":10537,"ĠEgg":10538,"ĠEug":10539,"ĠEtc":10540,"ĠElliot":10541,"ĠEssentially":10542,"ĠExtend":10543,"Ġplayback":10544,"Ġlongest":10545,"Ġswish":10546,"Ġswings":10547,"Ġswift":10548,"Ġswirls":10549,"Ġswivel":10550,"Ġundercut":10551,"Ġsheen":10552,"Ġcargo":10553,"Ġcaricature":10554,"Ġamong":10555,"Ġgreater":10556,"Ġgreatly":10557,"ansisco":10558,"overed":10559,"Ġlightweight":10560,"Ġheadst":10561,"Ġheadlights":10562,"Ġapparent":10563,"Ġappears":10564,"Ġeyed":10565,"Ġpointy":10566,"Ġgram":10567,"Ġgrades":10568,"Ġgrilled":10569,"Ġgrams":10570,"Ġcompos":10571,"Ġcomposition":10572,"ionship":10573,"uding":10574,"Ġfooting":10575,"Ġfours":10576,"Ġnoon":10577,"Ġcleaners":10578,"ductors":10579,"Ġpersonnel":10580,"ibilities":10581,"days":10582,"Ġdaylight":10583,"Ġcreole":10584,"Ġdragging":10585,"Ġopener":10586,"Ġhardened":10587,"Ġsecre":10588,"anger":10589,"Ġdefl":10590,"Ġdefault":10591,"umptious":10592,"ĠKom":10593,"ĠKRI":10594,"ĠKEN":10595,"ĠKaren":10596,"ĠKathy":10597,"ĠKodak":10598,"ĠAsian":10599,"Ġeddy":10600,"athers":10601,"Ġserver":10602,"Ġhappier":10603,"ĠStra":10604,"ĠState":10605,"Ġreporter":10606,"Ġrepainted":10607,"ignon":10608,"angeas":10609,"ampoo":10610,"Ġbuys":10611,"Ġcardiac":10612,"Ġproduces":10613,"Ġproducing":10614,"Ġrealized":10615,"Ġcrit":10616,"Ġcrad":10617,"Ġrecover":10618,"Ġreception":10619,"Ġrecovering":10620,"Ġrecovery":10621,"Ġrecipes":10622,"Ġresc":10623,"Ġresort":10624,"Ġreserv":10625,"Ġresupply":10626,"Ġresource":10627,"ĠLetÃ¢":10628,"Ġuns":10629,"Ġunits":10630,"Ġunatt":10631,"Ġunweight":10632,"Ġunlim":10633,"Ġunlock":10634,"Ġunravel":10635,"Ġsquad":10636,"Ġsqueam":10637,"Ġsites":10638,"ĠUnder":10639,"ĠUdd":10640,"Ġpractically":10641,"Ġpracticed":10642,"Ġobs":10643,"Ġobtain":10644,"Ġinstances":10645,"Ġnumb":10646,"Ġexpose":10647,"Ġexpense":10648,"Ġdecay":10649,"ressed":10650,"Ġsecondary":10651,"Ġdescent":10652,"Ġdesert":10653,"Ġreliable":10654,"Ġnewborn":10655,"Ġattitude":10656,"Ġattorney":10657,"Ġimbal":10658,"Ġsurg":10659,"Ġsurgeon":10660,"Ġfullness":10661,"Ġearrings":10662,"Ġpicadill":10663,"Ġproductive":10664,"Ġknead":10665,"Ġkneading":10666,"Ġsnaps":10667,"Ġeleph":10668,"Ġhorr":10669,"Ġhorns":10670,"Ġmusical":10671,"Ġmusco":10672,"which":10673,"Ġkicker":10674,"vention":10675,"Ġ300":10676,"Ġ360":10677,"Ġregion":10678,"Ġregrow":10679,"Ġregions":10680,"Ġregister":10681,"Ġpicket":10682,"ancisco":10683,"Ġpots":10684,"Ġnecks":10685,"ggling":10686,"Ġdetangle":10687,"struct":10688,"Ġbagging":10689,"Ġbaggy":10690,"clean":10691,"Ġsupplied":10692,"Ġtightly":10693,"Ġtightness":10694,"Ġbegan":10695,"ography":10696,"ographical":10697,"orders":10698,"Ġwoods":10699,"Ġrestroom":10700,"Ġreasonable":10701,"Ġinterval":10702,"Ġdefining":10703,"Ġwaxes":10704,"Ġmilitary":10705,"Ġmarkets":10706,"Ġprocessor":10707,"Ġprocessed":10708,"ĠChi":10709,"ĠChop":10710,"ĠCharm":10711,"ĠChoosing":10712,"ĠChosen":10713,"chnapp":10714,"Ġaccep":10715,"Ġaccents":10716,"Ġaccidents":10717,"Ġbreaker":10718,"Ġbreakage":10719,"Ġbreakouts":10720,"Ġmotor":10721,"Ġrides":10722,"ĠHearts":10723,"ffective":10724,"Ġdependent":10725,"ĠVanveen":10726,"Ġpinned":10727,"Ġcombined":10728,"Ġblacks":10729,"umbers":10730,"Ġcollapse":10731,"Ġmedal":10732,"Ġmedial":10733,"Ġtrains":10734,"Ġprotrud":10735,"Ġwatches":10736,"Ġsprout":10737,"Ġdiscard":10738,"Ġdiscount":10739,"Ġtableau":10740,"Ġdivers":10741,"Ġdiagn":10742,"Ġdiapers":10743,"Ġfires":10744,"Ġentree":10745,"Ġentering":10746,"Ġdarks":10747,"Ġforming":10748,"Ġformula":10749,"Ġdesignate":10750,"Ġmilky":10751,"Ġlovely":10752,"Ġblockers":10753,"Ġsurfing":10754,"aha":10755,"Ġfreezes":10756,"Ġdistort":10757,"Ġdistances":10758,"Ġlengths":10759,"Ġreds":10760,"Ġironing":10761,"Ġposted":10762,"Ġtipping":10763,"Ġcooks":10764,"Ġhookah":10765,"Ġbraking":10766,"Ġbraiding":10767,"Ġbuttonhole":10768,"Ġcommitted":10769,"Ġheavily":10770,"Ġ48":10771,"Ġshortly":10772,"Ġfingerp":10773,"Ġfingerprint":10774,"Ġgarbage":10775,"Ġsteer":10776,"Ġsteering":10777,"Ġavocado":10778,"Ġtempered":10779,"Ġfolder":10780,"ĠDoing":10781,"Ġroundworms":10782,"Ġtransfers":10783,"Ġtransparent":10784,"Ġclosure":10785,"grip":10786,"Ġfocal":10787,"Ġloft":10788,"Ġlobe":10789,"Ġcharged":10790,"Ġsunflow":10791,"Ġstroking":10792,"Ġmonoxide":10793,"Ġinsulate":10794,"Ġinsulated":10795,"Ġconduct":10796,"Ġcondensation":10797,"Ġmatchstick":10798,"bossing":10799,"Ġcaps":10800,"Ġcapable":10801,"Ġcapture":10802,"Ġcapabilities":10803,"Ġcontinually":10804,"Ġcontinues":10805,"Ġrelaxer":10806,"Ġrelaxes":10807,"Ġspeeds":10808,"Ġsingles":10809,"Ġsoftened":10810,"terscotch":10811,"Ġslender":10812,"Ġpowering":10813,"Ġminds":10814,"Ġopposing":10815,"Ġaph":10816,"Ġapron":10817,"Ġbathing":10818,"Ġgeneric":10819,"Ġforever":10820,"Ġsolve":10821,"Ġsolids":10822,"ĠDonÃ¢":10823,"Ġartwork":10824,"iums":10825,"Ġnights":10826,"Ġconform":10827,"Ġconfront":10828,"Ġfurry":10829,"Ġhoops":10830,"Ġgardens":10831,"Ġgardener":10832,"Ġmatters":10833,"Ġcamisole":10834,"Ġportals":10835,"Ġclimates":10836,"Ġwidely":10837,"ĠFrancisco":10838,"Ġprotectant":10839,"Ġprotective":10840,"Ġsignal":10841,"Ġsignaling":10842,"Ġgrouped":10843,"Ġpours":10844,"Ġpouring":10845,"Ġfreedom":10846,"ĠWithout":10847,"Ġinformative":10848,"Ġsubway":10849,"immers":10850,"Ġscript":10851,"Ġexplan":10852,"Ġanticip":10853,"Ġleaded":10854,"Ġteaches":10855,"Ġimproves":10856,"Ġcalories":10857,"Ġknotted":10858,"Ġadvisable":10859,"Ġfoiled":10860,"ĠBrayer":10861,"ĠBracelet":10862,"Ġsteamed":10863,"aws":10864,"coming":10865,"compet":10866,"Ġfiguring":10867,"Ġmarin":10868,"Ġmarine":10869,"Ġpreser":10870,"Ġpresents":10871,"Ġpreserv":10872,"Ġpreserve":10873,"Ġprofessionals":10874,"Ġbulk":10875,"Ġpatio":10876,"Ġretention":10877,"Ġretract":10878,"ysis":10879,"ologist":10880,"Ġelectrology":10881,"Ġcraze":10882,"Ġmouthpiec":10883,"Ġaccessorize":10884,"Ġcharacters":10885,"cloth":10886,"Ġroutes":10887,"Ġjoke":10888,"Ġvalues":10889,"Ġscores":10890,"Ġlipslide":10891,"Ġthirds":10892,"Ġuppercut":10893,"Ġmoisten":10894,"Ġskillet":10895,"Ġcreams":10896,"Ġcreamed":10897,"Ġpacks":10898,"Ġpackaging":10899,"Ġsharpener":10900,"Ġadjusted":10901,"Ġscissoring":10902,"Ġpersonalities":10903,"Ġmatted":10904,"ĠShrimp":10905,"ĠShannon":10906,"ĠShampoo":10907,"Ġassume":10908,"Ġassuming":10909,"Ġflavorful":10910,"aux":10911,"Ġlocker":10912,"Ġmicrop":10913,"Ġrotor":10914,"Ġrotates":10915,"Ġrotator":10916,"Ġchocolates":10917,"Ġstrippers":10918,"Ġsituated":10919,"Ġpenny":10920,"Ġliners":10921,"Ġlandlord":10922,"Ġflashy":10923,"Ġflexors":10924,"Ġlisted":10925,"Ġshrub":10926,"Ġshrivel":10927,"Ġwondering":10928,"Ġingest":10929,"Ġyardage":10930,"sels":10931,"ajamas":10932,"Ġexception":10933,"Ġexcuses":10934,"ĠAmericans":10935,"Ġliquids":10936,"Ġorganizing":10937,"Ġorganism":10938,"Ġmoldy":10939,"Ġmolding":10940,"ĠRelease":10941,"Ġsimilarly":10942,"Ġdishw":10943,"Ġemulate":10944,"Ġembossing":10945,"Ġdeadlines":10946,"ĠExam":10947,"ĠExact":10948,"Ġcircum":10949,"Ġcircling":10950,"Ġcirculatory":10951,"Ġlogos":10952,"ship":10953,"Ġribbing":10954,"Ġfiltering":10955,"Ġelectrician":10956,"Ġmessed":10957,"Ġmounted":10958,"ĠArmy":10959,"Ġyellowhead":10960,"Ġreceiving":10961,"ĠSeeing":10962,"Ġsells":10963,"Ġsawing":10964,"Ġcounteract":10965,"Ġdialing":10966,"Ġpropel":10967,"Ġstandards":10968,"Ġconsists":10969,"bruary":10970,"worker":10971,"Ġbathed":10972,"Ġpastel":10973,"Ġshading":10974,"Ġangling":10975,"Ġspringtime":10976,"Ġsaltwater":10977,"Ġenvironmentally":10978,"Ġdusting":10979,"Ġdentures":10980,"ĠSpin":10981,"ĠSpark":10982,"ĠSpeed":10983,"Ġapplicable":10984,"handed":10985,"Ġgifts":10986,"Ġmustard":10987,"Ġoutfield":10988,"Ġsucked":10989,"Ġpossibility":10990,"mediated":10991,"Ġmission":10992,"Ġskirts":10993,"Ġphonebook":10994,"Ġattacks":10995,"Ġburgund":10996,"oofy":10997,"Ġshampoos":10998,"Ġsparkler":10999,"Ġsparklers":11000,"Ġvolts":11001,"Ġmarketing":11002,"Ġpeels":11003,"Ġpeeler":11004,"Ġfighter":11005,"Ġcolum":11006,"Ġcolony":11007,"Ġexcessive":11008,"Ġguarding":11009,"Ġrecording":11010,"Ġsenses":11011,"Ġsensor":11012,"Ġhamstring":11013,"Ġtextures":11014,"Ġconcert":11015,"Ġsuitcase":11016,"Ġperiodically":11017,"Ġinstruction":11018,"Ġperformances":11019,"Ġdetermines":11020,"Ġwidths":11021,"Ġhumming":11022,"Ġdangers":11023,"Ġpurchased":11024,"Ġshampooing":11025,"Ġtugging":11026,"Ġgrapp":11027,"Ġresell":11028,"Ġresemble":11029,"Ġcrackers":11030,"Ġincorporating":11031,"Ġincorporates":11032,"Ġpresentation":11033,"iberately":11034,"Ġdigging":11035,"Ġeffleur":11036,"Ġchallenges":11037,"Ġdelivered":11038,"Ġdeliberately":11039,"ĠPutting":11040,"Ġsweeping":11041,"Ġexpertise":11042,"related":11043,"ĠTrust":11044,"ĠTrad":11045,"ĠTracy":11046,"Ġtelegraph":11047,"Ġfloors":11048,"Ġsealing":11049,"Ġcontracting":11050,"Ġ1800":11051,"Ġabsorption":11052,"Ġhydrangeas":11053,"Ġgroin":11054,"Ġflushed":11055,"ĠLeave":11056,"Ġaccounting":11057,"ĠAmericano":11058,"Ġoccurred":11059,"Ġaffected":11060,"Ġhurry":11061,"Ġcurls":11062,"dominant":11063,"spin":11064,"Ġlatex":11065,"Ġliteracy":11066,"ĠActors":11067,"Ġundulation":11068,"Ġplugs":11069,"Ġintroduced":11070,"Ġconcepts":11071,"Ġpricey":11072,"Ġencour":11073,"Ġlettering":11074,"Ġ1997":11075,"Ġcommunicating":11076,"Ġetouffee":11077,"Ġnotebook":11078,"ĠGrace":11079,"ĠGriffin":11080,"ĠPlastic":11081,"ĠPlacing":11082,"Ġcontraction":11083,"Ġacneic":11084,"Ġmotorcycling":11085,"Ġtrophies":11086,"Ġpedals":11087,"Ġpillows":11088,"Ġmuddy":11089,"Ġoutdated":11090,"Ġpreferably":11091,"ffeinated":11092,"ĠKnight":11093,"Ġopportunities":11094,"Ġcollectible":11095,"Ġcollectibles":11096,"Ġauditioning":11097,"Ġturtles":11098,"Ġturtlen":11099,"Ġgaining":11100,"Ġexfoliation":11101,"Ġclamps":11102,"Ġcertificate":11103,"Ġleafs":11104,"Ġantibody":11105,"Ġantibiot":11106,"Ġbudgeting":11107,"rams":11108,"Ġtacks":11109,"Ġtackles":11110,"Ġfilets":11111,"Ġlatest":11112,"Ġlathe":11113,"Ġinitially":11114,"ĠAbsolute":11115,"ĠBlue":11116,"Ġstructures":11117,"Ġstructural":11118,"Ġgraded":11119,"Ġindication":11120,"Ġindicated":11121,"Ġcontinued":11122,"Ġnutrition":11123,"Ġnarrows":11124,"Ġstems":11125,"ĠScott":11126,"Ġdramatically":11127,"Ġvoila":11128,"Ġpermanently":11129,"Ġeducate":11130,"Ġconcentration":11131,"going":11132,"Ġerup":11133,"Ġirides":11134,"Ġirrig":11135,"Ġladder":11136,"Ġconstruct":11137,"Ġshells":11138,"ĠStarting":11139,"Ġcheapest":11140,"Ġentertaining":11141,"Ġinspection":11142,"Ġinspiration":11143,"ylvania":11144,"colored":11145,"Ġturbine":11146,"Ġdurability":11147,"Ġprogressive":11148,"Ġmagnifying":11149,"Ġhills":11150,"Ġhilltop":11151,"Ġfleece":11152,"Ġlicenses":11153,"Ġlabor":11154,"Ġlawyer":11155,"Ġshifts":11156,"Ġspiral":11157,"Ġspirals":11158,"ĠHolding":11159,"Ġfrequency":11160,"Ġfrequencies":11161,"shirts":11162,"Ġneutralize":11163,"Ġpivoting":11164,"Ġbindings":11165,"Ġdye":11166,"ĠSeas":11167,"ĠSanctuary":11168,"Ġshaving":11169,"Ġanchored":11170,"Ġchamomile":11171,"Ġspilled":11172,"ĠGuy":11173,"Ġsymphony":11174,"Ġpinching":11175,"Ġdistribut":11176,"Ġdistribute":11177,"Ġdistributed":11178,"That":11179,"Ġtactic":11180,"Ġtactical":11181,"Ġpuppet":11182,"Ġstabilize":11183,"ĠApple":11184,"Ġrugged":11185,"ĠPressing":11186,"Ġcranky":11187,"Ġsurvival":11188,"Ġbehaviors":11189,"Ġincrements":11190,"Ġpadded":11191,"Ġpaddles":11192,"Ġreflects":11193,"Ġfingertip":11194,"Ġidentifying":11195,"Ġsummertime":11196,"riters":11197,"Ġcultural":11198,"Ġfolic":11199,"Ġfolklor":11200,"Ġanalysis":11201,"ĠBackwards":11202,"Ġballoons":11203,"ĠDeFre":11204,"ĠPeacock":11205,"ĠJanet":11206,"ĠJanice":11207,"ĠJanuary":11208,"Ġchewing":11209,"Ġfrosted":11210,"Ġabsorbent":11211,"Ġtreadmills":11212,"HEN":11213,"racial":11214,"Ġgathering":11215,"Ġdivis":11216,"Ġmugs":11217,"ettes":11218,"Ġevol":11219,"Ġevidence":11220,"Ġstaples":11221,"Ġstiffness":11222,"Ġcoaches":11223,"Ġcoordinator":11224,"Ġcoarsely":11225,"Ġpolitical":11226,"ĠHomebrew":11227,"Ġpreferences":11228,"ĠColor":11229,"ĠColors":11230,"Ġpriority":11231,"Ġscrapbook":11232,"Ġquietly":11233,"ĠJOHN":11234,"ĠRobot":11235,"Ġcarbonation":11236,"Ġsurprises":11237,"Ġearthy":11238,"Ġdistraction":11239,"Ġmonitors":11240,"Ġapproximate":11241,"Ġresponsibilities":11242,"Ġefficiently":11243,"Ġcabinets":11244,"Ġdisplaying":11245,"Ġwarranties":11246,"Ġsuspect":11247,"Ġhiking":11248,"Ġfuels":11249,"ĠSmall":11250,"ĠSmirnoff":11251,"Ġsexual":11252,"Ġseventeen":11253,"ĠCleopatra":11254,"Ġpromise":11255,"ĠPerhaps":11256,"Ġdefending":11257,"Ġdefenders":11258,"Ġlubricant":11259,"Ġlubricates":11260,"Ġtoxins":11261,"Ġbounds":11262,"Ġcartoon":11263,"ĠIndians":11264,"ĠImportant":11265,"ĠTrail":11266,"ĠWilliam":11267,"Ġhemisphere":11268,"ĠHandyman":11269,"Ġblooms":11270,"Ġfearful":11271,"Ġskipped":11272,"Ġquadric":11273,"Ġreplen":11274,"Ġreplaced":11275,"Ġresidency":11276,"Ġrespectful":11277,"Ġindependently":11278,"Ġparrot":11279,"Ġ011":11280,"Ġtumblers":11281,"Ġboost":11282,"Ġbooster":11283,"Ġboosters":11284,"Ġpapers":11285,"Ġlusting":11286,"asmine":11287,"Ġtrucks":11288,"Ġexamine":11289,"Ġclumping":11290,"Ġprecaut":11291,"Ġbronze":11292,"ĠMaddalon":11293,"Ġpelvic":11294,"Ġbuffing":11295,"Ġbuffer":11296,"Ġbuffalo":11297,"ĠRescue":11298,"ĠEnjoy":11299,"Ġdisposition":11300,"Ġimmunization":11301,"Ġconsuming":11302,"Ġexperiences":11303,"Ġhydraul":11304,"Ġprinciple":11305,"ĠCanada":11306,"Ġemployer":11307,"ĠEuropean":11308,"Ġsymbolic":11309,"RICI":11310,"They":11311,"Ġaxles":11312,"Ġsencha":11313,"Ġoddly":11314,"Ġcasino":11315,"Ġhoods":11316,"Ġpurely":11317,"Ġpiston":11318,"Ġlumps":11319,"Ġmurals":11320,"Ġwhiten":11321,"Ġrendering":11322,"ĠAdobe":11323,"Ġjudges":11324,"Ġwillingness":11325,"Ġtrimmers":11326,"Ġflamingosis":11327,"Ġsequences":11328,"ĠCoast":11329,"ĠCompass":11330,"ĠCompany":11331,"ĠFebruary":11332,"Ġroasted":11333,"Ġemotional":11334,"Ġresponding":11335,"Ġhonestly":11336,"STRY":11337,"Ġcylindrical":11338,"Ġhormones":11339,"Ġweapons":11340,"Ġchapter":11341,"ĠGermany":11342,"Ġfeathering":11343,"Ġskulls":11344,"Ġcontemp":11345,"ĠKleenex":11346,"Ġunfold":11347,"Ġindirectly":11348,"boxing":11349,"Ġneighborhood":11350,"Ġintimidate":11351,"Ġtutoring":11352,"Ġwaters":11353,"Ġgrapevine":11354,"Ġpyth":11355,"Ġpleasing":11356,"Ġpleasurable":11357,"Ġfarmers":11358,"Ġmerid":11359,"Ġmathem":11360,"ĠIgE":11361,"ĠIgG":11362,"Ġannuity":11363,"ĠWindows":11364,"Ġaltitude":11365,"ĠDaisy":11366,"Ġoverlapping":11367,"ĠDrawing":11368,"Ġdumbbells":11369,"Ġdedicate":11370,"Ġwattage":11371,"Ġbananas":11372,"Ġpupil":11373,"Ġpupils":11374,"Ġfoolish":11375,"Ġsterile":11376,"Ġstacking":11377,"ĠSlowly":11378,"Ġshouting":11379,"Ġchronic":11380,"Ġchronicle":11381,"Ġchannels":11382,"Ġexecute":11383,"Ġpolymer":11384,"Ġoverproduction":11385,"ĠMorse":11386,"ĠMixed":11387,"Ġvacu":11388,"Ġrobot":11389,"Ġgrilling":11390,"Ġstranded":11391,"Ġdrawbacks":11392,"Ġattracted":11393,"Ġregardless":11394,"Ġfiltered":11395,"Ġinvestment":11396,"Ġsubmerge":11397,"Ġimprovisation":11398,"Ġcelebrate":11399,"Ġfrogs":11400,"Ġnavigate":11401,"Ġnavigation":11402,"Ġforgotten":11403,"Ġmaneuvering":11404,"Ġtangles":11405,"Ġskewers":11406,"Ġcrowd":11407,"Ġcapelet":11408,"Ġfetlock":11409,"Ġfaults":11410,"accoon":11411,"ĠTennis":11412,"Ġranking":11413,"Ġranges":11414,"Ġrinsing":11415,"Ġfortunate":11416,"Ġlifetime":11417,"Ġcognition":11418,"Ġknuckle":11419,"Ġknuckles":11420,"Ġspectrum":11421,"Ġclogged":11422,"ĠCommunicating":11423,"ĠFreya":11424,"ĠFitness":11425,"ĠFitzpat":11426,"Ġadequate":11427,"Ġadequately":11428,"Ġpruning":11429,"Ġpruner":11430,"Ġscenes":11431,"Ġscientific":11432,"ĠRachel":11433,"ĠRachael":11434,"Ġdissolved":11435,"Ġreflexology":11436,"Ġportrait":11437,"Ġportraits":11438,"Ġsubstance":11439,"Ġscrambling":11440,"Ġexploding":11441,"ĠShoulder":11442,"Ġorganizations":11443,"Ġorganizational":11444,"Ġetcetera":11445,"Ġcontinuously":11446,"ĠImprov":11447,"Ġpearls":11448,"ĠRichardson":11449,"ĠBuddha":11450,"ĠBuddhism":11451,"Ġattempt":11452,"cribed":11453,"Ġignore":11454,"Ġbinocular":11455,"Ġfidget":11456,"Ġfecal":11457,"ĠImag":11458,"Ġinhib":11459,"Ġreleases":11460,"ĠSarah":11461,"Ġmobber":11462,"Ġabrasive":11463,"Ġchisel":11464,"Ġspindles":11465,"ĠBandha":11466,"ĠBubbles":11467,"ĠBoyd":11468,"Ġclinical":11469,"Ġclouds":11470,"Ġfluffy":11471,"Ġcongestion":11472,"ĠMASTRY":11473,"ĠCooler":11474,"ĠLinda":11475,"ĠDemonstr":11476,"ĠGolden":11477,"ĠPortal":11478,"ĠJoin":11479,"Ġcontaminate":11480,"Ġreminders":11481,"Ġamateur":11482,"Ġgrasp":11483,"Ġcrushed":11484,"Ġcrumple":11485,"Ġcruiser":11486,"Ġrelieving":11487,"Ġbehaved":11488,"Ġcupcakes":11489,"Ġdiscipline":11490,"Ġdisconnect":11491,"Ġdiscoloration":11492,"Ġcommitment":11493,"Ġinserted":11494,"Ġweekend":11495,"Ġpenetrate":11496,"Ġrespiratory":11497,"Ġ1972":11498,"Ġgymnastics":11499,"ĠScrub":11500,"Ġgraphics":11501,"Ġshimmery":11502,"Ġevaluating":11503,"Ġfertilizer":11504,"biotic":11505,"Ġsacrum":11506,"Ġsiphon":11507,"Ġyogurt":11508,"Ġbushes":11509,"Ġcereal":11510,"Ġcautious":11511,"Ġfresher":11512,"Ġdraped":11513,"Ġgoogle":11514,"orphin":11515,"Ġineffective":11516,"Ġnicest":11517,"Ġwhistle":11518,"Ġliberal":11519,"ĠWarrior":11520,"ĠWildlife":11521,"Ġalphabet":11522,"Ġchromium":11523,"Ġfrothy":11524,"ĠOmaha":11525,"ĠBreathe":11526,"ĠWebster":11527,"ĠMonopoly":11528,"ĠMagaz":11529,"ĠCosmetics":11530,"ĠCertified":11531,"ĠFederal":11532,"ĠGeorge":11533,"ĠIncluding":11534,"Ġarterial":11535,"Ġwriters":11536,"ĠKeya":11537,"Ġdislodged":11538,"Ġcrumbs":11539,"Ġreceptacle":11540,"Ġunnecess":11541,"Ġexpansion":11542,"Ġdetrimental":11543,"ĠVerde":11544,"Ġtraumatic":11545,"Ġdiagrammatic":11546,"Ġtemplates":11547,"Ġconfirmation":11548,"Ġparagraph":11549,"Ġchopsticks":11550,"Ġautomobile":11551,"Ġgeometry":11552,"Ġadaptable":11553,"Ġinflammation":11554,"Ġembroider":11555,"Ġinterpretation":11556,"FORD":11557,"MONIE":11558,"NEDY":11559,"iyana":11560,"Ġthreshold":11561,"Ġsustain":11562,"Ġwobbly":11563,"Ġoomph":11564,"Ġointment":11565,"Ġtolerate":11566,"Ġtobacco":11567,"Ġbancha":11568,"Ġcivil":11569,"Ġcucumbers":11570,"Ġhedge":11571,"Ġhickory":11572,"Ġholler":11573,"Ġgiclee":11574,"Ġpallet":11575,"Ġpamper":11576,"Ġpastern":11577,"Ġfancier":11578,"Ġdandy":11579,"Ġdichroic":11580,"Ġdivided":11581,"Ġitalic":11582,"Ġisopropyl":11583,"Ġnarrative":11584,"Ġstagnant":11585,"ĠTongue":11586,"ĠStyle":11587,"ĠAccount":11588,"Ġrhinestones":11589,"Ġuneven":11590,"Ġkohl":11591,"Ġkiwi":11592,"Ġlikelihood":11593,"ĠWashington":11594,"ĠWednesday":11595,"ĠYolanda":11596,"Ġneoprene":11597,"Ġalleviate":11598,"ĠNormally":11599,"ĠNordic":11600,"ĠNigel":11601,"Ġbackcourt":11602,"ĠBatteries":11603,"ĠBANFORD":11604,"ĠBOYE":11605,"Ġconsecutive":11606,"ĠHawai":11607,"ĠHARMONIE":11608,"Ġhandkerchief":11609,"Ġbriefly":11610,"ĠMultiple":11611,"ĠMeaning":11612,"Ġblossom":11613,"ĠCountry":11614,"ĠCINDY":11615,"ĠFelicia":11616,"ĠFortunately":11617,"ĠLAURA":11618,"ĠDremel":11619,"ĠGrapevine":11620,"Ġenormous":11621,"Ġenzyme":11622,"Ġenergetic":11623,"Ġbuggy":11624,"ĠPossum":11625,"ĠPATRICI":11626,"ĠPennsylvania":11627,"Ġgloomy":11628,"ĠRudy":11629,"ĠReptile":11630,"Ġsaxophone":11631,"ĠEugene":11632,"ĠKRIEGER":11633,"ĠKENNEDY":11634,"Ġreservoir":11635,"Ġunlimited":11636,"Ġsqueamish":11637,"ĠUddiyana":11638,"Ġpicadillo":11639,"Ġelephant":11640,"Ġmuscovado":11641,"chnapps":11642,"Ġprotrudes":11643,"Ġfingerprints":11644,"Ġsunflowers":11645,"competitive":11646,"Ġmouthpieces":11647,"Ġburgundy":11648,"Ġeffleurage":11649,"Ġturtleneck":11650,"Ġirrigation":11651,"Ġfolkloric":11652,"ĠDeFreitas":11653,"ĠMaddaloni":11654,"Ġhydraulic":11655,"ĠFitzpatrick":11656,"ĠPATRICIA":11657,"!\"":11658,");":11659,".)":11660,"10":11661,"12":11662,"13":11663,"15":11664,"16":11665,"55":11666,"63":11667,"77":11668,"?\"\"":11669,"AD":11670,"AV":11671,"AY":11672,"Al":11673,"ALL":11674,"BE":11675,"BL":11676,"Bl":11677,"Bay":11678,"Because":11679,"BAR":11680,"CA":11681,"Can":11682,"Cle":11683,"CER":11684,"CKER":11685,"CULL":11686,"Don":11687,"Dol":11688,"ET":11689,"EZ":11690,"Er":11691,"Equ":11692,"FD":11693,"For":11694,"GH":11695,"Ge":11696,"Hi":11697,"Have":11698,"Hik":11699,"HAM":11700,"HIM":11701,"IR":11702,"ICH":11703,"IBL":11704,"Just":11705,"Le":11706,"Let":11707,"Law":11708,"Lean":11709,"LIN":11710,"LOC":11711,"MX":11712,"NC":11713,"No":11714,"NIBL":11715,"OVE":11716,"PA":11717,"Pod":11718,"PST":11719,"PPA":11720,"SA":11721,"St":11722,"SOU":11723,"Space":11724,"TA":11725,"TE":11726,"Twin":11727,"Tube":11728,"VP":11729,"Vera":11730,"Would":11731,"XON":11732,"YN":11733,"Yeah":11734,"aus":11735,"aust":11736,"again":11737,"away":11738,"aunch":11739,"auc":11740,"aques":11741,"bt":11742,"bus":11743,"bas":11744,"bore":11745,"bail":11746,"bel":11747,"bos":11748,"bones":11749,"bwe":11750,"blow":11751,"bett":11752,"birds":11753,"cre":11754,"card":11755,"core":11756,"cond":11757,"cases":11758,"casting":11759,"counter":11760,"cogen":11761,"des":11762,"dent":11763,"dest":11764,"dish":11765,"dock":11766,"dale":11767,"dier":11768,"drop":11769,"dress":11770,"door":11771,"dah":11772,"double":11773,"dict":11774,"ea":11775,"eal":11776,"eak":11777,"eath":11778,"eared":11779,"eenth":11780,"fs":11781,"fight":11782,"free":11783,"ford":11784,"french":11785,"fections":11786,"fox":11787,"filled":11788,"fidence":11789,"gas":11790,"gal":11791,"gent":11792,"gers":11793,"gles":11794,"gered":11795,"gium":11796,"ho":11797,"hu":11798,"hake":11799,"home":11800,"hair":11801,"hoe":11802,"hatt":11803,"hops":11804,"hadow":11805,"holes":11806,"iere":11807,"iant":11808,"iid":11809,"ivery":11810,"iore":11811,"iety":11812,"iker":11813,"jing":11814,"kind":11815,"kish":11816,"lin":11817,"lot":11818,"lower":11819,"lily":11820,"lob":11821,"laces":11822,"lands":11823,"lasting":11824,"lker":11825,"lime":11826,"mom":11827,"mic":11828,"mall":11829,"mith":11830,"mid":11831,"make":11832,"mers":11833,"making":11834,"mos":11835,"mary":11836,"mets":11837,"makers":11838,"monella":11839,"nn":11840,"nin":11841,"nant":11842,"nment":11843,"norm":11844,"ngr":11845,"nails":11846,"nett":11847,"nacle":11848,"natal":11849,"oar":11850,"oice":11851,"pu":11852,"pid":11853,"person":11854,"post":11855,"pony":11856,"production":11857,"rin":11858,"rid":11859,"rad":11860,"riting":11861,"ridge":11862,"ser":11863,"sor":11864,"say":11865,"scent":11866,"skin":11867,"sometimes":11868,"tin":11869,"tis":11870,"tight":11871,"tip":11872,"treat":11873,"tone":11874,"tock":11875,"tub":11876,"tically":11877,"type":11878,"uk":11879,"ux":11880,"uish":11881,"uous":11882,"urop":11883,"ucer":11884,"uasive":11885,"vy":11886,"vill":11887,"vol":11888,"vie":11889,"vier":11890,"vature":11891,"vignon":11892,"wee":11893,"will":11894,"wind":11895,"whe":11896,"worm":11897,"welling":11898,"writers":11899,"writing":11900,"xic":11901,"xious":11902,"yh":11903,"yramid":11904,"yllo":11905,"zed":11906,"zoy":11907,"zym":11908,"zky":11909,"Â©":11910,"Ãĥ":11911,"Ġtv":11912,"Ġting":11913,"Ġtep":11914,"Ġtig":11915,"Ġties":11916,"Ġtroup":11917,"Ġtying":11918,"Ġtumble":11919,"Ġastr":11920,"Ġaug":11921,"Ġaustin":11922,"Ġaero":11923,"Ġaha":11924,"Ġahh":11925,"Ġaleve":11926,"Ġthrew":11927,"Ġthorn":11928,"inside":11929,"inarily":11930,"ouple":11931,"ouettes":11932,"rec":11933,"rez":11934,"reed":11935,"really":11936,"rely":11937,"reach":11938,"render":11939,"reens":11940,"retion":11941,"Ġtheore":11942,"Ġtherab":11943,"Ġsin":11944,"Ġsar":11945,"Ġsigh":11946,"Ġsate":11947,"Ġsway":11948,"Ġsage":11949,"Ġsieve":11950,"Ġsizing":11951,"Ġsoul":11952,"Ġsifter":11953,"Ġsigning":11954,"Ġschnapps":11955,"Ġwow":11956,"Ġwid":11957,"Ġwick":11958,"Ġwont":11959,"Ġwarp":11960,"Ġwarning":11961,"Ġwanna":11962,"Ġore":11963,"Ġoat":11964,"Ġtoning":11965,"Ġtopped":11966,"Ġiod":11967,"Ġidle":11968,"ĠiPod":11969,"ingers":11970,"ingles":11971,"Ġbis":11972,"Ġbak":11973,"Ġbatch":11974,"Ġbale":11975,"Ġbib":11976,"Ġbows":11977,"Ġbaker":11978,"Ġbony":11979,"Ġbitten":11980,"Ġbias":11981,"Ġbreeze":11982,"Ġbounced":11983,"aty":11984,"atar":11985,"atere":11986,"atec":11987,"erad":11988,"erical":11989,"erts":11990,"erior":11991,"Ġcd":11992,"Ġcus":11993,"Ġcows":11994,"Ġcider":11995,"Ġcasing":11996,"Ġcyan":11997,"Ġcinema":11998,"Ġhind":11999,"Ġhone":12000,"Ġhock":12001,"Ġheck":12002,"Ġhoof":12003,"Ġhired":12004,"Ġhoses":12005,"Ġhiring":12006,"Ġhulking":12007,"Ġgin":12008,"Ġgou":12009,"Ġgut":12010,"Ġgal":12011,"Ġgly":12012,"Ġgig":12013,"Ġgimb":12014,"Ġgills":12015,"Ġgallery":12016,"Ġgiant":12017,"Ġpor":12018,"Ġpout":12019,"Ġpith":12020,"Ġpir":12021,"Ġpum":12022,"Ġpeck":12023,"Ġpoop":12024,"Ġplea":12025,"Ġproud":12026,"Ġpajamas":12027,"Ġpoofy":12028,"Ġfas":12029,"Ġfoo":12030,"Ġfitt":12031,"Ġfans":12032,"Ġfade":12033,"Ġfav":12034,"Ġfats":12035,"Ġfuss":12036,"Ġfades":12037,"Ġfoli":12038,"Ġfails":12039,"Ġfaced":12040,"Ġfetch":12041,"Ġfuzz":12042,"Ġfaux":12043,"Ġfauc":12044,"Ġdil":12045,"Ġdies":12046,"Ġdair":12047,"Ġdated":12048,"Ġdarn":12049,"Ġdual":12050,"Ġdices":12051,"Ġdagger":12052,"Ġdimmers":12053,"Ġdwelling":12054,"llas":12055,"llip":12056,"llite":12057,"llustr":12058,"Ġlit":12059,"Ġlith":12060,"Ġlake":12061,"Ġlect":12062,"Ġlakes":12063,"Ġlug":12064,"Ġlids":12065,"Ġlacing":12066,"Ġlicking":12067,"Ġlisp":12068,"Ġlacqu":12069,"Ġml":12070,"Ġmere":12071,"Ġmam":12072,"Ġmens":12073,"Ġmound":12074,"Ġmunch":12075,"Ġmike":12076,"Ġmastic":12077,"Ġmirl":12078,"Ġmau":12079,"Ġmisting":12080,"Ġmuted":12081,"Ġmommy":12082,"anasana":12083,"ita":12084,"itam":12085,"itious":12086,"itated":12087,"itating":12088,"itian":12089,"itics":12090,"itley":12091,"Ġgoose":12092,"Ġgoble":12093,"Ġgown":12094,"Ġgobos":12095,"Ġitch":12096,"Ġitiner":12097,"ester":12098,"eshy":12099,"esides":12100,"essels":12101,"enry":12102,"enger":12103,"onic":12104,"onate":12105,"onna":12106,"onomy":12107,"orie":12108,"orical":12109,"orative":12110,"orters":12111,"orgeous":12112,"ĠIron":12113,"ĠIAN":12114,"ĠIllustr":12115,"Ġthats":12116,"Ġinhere":12117,"Ġinactive":12118,"owy":12119,"usic":12120,"usual":12121,"uschet":12122,"lend":12123,"leted":12124,"lephone":12125,"levation":12126,"isms":12127,"isual":12128,"isept":12129,"ispy":12130,"aron":12131,"arke":12132,"arper":12133,"arry":12134,"arga":12135,"vee":12136,"veyard":12137,"verely":12138,"eta":12139,"eti":12140,"etter":12141,"etone":12142,"oma":12143,"omical":12144,"omiting":12145,"ombie":12146,"omona":12147,"Ġnu":12148,"Ġner":12149,"Ġnor":12150,"Ġnod":12151,"Ġnines":12152,"Ġnaps":12153,"Ġnets":12154,"Ġnatives":12155,"Ġnitrogen":12156,"Ġnaked":12157,"Ġnerves":12158,"Ġhaul":12159,"Ġhass":12160,"Ġhalt":12161,"Ġhaunt":12162,"Ġhabits":12163,"kends":12164,"Ġongoing":12165,"ican":12166,"icide":12167,"icate":12168,"icians":12169,"icola":12170,"Ġbees":12171,"Ġbeam":12172,"Ġbeige":12173,"otic":12174,"otate":12175,"othe":12176,"otton":12177,"otony":12178,"ottle":12179,"otta":12180,"oteno":12181,"Ġwhoo":12182,"Ġwhil":12183,"Ġwhirl":12184,"Ġwholes":12185,"Ġweave":12186,"Ġweaving":12187,"Ġwearer":12188,"edges":12189,"edona":12190,"ayed":12191,"ayers":12192,"ayfrench":12193,"Ġeater":12194,"Ġego":12195,"Ġeager":12196,"ĠeBay":12197,"Ġellip":12198,"Ġstall":12199,"Ġstere":12200,"Ġstad":12201,"Ġstink":12202,"Ġstood":12203,"Ġstup":12204,"Ġstager":12205,"acular":12206,"acram":12207,"acitor":12208,"aser":12209,"aseline":12210,"uto":12211,"utz":12212,"uting":12213,"utier":12214,"utto":12215,"utura":12216,"utÃĥ":12217,"ĠToo":12218,"ĠTour":12219,"ĠTort":12220,"ĠTap":12221,"ĠTun":12222,"ĠTest":12223,"ĠTig":12224,"ĠTiff":12225,"ĠTol":12226,"ĠTank":12227,"ĠTues":12228,"ĠTina":12229,"ĠTai":12230,"ĠTicks":12231,"ĠTyler":12232,"ĠTailor":12233,"Ġrequ":12234,"Ġreper":12235,"Ġrewards":12236,"Ġrevis":12237,"Ġreels":12238,"Ġrehydr":12239,"Ġreused":12240,"Ġrechar":12241,"Ġrevenue":12242,"ala":12243,"alm":12244,"alt":12245,"alach":12246,"ality":12247,"alia":12248,"alcohol":12249,"alvan":12250,"Ġdolp":12251,"anthus":12252,"ĠSF":12253,"ĠST":12254,"ĠSit":12255,"ĠSir":12256,"ĠSally":12257,"ĠSure":12258,"ĠSort":12259,"ĠSher":12260,"ĠSush":12261,"ĠSel":12262,"ĠSix":12263,"ĠSub":12264,"ĠSitting":12265,"ĠSri":12266,"ĠSpl":12267,"ĠSau":12268,"ĠSepar":12269,"ĠSpray":12270,"ĠSyn":12271,"ĠSentinel":12272,"ĠSHAN":12273,"ĠSoma":12274,"ĠSedona":12275,"ĠSacram":12276,"ĠAC":12277,"ĠAid":12278,"ĠAnt":12279,"ĠAqu":12280,"ĠArab":12281,"ĠAces":12282,"ĠAdr":12283,"ĠAging":12284,"ĠAura":12285,"ĠAND":12286,"ĠATC":12287,"ĠApart":12288,"ĠAVP":12289,"ĠAaron":12290,"Ġrage":12291,"Ġrav":12292,"Ġrips":12293,"Ġrated":12294,"Ġrising":12295,"Ġrico":12296,"Ġraccoon":12297,"Ġcanine":12298,"Ġcanister":12299,"ĠThus":12300,"ĠThrough":12301,"ĠThough":12302,"ĠThird":12303,"ĠThru":12304,"ĠThurs":12305,"Ġjoh":12306,"Ġjazz":12307,"Ġjasmine":12308,"Ġjayfrench":12309,"Ġarena":12310,"idy":12311,"iderm":12312,"ightly":12313,"Ġforks":12314,"Ġforaging":12315,"Ġwithers":12316,"see":12317,"sequ":12318,"selor":12319,"seize":12320,"semble":12321,"second":12322,"sevier":12323,"cho":12324,"cher":12325,"ched":12326,"check":12327,"chants":12328,"chlea":12329,"lying":12330,"oore":12331,"oove":12332,"ĠSoon":12333,"Ġlig":12334,"Ġlies":12335,"Ġlifter":12336,"Ġlimb":12337,"Ġlibr":12338,"Ġlivest":12339,"Ġshall":12340,"Ġshuff":12341,"Ġshaker":12342,"Ġshroud":12343,"Ġshifter":12344,"Ġshingles":12345,"Ġsharper":12346,"Ġanem":12347,"Ġkiss":12348,"Ġkiting":12349,"adem":12350,"adies":12351,"adoes":12352,"aduate":12353,"ademy":12354,"adiol":12355,"advant":12356,"Ġorc":12357,"Ġorders":12358,"Ġornate":12359,"ento":12360,"ented":12361,"enties":12362,"ential":12363,"start":12364,"stable":12365,"stud":12366,"stery":12367,"stances":12368,"stories":12369,"strology":12370,"stalg":12371,"ecue":12372,"ecifically":12373,"omechan":12374,"Ġsof":12375,"Ġsoles":12376,"Ġsoaking":12377,"Ġsoaks":12378,"Ġsoaked":12379,"Ġsoothe":12380,"imal":12381,"image":12382,"imper":12383,"imble":12384,"imsy":12385,"ros":12386,"rox":12387,"roit":12388,"roly":12389,"rocket":12390,"Ġupstream":12391,"eezing":12392,"ami":12393,"amari":12394,"Ġmohee":12395,"illary":12396,"ouraged":12397,"Ġoutstand":12398,"Ġoutcome":12399,"tha":12400,"thous":12401,"thetically":12402,"Ġabd":12403,"Ġabuse":12404,"Ġaband":12405,"Ġabductors":12406,"Ġabnorm":12407,"ĠWall":12408,"ĠWater":12409,"ĠWood":12410,"ĠWarm":12411,"ĠWats":12412,"ĠWord":12413,"ĠWork":12414,"ĠWait":12415,"ĠWalt":12416,"ĠWimble":12417,"aine":12418,"odo":12419,"odes":12420,"oded":12421,"odge":12422,"odate":12423,"odized":12424,"ĠYum":12425,"urger":12426,"urban":12427,"urgence":12428,"Ġneon":12429,"Ġnebul":12430,"Ġheater":12431,"Ġhemost":12432,"Ġheirl":12433,"Ġheaven":12434,"Ġlitters":12435,"Ġnotify":12436,"ilip":12437,"ilation":12438,"ilical":12439,"Ġwhatso":12440,"Ġwhatnot":12441,"indy":12442,"ĠYouTube":12443,"Ġalway":12444,"Ġalien":12445,"rah":12446,"rails":12447,"raham":12448,"ephy":12449,"ĠthereÃ¢":12450,"Ġthereby":12451,"Ġchants":12452,"Ġchina":12453,"Ġchaff":12454,"Ġchilled":12455,"Ġchills":12456,"Ġfrown":12457,"Ġfrig":12458,"Ġfranch":12459,"Ġfrying":12460,"ctory":12461,"Ġlease":12462,"Ġleverage":12463,"Ġleague":12464,"Ġmakeover":12465,"Ġalloy":12466,"Ġalley":12467,"Ġattain":12468,"Ġatmos":12469,"ĠNO":12470,"ĠNail":12471,"ĠNature":12472,"ĠNative":12473,"ĠNancy":12474,"ĠNAT":12475,"ĠNOR":12476,"ĠNutt":12477,"idemic":12478,"ardonn":12479,"ipher":12480,"ipper":12481,"ipping":12482,"ifty":12483,"ifold":12484,"ifiore":12485,"Ġcoin":12486,"Ġcoqu":12487,"Ġcoast":12488,"Ġcoiling":12489,"Ġcoaching":12490,"Ġcoils":12491,"Ġcobwe":12492,"Ġcochlea":12493,"Ġbacker":12494,"Ġbackup":12495,"Ġbackrest":12496,"Ġbackfl":12497,"Ġbackhoe":12498,"Ġplow":12499,"Ġplans":12500,"Ġplaques":12501,"oph":12502,"open":12503,"gees":12504,"Ġbutterscotch":12505,"Ġknitting":12506,"Ġknocking":12507,"ĠOS":12508,"ĠOil":12509,"ĠObs":12510,"ĠOme":12511,"ĠOoh":12512,"ĠOthers":12513,"ĠOwner":12514,"ĠOlymp":12515,"ĠOtis":12516,"Ġspan":12517,"Ġspit":12518,"Ġspines":12519,"Ġspastic":12520,"Ġspices":12521,"Ġsparing":12522,"Ġspraw":12523,"Ġsprocket":12524,"Ġtrout":12525,"Ġtrial":12526,"Ġtrib":12527,"Ġtrips":12528,"Ġtrump":12529,"ĠBro":12530,"ĠBee":12531,"ĠBun":12532,"ĠBull":12533,"ĠBush":12534,"ĠBrew":12535,"ĠBOS":12536,"ĠBEN":12537,"ĠBOU":12538,"ĠBibles":12539,"ĠBRY":12540,"ĠBirds":12541,"ĠBMX":12542,"ĠBesides":12543,"ulent":12544,"ulter":12545,"ulner":12546,"ulates":12547,"Ġrights":12548,"Ġintensive":12549,"Ġdowns":12550,"Ġdownside":12551,"Ġdownstairs":12552,"abi":12553,"abst":12554,"abiner":12555,"aborate":12556,"Ġexcl":12557,"Ġexceed":12558,"Ġexcel":12559,"Ġexagger":12560,"Ġprocl":12561,"Ġproxim":12562,"Ġcliff":12563,"Ġclue":12564,"Ġclerk":12565,"Ġclaim":12566,"Ġclutt":12567,"Ġclaws":12568,"Ġours":12569,"Ġourself":12570,"ntly":12571,"ntil":12572,"quet":12573,"Ġtech":12574,"Ġtease":12575,"Ġtears":12576,"icky":12577,"mph":12578,"unro":12579,"uncture":12580,"Ġworm":12581,"Ġworries":12582,"sored":12583,"Ġpoke":12584,"Ġpoking":12585,"Ġpolic":12586,"Ġpokes":12587,"Ġpoison":12588,"inell":12589,"Ġtweak":12590,"Ġmega":12591,"Ġmending":12592,"ĠWeather":12593,"ĠWelker":12594,"Ġflore":12595,"Ġflair":12596,"Ġflips":12597,"Ġflange":12598,"Ġflaw":12599,"Ġflared":12600,"Ġflaky":12601,"Ġflamm":12602,"Ġflutes":12603,"Ġflanked":12604,"Ġfleshy":12605,"Ġflimsy":12606,"Ġanyways":12607,"Ġintoxic":12608,"esta":12609,"esting":12610,"estation":12611,"estors":12612,"Ġconverse":12613,"ĠHot":12614,"ĠHas":12615,"ĠHill":12616,"ĠHop":12617,"ĠHoop":12618,"ĠHence":12619,"ĠHouse":12620,"ĠHoney":12621,"ĠHiding":12622,"ĠHenry":12623,"Ġhandwriting":12624,"Ġhandrails":12625,"Ġprere":12626,"Ġpreview":12627,"Ġprevision":12628,"Ġprelim":12629,"Ġpreheat":12630,"Ġprewash":12631,"Ġpredict":12632,"Ġprenatal":12633,"Ġgoodies":12634,"Ġgoodness":12635,"igorous":12636,"iglass":12637,"iggles":12638,"Ġoffices":12639,"Ġoverst":12640,"Ġoverhand":12641,"Ġovercook":12642,"Ġoverturn":12643,"Ġoverwhe":12644,"Ġsees":12645,"Ġseverely":12646,"ationally":12647,"Ġlotus":12648,"Ġkindness":12649,"Ġstarters":12650,"Ġdeals":12651,"ects":12652,"andel":12653,"Ġbride":12654,"Ġbrick":12655,"Ġbrist":12656,"Ġbrood":12657,"Ġbruschet":12658,"Ġbrayers":12659,"ĠMin":12660,"ĠMall":12661,"ĠMal":12662,"ĠMill":12663,"ĠMod":12664,"ĠMast":12665,"ĠMuch":12666,"ĠMem":12667,"ĠMont":12668,"ĠMakes":12669,"ĠMiss":12670,"ĠMary":12671,"ĠMajor":12672,"ĠMites":12673,"ĠMalo":12674,"ĠMilk":12675,"ĠMusic":12676,"ĠMunro":12677,"isty":12678,"istent":12679,"istry":12680,"istically":12681,"istency":12682,"icha":12683,"iche":12684,"ĠWho":12685,"ĠWhitley":12686,"Ġtwos":12687,"asto":12688,"umination":12689,"umming":12690,"Ġdiffuser":12691,"ocal":12692,"ocate":12693,"occan":12694,"lfrie":12695,"Ġdroop":12696,"Ġdrizz":12697,"Ġdrivers":12698,"akable":12699,"Ġblown":12700,"Ġbland":12701,"Ġblonder":12702,"Ġblocked":12703,"Ġblinks":12704,"olstery":12705,"ĠCO":12706,"ĠCut":12707,"ĠCir":12708,"ĠCard":12709,"ĠCab":12710,"ĠCreat":12711,"ĠCup":12712,"ĠCost":12713,"ĠCred":12714,"ĠCats":12715,"ĠCole":12716,"ĠCren":12717,"ĠCustom":12718,"ĠCarr":12719,"ĠCalf":12720,"ĠCoff":12721,"ĠConn":12722,"ĠCamas":12723,"ĠCamass":12724,"ĠCouple":12725,"ĠCotton":12726,"ĠCindy":12727,"ĠCasto":12728,"itele":12729,"ulled":12730,"Ġpeas":12731,"Ġpeers":12732,"Ġpeaks":12733,"Ġvir":12734,"Ġvines":12735,"Ġvents":12736,"Ġvessels":12737,"Ġvomiting":12738,"Ġvulner":12739,"Ġvigorous":12740,"Ġvocal":12741,"ĠFly":12742,"ĠFine":12743,"ĠFull":12744,"ĠFines":12745,"ĠFusion":12746,"ĠFarms":12747,"ĠFisher":12748,"ĠFilm":12749,"ĠFutura":12750,"Ġballet":12751,"ached":12752,"achute":12753,"Ġpartially":12754,"Ġads":12755,"Ġador":12756,"Ġadulter":12757,"Ġimped":12758,"Ġimpart":12759,"Ġimplies":12760,"Ġimpressive":12761,"Ġimpersonal":12762,"Ġhaircut":12763,"Ġpriced":12764,"ĠLas":12765,"ĠLee":12766,"ĠLine":12767,"ĠLud":12768,"ĠLips":12769,"ĠLank":12770,"ĠLands":12771,"ĠLaw":12772,"ĠLuc":12773,"ĠLitter":12774,"ĠLCD":12775,"ĠLino":12776,"ĠLarge":12777,"ĠLisa":12778,"ĠLIKE":12779,"ĠLOVE":12780,"ĠLarry":12781,"ĠLedges":12782,"ĠLutz":12783,"ĠLadies":12784,"emer":12785,"emies":12786,"ĠDen":12787,"ĠDis":12788,"ĠDame":12789,"ĠDel":12790,"ĠDix":12791,"ĠDobson":12792,"ĠDirect":12793,"ĠDAV":12794,"Ġworker":12795,"ĠGab":12796,"ĠGround":12797,"ĠGently":12798,"ĠGuit":12799,"ĠGoms":12800,"ĠGinj":12801,"ĠGinger":12802,"ĠGRA":12803,"ĠGILL":12804,"ĠGreek":12805,"ĠGorgeous":12806,"ĠGutier":12807,"ĠGalvan":12808,"hell":12809,"heit":12810,"help":12811,"healing":12812,"nelly":12813,"Ġenable":12814,"Ġenemies":12815,"Ġeverytime":12816,"Ġslam":12817,"Ġslump":12818,"Ġslave":12819,"\"\"'":12820,"Ġfears":12821,"Ġfeline":12822,"Ġfeathers":12823,"Ġfeisty":12824,"agate":12825,"agues":12826,"aggy":12827,"agascar":12828,"Ġshowy":12829,"Ġshowers":12830,"izable":12831,"Ġbypass":12832,"inkage":12833,"isha":12834,"intzen":12835,"Ġtheirs":12836,"Ġsmack":12837,"Ġsmoth":12838,"Ġsmears":12839,"Ġskyl":12840,"Ġtopographical":12841,"Ġtopspin":12842,"Ġscan":12843,"Ġscab":12844,"Ġscope":12845,"Ġscents":12846,"Ġscared":12847,"Ġscribe":12848,"Ġscutch":12849,"Ġscaven":12850,"Ġscreens":12851,"Ġsund":12852,"Ġsucc":12853,"Ġsupers":12854,"Ġsuicide":12855,"lescent":12856,"Ġbob":12857,"Ġboiled":12858,"ĠPK":12859,"ĠPP":12860,"ĠPh":12861,"ĠPop":12862,"ĠPick":12863,"ĠPol":12864,"ĠPos":12865,"ĠPower":12866,"ĠPaper":12867,"ĠPier":12868,"ĠPool":12869,"ĠPerc":12870,"ĠPear":12871,"ĠPicking":12872,"ĠPatt":12873,"ĠParr":12874,"ĠPulse":12875,"ĠPimples":12876,"ĠPinch":12877,"ĠPoke":12878,"ĠPaddle":12879,"ĠPigs":12880,"ĠPublic":12881,"ĠPastr":12882,"ĠPFD":12883,"ĠPyramid":12884,"ĠPomona":12885,"ĠPalm":12886,"ĠPabst":12887,"Ġwasp":12888,"Ġwasting":12889,"Ġque":12890,"Ġquant":12891,"Ġtalkative":12892,"lpool":12893,"Ġstray":12894,"Ġstraining":12895,"Ġglare":12896,"Ġglands":12897,"Ġglobe":12898,"Ġarrow":12899,"Ġarced":12900,"Ġarbore":12901,"enser":12902,"Ġpiano":12903,"ĠJB":12904,"ĠJay":12905,"ĠJord":12906,"ĠJane":12907,"ĠJNC":12908,"osa":12909,"oscape":12910,"oshin":12911,"Ġcleft":12912,"Ġcleared":12913,"ĠRE":12914,"ĠRay":12915,"ĠRim":12916,"ĠRam":12917,"ĠRub":12918,"ĠRuff":12919,"ĠRoth":12920,"ĠRacing":12921,"ĠRaw":12922,"ĠRocking":12923,"ĠRoman":12924,"ĠRict":12925,"ĠROY":12926,"ĠRyan":12927,"ĠReno":12928,"ĠRotate":12929,"Ġbets":12930,"endorphin":12931,"Ġmanure":12932,"Ġmanaging":12933,"Ġmanifold":12934,"beans":12935,"Ġsaving":12936,"Ġsaute":12937,"Ġsaiid":12938,"Ġsaucer":12939,"ĠsautÃĥ":12940,"Ġacids":12941,"Ġacquire":12942,"Ġacquis":12943,"Ġacetone":12944,"Ġacanthus":12945,"Ġacadem":12946,"Ġeastern":12947,"ĠEs":12948,"ĠEner":12949,"ĠEvent":12950,"ĠEmer":12951,"ĠEffect":12952,"ĠElements":12953,"ĠElderly":12954,"ĠEarth":12955,"ĠElevation":12956,"ĠEcho":12957,"Ġreminis":12958,"Ġremodel":12959,"ogens":12960,"ograms":12961,"oglob":12962,"Ġswan":12963,"Ġswans":12964,"Ġswell":12965,"Ġswipe":12966,"Ġswept":12967,"Ġswelling":12968,"oundation":12969,"Ġopt":12970,"Ġopacity":12971,"Ġopaque":12972,"Ġunderage":12973,"Ġunderarm":12974,"Ġundergr":12975,"Ġunderline":12976,"Ġundergo":12977,"Ġunderwater":12978,"Ġunderarms":12979,"Ġunderstands":12980,"Ġunderlying":12981,"Ġcarbs":12982,"Ġcarried":12983,"Ġcaroteno":12984,"Ġcarabiner":12985,"Ġsett":12986,"Ġthanks":12987,"Ġamaret":12988,"Ġperch":12989,"Ġperipher":12990,"Ġlightener":12991,"Ġlightened":12992,"arkdale":12993,"Ġlinear":12994,"Ġendless":12995,"Ġheadph":12996,"Ġapples":12997,"Ġappoint":12998,"Ġplacemat":12999,"Ġgrate":13000,"Ġgromm":13001,"Ġgrits":13002,"Ġgrids":13003,"Ġgrime":13004,"ĠTheyÃ¢":13005,"Ġcompre":13006,"Ġcompar":13007,"Ġcompression":13008,"Ġskins":13009,"Ġfootwear":13010,"Ġsimulate":13011,"Ġpainful":13012,"Ġpainters":13013,"Ġnovice":13014,"Ġnollie":13015,"Ġnozz":13016,"Ġnostalg":13017,"Ġcleanly":13018,"Ġfronts":13019,"ĠAlas":13020,"ĠAloe":13021,"ĠAlco":13022,"ĠAlien":13023,"ĠAlgae":13024,"Ġbotton":13025,"Ġstraighter":13026,"Ġpersona":13027,"Ġstreets":13028,"Ġstreaks":13029,"Ġcoron":13030,"Ġcorpor":13031,"cessful":13032,"Ġhandshake":13033,"Ġcreases":13034,"Ġcrema":13035,"Ġcrepe":13036,"Ġpressur":13037,"Ġwriter":13038,"Ġharden":13039,"Ġhardens":13040,"Ġhardship":13041,"Ġsecuring":13042,"Ġpositives":13043,"anging":13044,"Ġdeform":13045,"Ġdefects":13046,"orship":13047,"Ġminced":13048,"ĠKim":13049,"ĠKash":13050,"ĠKings":13051,"ĠKah":13052,"ĠKerry":13053,"ĠKiller":13054,"ĠKerri":13055,"ĠKIR":13056,"ĠKoshin":13057,"Ġextent":13058,"Ġextrem":13059,"Ġextras":13060,"Ġedition":13061,"Ġediting":13062,"Ġedged":13063,"athetic":13064,"Ġphyllo":13065,"Ġdrawers":13066,"Ġdrawstring":13067,"Ġdisability":13068,"Ġdiseng":13069,"Ġdisadvant":13070,"Ġserum":13071,"ĠStop":13072,"ĠStick":13073,"ĠStore":13074,"ĠStull":13075,"ĠStamp":13076,"ĠStreet":13077,"Ġpaperwork":13078,"Ġoiler":13079,"Ġrepack":13080,"Ġrepaint":13081,"Ġreputation":13082,"Ġreporters":13083,"Ġrollover":13084,"ampagne":13085,"obic":13086,"tains":13087,"Ġfinite":13088,"Ġfinches":13089,"anks":13090,"Ġcents":13091,"Ġstandpoint":13092,"Ġclipping":13093,"Ġcourte":13094,"Ġcourser":13095,"Ġhadn":13096,"Ġsticker":13097,"Ġ22":13098,"Ġcray":13099,"Ġcruel":13100,"Ġcruise":13101,"Ġcrimper":13102,"Ġrecent":13103,"Ġrecently":13104,"Ġrecycle":13105,"Ġrecycl":13106,"Ġrecorder":13107,"Ġreclining":13108,"Ġresisting":13109,"Ġresurgence":13110,"ĠAnne":13111,"ĠAnimal":13112,"ÂĢÂĿ":13113,"Ġveil":13114,"Ġvegg":13115,"Ġveiny":13116,"Ġvector":13117,"Ġfunniest":13118,"ĠLetting":13119,"Ġuncl":13120,"Ġunpack":13121,"Ġunbre":13122,"Ġunload":13123,"Ġuniversity":13124,"Ġunusual":13125,"Ġunstable":13126,"Ġsquiggles":13127,"Ġpaintball":13128,"ĠUK":13129,"ĠUm":13130,"ĠUtop":13131,"ĠUlt":13132,"ĠUIL":13133,"ĠUntil":13134,"Ġelong":13135,"Ġelaborate":13136,"Ġpractition":13137,"Ġcared":13138,"Ġobese":13139,"Ġobstruct":13140,"Ġinstill":13141,"Ġinstitution":13142,"Ġnumerical":13143,"Ġexport":13144,"Ġexpands":13145,"Ġexpecting":13146,"Ġeyelets":13147,"Ġdece":13148,"Ġdecl":13149,"Ġdecking":13150,"Ġdecals":13151,"Ġdecides":13152,"Ġdecaying":13153,"Ġpushups":13154,"opefully":13155,"Ġsecondly":13156,"Ġdesce":13157,"Ġdescription":13158,"Ġrelief":13159,"Ġattend":13160,"Ġattrib":13161,"Ġflats":13162,"Ġflathead":13163,"Ġimfor":13164,"Ġcoverings":13165,"ĠFork":13166,"Ġremembering":13167,"Ġsurcing":13168,"Ġsurrender":13169,"Ġfewer":13170,"Ġyeast":13171,"Ġbasements":13172,"Ġpassers":13173,"Ġpassionate":13174,"Ġpassenger":13175,"Ġfulls":13176,"Ġfullest":13177,"Ġfullback":13178,"Ġproductions":13179,"iva":13180,"ivan":13181,"ivator":13182,"Ġdepleted":13183,"Ġkneec":13184,"Ġstretched":13185,"Ġsniff":13186,"Ġsnows":13187,"Ġsneezing":13188,"Ġlearns":13189,"Ġbothers":13190,"Ġlasts":13191,"Ġcurb":13192,"Ġcurving":13193,"Ġcurry":13194,"Ġcurious":13195,"Ġcurren":13196,"Ġcurvature":13197,"Ġcurtains":13198,"Ġhomemade":13199,"Ġsixth":13200,"Ġhorn":13201,"when":13202,"white":13203,"Ġ32":13204,"Ġ37":13205,"Ġ350":13206,"Ġregiment":13207,"Ġregulate":13208,"Ġregulated":13209,"Ġpickup":13210,"Ġcompletes":13211,"rabi":13212,"Ġcupboard":13213,"Ġgrounder":13214,"Ġspecially":13215,"Ġspecified":13216,"Ġinfilt":13217,"Ġpotters":13218,"Ġpotatoes":13219,"Ġnecklaces":13220,"Ġordering":13221,"Ġindention":13222,"Ġbelongs":13223,"Ġwinds":13224,"Ġwindmill":13225,"Ġoppose":13226,"Ġdetox":13227,"Ġdeterior":13228,"Ġunto":13229,"Ġuntie":13230,"strung":13231,"Ġlayered":13232,"Ġlayover":13233,"ĠSomebody":13234,"fender":13235,"Ġzoo":13236,"Ġzest":13237,"Ġzombie":13238,"Ġbegun":13239,"Ġstringy":13240,"ographic":13241,"Ġmasters":13242,"Ġmasala":13243,"toire":13244,"toise":13245,"Ġlowers":13246,"Ġwheeling":13247,"Ġrestore":13248,"Ġrestored":13249,"Ġchestnut":13250,"Ġmeanwhile":13251,"ĠMyra":13252,"Ġbeginners":13253,"Ġincons":13254,"Ġinteract":13255,"Ġinterception":13256,"Ġinterrup":13257,"Ġintercept":13258,"Ġinteraction":13259,"Ġinteracting":13260,"Ġinteractions":13261,"Ġdefined":13262,"Ġdefinite":13263,"Ġwaxy":13264,"Ġwaxed":13265,"Ġbookmark":13266,"ĠChar":13267,"ĠChile":13268,"ĠChili":13269,"ĠChamele":13270,"ĠChico":13271,"ĠChiropract":13272,"ĠChipping":13273,"ĠChampagne":13274,"Ġslowing":13275,"olet":13276,"merchant":13277,"Ġfilms":13278,"Ġfilament":13279,"Ġraises":13280,"Ġaccomm":13281,"Ġaccustom":13282,"Ġacclim":13283,"Ġbreakups":13284,"Ġoldest":13285,"Ġstylish":13286,"ĠVen":13287,"ĠVal":13288,"ĠVol":13289,"ĠVog":13290,"ĠVodk":13291,"ĠVisa":13292,"ĠVisual":13293,"ĠVarga":13294,"ĠVaseline":13295,"Ġpinnacle":13296,"Ġcombo":13297,"Ġcombed":13298,"Ġexercising":13299,"Ġstopped":13300,"Ġhorsehair":13301,"Ġtrapping":13302,"Ġmeditate":13303,"Ġmeditation":13304,"Ġtechnology":13305,"Ġpressures":13306,"Ġvaried":13307,"ĠGoodwin":13308,"Ġarmor":13309,"Ġsanded":13310,"Ġsanders":13311,"Ġsandpaper":13312,"Ġsandalwood":13313,"ĠAllister":13314,"ĠAllison":13315,"Ġbuildings":13316,"ommel":13317,"Ġdiscl":13318,"Ġdiscovering":13319,"Ġdiscreet":13320,"Ġdiscovers":13321,"Ġdiscovered":13322,"Ġdiscouraged":13323,"Ġtablet":13324,"Ġtablets":13325,"Ġblew":13326,"Ġhotter":13327,"Ġdiver":13328,"Ġeights":13329,"Ġeighties":13330,"Ġfirewall":13331,"Ġcheers":13332,"Ġcheater":13333,"Ġmainstream":13334,"Ġentit":13335,"Ġentered":13336,"Ġenthus":13337,"Ġdarken":13338,"Ġdarkroom":13339,"Ġformats":13340,"Ġdesigners":13341,"renheit":13342,"Ġfiller":13343,"Ġblockage":13344,"Ġswitched":13345,"Ġeyeshadow":13346,"Ġsurfboard":13347,"Ġregularity":13348,"ahaw":13349,"ahrenheit":13350,"Ġwaiving":13351,"Ġwaited":13352,"Ġfreely":13353,"Ġfreehand":13354,"Ġfreezing":13355,"Ġdistilled":13356,"Ġdistiller":13357,"Ġlengthy":13358,"Ġredo":13359,"Ġredness":13360,"Ġreddish":13361,"Ġposters":13362,"Ġlooped":13363,"Ġtippy":13364,"Ġruby":13365,"Ġrefine":13366,"Ġrefining":13367,"Ġrefined":13368,"ĠwonÃ¢":13369,"Ġbraise":13370,"Ġbraided":13371,"rik":13372,"Ġfallen":13373,"ĠOrig":13374,"Ġfollicles":13375,"Ġlessen":13376,"Ġheaviness":13377,"Ġheaviest":13378,"Ġcatal":13379,"Ġshorten":13380,"Ġshorted":13381,"Ġgarments":13382,"Ġgargle":13383,"Ġmasses":13384,"Ġmassive":13385,"Ġsteal":13386,"ĠBeach":13387,"ĠBegin":13388,"ĠBejing":13389,"Ġworksheet":13390,"Ġsales":13391,"Ġsalicylic":13392,"Ġbargain":13393,"Ġbarriers":13394,"Ġavian":13395,"ĠNeither":13396,"ĠNeglect":13397,"Ġtempted":13398,"Ġtwists":13399,"Ġtwisted":13400,"Ġprintmaking":13401,"Ġwetting":13402,"Ġroundness":13403,"Ġtransverse":13404,"Ġtransplant":13405,"Ġtransactions":13406,"Ġtransmitted":13407,"Ġlovers":13408,"Ġloaf":13409,"Ġcharging":13410,"Ġplaning":13411,"Ġplanner":13412,"Ġplanets":13413,"Ġfastened":13414,"Ġcools":13415,"Ġmonotony":13416,"Ġinsight":13417,"Ġinsulin":13418,"ĠToes":13419,"ĠToss":13420,"ĠToky":13421,"Ġconduc":13422,"Ġspotters":13423,"Ġspotted":13424,"Ġfocuses":13425,"Ġpatterned":13426,"Ġcapability":13427,"Ġcaptive":13428,"Ġcappu":13429,"Ġcapicola":13430,"Ġcapacitor":13431,"Ġvariable":13432,"Ġvariability":13433,"Ġsinging":13434,"Ġsoftware":13435,"Ġkeynot":13436,"Ġfollowed":13437,"Ġbadge":13438,"Ġproficient":13439,"Ġdirected":13440,"Ġsled":13441,"Ġfactory":13442,"Ġdeepening":13443,"Ġmindful":13444,"Ġapical":13445,"Ġapex":13446,"Ġapiec":13447,"Ġwashes":13448,"Ġlargely":13449,"Ġbatt":13450,"Ġgenerate":13451,"Ġforef":13452,"Ġforeign":13453,"Ġforesh":13454,"irritating":13455,"Ġsolo":13456,"Ġsoluble":13457,"Ġclassy":13458,"Ġclassics":13459,"Ġclassmates":13460,"ĠDonna":13461,"Ġsmooths":13462,"Ġsmoothed":13463,"Ġsmoothness":13464,"Ġartic":13465,"Ġarticle":13466,"Ġ500":13467,"Ġwinch":13468,"Ġnightmare":13469,"Ġcorrections":13470,"Ġconfine":13471,"Ġdrinkers":13472,"Ġdirectional":13473,"Ġdemonstrating":13474,"Ġthumbing":13475,"Ġreader":13476,"Ġreadable":13477,"Ġreadings":13478,"ĠNotre":13479,"Ġtracking":13480,"Ġcustomize":13481,"Ġcustomized":13482,"Ġconditioners":13483,"ngue":13484,"Ġbreathes":13485,"Ġtoothache":13486,"Ġporta":13487,"Ġportability":13488,"Ġcaulking":13489,"Ġcaffeinated":13490,"Ġinvoice":13491,"Ġstuds":13492,"Ġstudying":13493,"Ġclimax":13494,"Ġclimbs":13495,"Ġvegetation":13496,"ĠFrance":13497,"ĠFransisco":13498,"Ġconsidering":13499,"Ġprotector":13500,"Ġsignals":13501,"Ġenjoys":13502,"Ġenjoyed":13503,"Ġbeneath":13504,"Ġbenzoy":13505,"Ġsubmit":13506,"Ġnecessity":13507,"Ġheartworms":13508,"Ġheartworm":13509,"Ġscruff":13510,"Ġtemperament":13511,"Ġconnections":13512,"Ġenergies":13513,"Ġsqueezes":13514,"ccino":13515,"ccola":13516,"Ġantisept":13517,"Ġleaders":13518,"Ġtripping":13519,"Ġcaliber":13520,"Ġcalorie":13521,"Ġcalamari":13522,"Ġparry":13523,"Ġparachute":13524,"Ġequate":13525,"Ġequity":13526,"Ġteammates":13527,"Ġteammate":13528,"Ġinformational":13529,"Ġknotless":13530,"Ġbrownish":13531,"Ġadvise":13532,"Ġadvances":13533,"Ġfoiling":13534,"ĠBruce":13535,"ĠBrinell":13536,"ĠBrintzen":13537,"Ġtended":13538,"Ġtendons":13539,"compass":13540,"Ġwoke":13541,"Ġpreset":13542,"Ġpresets":13543,"Ġprescribe":13544,"Ġpresident":13545,"Ġprescribed":13546,"protection":13547,"Ġ72":13548,"Ġretr":13549,"Ġengines":13550,"Ġengages":13551,"ĠRemove":13552,"Ġthreaded":13553,"inson":13554,"insically":13555,"Ġjuicing":13556,"Ġjuicer":13557,"Ġjuicy":13558,"Ġjuicier":13559,"Ġjuggling":13560,"Ġmodest":13561,"Ġmodified":13562,"Ġmodifying":13563,"ologies":13564,"Ġelectroly":13565,"Ġpanic":13566,"Ġringing":13567,"Ġvisited":13568,"Ġattachment":13569,"Ġattachments":13570,"click":13571,"Ġjoining":13572,"Ġjoined":13573,"Ġpreventing":13574,"Ġvalance":13575,"uccessful":13576,"Ġwraps":13577,"Ġchicks":13578,"Ġchickens":13579,"Ġblooded":13580,"Ġbloodstream":13581,"Ġcreaming":13582,"Ġpackets":13583,"Ġissuer":13584,"Ġsharpest":13585,"Ġsharpness":13586,"Ġsharpened":13587,"Ġseatbel":13588,"Ġpersonalize":13589,"Ġpersonalized":13590,"Ġspecializes":13591,"Ġsupported":13592,"Ġsupportive":13593,"Ġspraying":13594,"Ġagreed":13595,"ounge":13596,"Ġdamages":13597,"Ġdamaging":13598,"Ġdamns":13599,"Ġmatifying":13600,"Ġmagical":13601,"ĠShop":13602,"ĠShimmy":13603,"Ġassure":13604,"Ġflipped":13605,"ĠUnlike":13606,"aunt":13607,"Ġtorsion":13608,"Ġtortoise":13609,"Ġrotting":13610,"Ġstripping":13611,"Ġstripped":13612,"Ġlanded":13613,"Ġabsence":13614,"Ġflashlight":13615,"Ġscrewing":13616,"Ġscrewed":13617,"Ġquarts":13618,"Ġstrengthens":13619,"Ġflexor":13620,"Ġflexion":13621,"Ġcolds":13622,"Ġcornbread":13623,"Ġtomahaw":13624,"Ġpalp":13625,"Ġdresser":13626,"Ġmache":13627,"Ġshrunk":13628,"Ġshrinkage":13629,"ĠClown":13630,"ĠClaire":13631,"ĠClarke":13632,"ĠClarkdale":13633,"Ġfreshest":13634,"Ġfreshwater":13635,"itively":13636,"Ġstaining":13637,"Ġcostly":13638,"Ġcostuming":13639,"Ġanywheres":13640,"Ġgripping":13641,"existing":13642,"timal":13643,"Ġfilmmakers":13644,"concept":13645,"Ġbroke":13646,"Ġbroil":13647,"Ġorigin":13648,"Ġoriginated":13649,"Ġorigami":13650,"ĠBasic":13651,"Ġfluids":13652,"Ġsecures":13653,"Ġextends":13654,"Ġloading":13655,"Ġbunching":13656,"Ġbunches":13657,"Ġorganisms":13658,"Ġchoppy":13659,"ĠReg":13660,"ĠReleas":13661,"ĠReinf":13662,"ĠplayerÃ¢":13663,"Ġhyper":13664,"Ġselections":13665,"Ġdeadly":13666,"Ġprinter":13667,"Ġprinters":13668,"ĠExcept":13669,"Ġcounters":13670,"Ġcounselor":13671,"Ġavoided":13672,"Ġ65":13673,"Ġverses":13674,"Ġlogic":13675,"Ġlogically":13676,"Ġsmelled":13677,"Ġexplains":13678,"Ġfoams":13679,"sha":13680,"shaw":13681,"ĠwomenÃ¢":13682,"ĠAnyone":13683,"ĠAnyways":13684,"ĠAnybody":13685,"ĠAnytime":13686,"Ġmessy":13687,"ĠArm":13688,"Ġsooner":13689,"Ġtrimmer":13690,"Ġ201":13691,"Ġbandage":13692,"Ġbandages":13693,"Ġstatements":13694,"Ġreceives":13695,"Ġkeepsakes":13696,"Ġapprove":13697,"Ġapproved":13698,"Ġapproaching":13699,"Ġobjectives":13700,"Ġweekly":13701,"notic":13702,"visational":13703,"Ġyogaalli":13704,"Ġstorytelling":13705,"Ġpropane":13706,"Ġpropels":13707,"Ġpropagate":13708,"Ġqualities":13709,"Ġqualify":13710,"Ġfriendship":13711,"Ġbaths":13712,"Ġbathtub":13713,"Ġdrains":13714,"Ġ150":13715,"Ġ151":13716,"Ġguidelines":13717,"Ġdusty":13718,"ĠSpot":13719,"ĠSpend":13720,"ĠSpecially":13721,"ĠSpiced":13722,"ĠSpecifically":13723,"Ġkitemare":13724,"ĠCanon":13725,"ĠCannon":13726,"Ġceil":13727,"Ġhopper":13728,"Ġoutfits":13729,"Ġbrighter":13730,"Ġsucking":13731,"Ġmusician":13732,"Ġtaping":13733,"Ġtapers":13734,"Ġdaisy":13735,"ĠIsle":13736,"Ġattacking":13737,"Ġreturning":13738,"gesture":13739,"Ġburst":13740,"Ġburdock":13741,"Ġsociety":13742,"Ġsparker":13743,"Ġsparkly":13744,"Ġpriming":13745,"Ġprimed":13746,"Ġprimitive":13747,"Ġmaintains":13748,"Ġsuggests":13749,"Ġsuggested":13750,"Ġidling":13751,"Ġtraction":13752,"Ġcropping":13753,"Ġcroakie":13754,"arrass":13755,"Ġtextured":13756,"Ġseamstress":13757,"Ġguessing":13758,"Ġperiodic":13759,"Ġcompeting":13760,"Ġdetermined":13761,"Ġawareness":13762,"Ġhumans":13763,"Ġhumorous":13764,"Ġpublish":13765,"Ġpublishing":13766,"Ġempathetic":13767,"Ġsplice":13768,"Ġpurchases":13769,"Ġutility":13770,"Ġtufts":13771,"Ġgravel":13772,"Ġgraveyard":13773,"Ġmultip":13774,"Ġrulers":13775,"Ġchemistry":13776,"Ġvodkas":13777,"Ġglosses":13778,"Ġstressing":13779,"Ġphysi":13780,"Ġcracking":13781,"Ġinclined":13782,"Ġpresentations":13783,"Ġsuccession":13784,"Ġidentification":13785,"Ġappropriately":13786,"kini":13787,"Ġhugged":13788,"Ġpetunias":13789,"Ġdigits":13790,"Ġweeding":13791,"Ġreduces":13792,"Ġreduced":13793,"Ġdelay":13794,"Ġdelusions":13795,"Ġdelivery":13796,"Ġcarpal":13797,"Ġhighlighting":13798,"Ġhighlighted":13799,"Ġexpertvill":13800,"Ġtransferred":13801,"Ġwintertime":13802,"Ġborrow":13803,"Ġborax":13804,"ervation":13805,"Ġcakey":13806,"Ġpaths":13807,"Ġpathogens":13808,"Ġmaple":13809,"ĠTrue":13810,"ĠTrans":13811,"ĠTrample":13812,"ĠTritele":13813,"Ġurinate":13814,"Ġforgetting":13815,"Ġanswers":13816,"Ġabsorbers":13817,"Ġhydrometer":13818,"Ġnonirritating":13819,"Ġnapkins":13820,"Ġroper":13821,"Ġgrassy":13822,"Ġsquatted":13823,"Ġraisins":13824,"Ġscratched":13825,"Ġoccurring":13826,"faction":13827,"Ġaffection":13828,"Ġaffective":13829,"Ġoperated":13830,"Ġillumination":13831,"Ġdimple":13832,"Ġinjure":13833,"Ġnetting":13834,"Ġnetwor":13835,"Ġstockbro":13836,"Ġstamping":13837,"ependent":13838,"Ġmemor":13839,"Ġpercentage":13840,"Ġpercentile":13841,"Ġresistor":13842,"Ġresistant":13843,"Ġtargeting":13844,"foliate":13845,"Ġverb":13846,"Ġthru":13847,"Ġthrift":13848,"Ġthrottle":13849,"Ġliterary":13850,"Ġmillimeters":13851,
[...]
